<pad>	0
<s>	0
</s>	0
<unk>	0
▁—	-0
美国	-1
国家	-2
经济	-3
非洲	-4
▁但	-5
20	-6
我们	-7
一个	-8
▁这	-9
问题	-10
世界	-11
他们	-12
政府	-13
▁在	-14
全球	-15
可能	-16
欧洲	-17
可以	-18
增长	-19
这一	-20
需要	-21
政治	-22
发展	-23
已经	-24
中国	-25
必须	-26
政策	-27
这些	-28
没有	-29
主义	-30
以及	-31
其他	-32
因为	-33
▁,	-34
投资	-35
▁”	-36
如果	-37
社会	-38
▁。	-39
国际	-40
▁)	-41
重要	-42
支持	-43
银行	-44
00	-45
领导	-46
地区	-47
201	-48
通过	-49
市场	-50
大的	-51
危机	-52
计划	-53
▁而	-54
实现	-55
不是	-56
欧盟	-57
金融	-58
应该	-59
影响	-60
尽管	-61
美元	-62
能够	-63
它们	-64
所有	-65
提供	-66
方面	-67
正在	-68
200	-69
因此	-70
总统	-71
的是	-72
贸易	-73
的人	-74
许多	-75
成为	-76
▁%	-77
解决	-78
19	-79
研究	-80
事实	-81
组织	-82
部分	-83
无法	-84
技术	-85
目标	-86
开始	-87
日本	-88
联合	-89
自由	-90
现在	-91
认为	-92
同时	-93
持续	-94
未来	-95
▁但是	-96
变化	-97
获得	-98
公司	-99
就是	-100
带来	-101
自己	-102
生产	-103
增加	-104
包括	-105
年轻	-106
的一	-107
合作	-108
▁如果	-109
人们	-110
工作	-111
这样	-112
企业	-113
更多	-114
年的	-115
民主	-116
教育	-117
亿美元	-118
进行	-119
基础	-120
安全	-121
债务	-122
机构	-123
的经济	-124
一些	-125
性的	-126
情况	-127
导致	-128
服务	-129
印度	-130
如此	-131
行动	-132
▁我们	-133
利亚	-134
挑战	-135
事实上	-136
任何	-137
新的	-138
过去	-139
主要	-140
关系	-141
收入	-142
机会	-143
欧元	-144
▁“	-145
存在	-146
改革	-147
财政	-148
资金	-149
什么	-150
气候	-151
领导人	-152
这个	-153
特朗	-154
长期	-155
联合国	-156
▁不	-157
目前	-158
▁当	-159
严重	-160
十年	-161
之间	-162
创造	-163
▁美国	-164
发生	-165
那些	-166
世纪	-167
成功	-168
特朗普	-169
货币	-170
资源	-171
作为	-172
更加	-173
甚至	-174
生活	-175
的国家	-176
环境	-177
农业	-178
到了	-179
只有	-180
对于	-181
结果	-182
人的	-183
成本	-184
一种	-185
拥有	-186
▁此	-187
意味	-188
比如	-189
特别	-190
er	-191
采取	-192
▁事实上	-193
不会	-194
中的	-195
部门	-196
项目	-197
医疗	-198
那么	-199
▁尽管	-200
an	-201
也是	-202
如今	-203
要求	-204
规模	-205
公共	-206
资本	-207
意味着	-208
力的	-209
最近	-210
能源	-211
造成	-212
改善	-213
历史	-214
科学	-215
罗斯	-216
同样	-217
国的	-218
领域	-219
利益	-220
如何	-221
表明	-222
令人	-223
建立	-224
方案	-225
年轻人	-226
出现	-227
来自	-228
一直	-229
尼亚	-230
战争	-231
提高	-232
继续	-233
行为	-234
协议	-235
帮助	-236
还是	-237
▁因此	-238
国家的	-239
实施	-240
援助	-241
▁这些	-242
俄罗斯	-243
他们的	-244
美国的	-245
以来	-246
委员	-247
并不	-248
并且	-249
数据	-250
英国	-251
这种	-252
面临	-253
on	-254
产生	-255
承诺	-256
措施	-257
来说	-258
▁此外	-259
▁非洲	-260
的问题	-261
价值	-262
可持续	-263
使用	-264
系统	-265
设施	-266
仍然	-267
决定	-268
改变	-269
非常	-270
委员会	-271
下降	-272
发达	-273
富汗	-274
消费	-275
阿富汗	-276
共同	-277
就业	-278
确保	-279
取得	-280
希望	-281
得到	-282
时间	-283
风险	-284
特别是	-285
人口	-286
价格	-287
参与	-288
工业	-289
随着	-290
需求	-291
创新	-292
受到	-293
战略	-294
某些	-295
和平	-296
DP	-297
en	-298
关键	-299
决策	-300
劳动	-301
西方	-302
大部分	-303
其中	-304
力量	-305
国内	-306
德国	-307
管理	-308
GDP	-309
50	-310
能力	-311
不同	-312
几乎	-313
反对	-314
以色	-315
似乎	-316
保护	-317
最终	-318
移民	-319
而且	-320
艾滋	-321
以色列	-322
▁(	-323
一步	-324
作用	-325
原因	-326
女性	-327
控制	-328
选举	-329
都是	-330
艾滋病	-331
他的	-332
威胁	-333
平等	-334
谈判	-335
阿尔	-336
经济体	-337
一样	-338
为了	-339
之一	-340
开发	-341
而言	-342
贫困	-343
▁这一	-344
人民	-345
外交	-346
有效	-347
还有	-348
出口	-349
提出	-350
稳定	-351
冲突	-352
恐怖	-353
时候	-354
来越	-355
观点	-356
▁比如	-357
家庭	-358
水平	-359
赤字	-360
是一个	-361
的情况	-362
越来越	-363
接受	-364
方式	-365
重新	-366
上的	-367
不能	-368
竞争	-369
降低	-370
也许	-371
卫生	-372
推动	-373
那样	-374
这样的	-375
重要的	-376
利用	-377
好的	-378
法国	-379
活动	-380
超过	-381
选择	-382
不仅	-383
不可	-384
制造	-385
各国	-386
自身	-387
▁与	-388
基金	-389
从而	-390
体系	-391
努力	-392
基础设施	-393
气候变化	-394
保持	-395
因素	-396
成了	-397
欧元区	-398
30	-399
al	-400
军事	-401
制度	-402
成员	-403
的大	-404
相关	-405
程度	-406
有可能	-407
即使	-408
或者	-409
模式	-410
的新	-411
的最	-412
10	-413
ar	-414
儿童	-415
变得	-416
多数	-417
斯坦	-418
时代	-419
监管	-420
贷款	-421
和其他	-422
经济学	-423
▁从	-424
失业	-425
比亚	-426
▁他	-427
▁对	-428
实际	-429
拉克	-430
的政治	-431
at	-432
不断	-433
关注	-434
土地	-435
关于	-436
减少	-437
年代	-438
者的	-439
000	-440
▁他们	-441
自己的	-442
大学	-443
应对	-444
问题的	-445
城市	-446
类似	-447
联盟	-448
起来	-449
今天	-450
地方	-451
奥巴	-452
妇女	-453
结构	-454
更多的	-455
全世界	-456
而不是	-457
in	-458
伙伴	-459
指出	-460
方法	-461
权利	-462
标准	-463
巨大的	-464
非洲的	-465
非洲国家	-466
了一	-467
伊朗	-468
做出	-469
发现	-470
完全	-471
扩大	-472
报告	-473
私人	-474
奥巴马	-475
传统	-476
健康	-477
刺激	-478
进步	-479
我们的	-480
▁我	-481
事件	-482
只是	-483
支出	-484
繁荣	-485
运动	-486
制定	-487
将会	-488
应当	-489
确定	-490
考虑	-491
融资	-492
个人	-493
储蓄	-494
公民	-495
化的	-496
是否	-497
状况	-498
进一步	-499
商业	-500
央行	-501
根本	-502
由于	-503
责任	-504
限制	-505
生产率	-506
的政策	-507
不再	-508
基本	-509
建设	-510
是一	-511
阿拉	-512
预测	-513
具有	-514
往往	-515
数字	-516
用于	-517
破坏	-518
在于	-519
每年	-520
现实	-521
的话	-522
石油	-523
民主党	-524
阿拉伯	-525
▁最	-526
亚洲	-527
唯一	-528
年前	-529
整个	-530
知识	-531
维持	-532
针对	-533
▁如今	-534
劳动力	-535
发展中	-536
可能会	-537
上升	-538
土耳	-539
当前	-540
更为	-541
趋势	-542
土耳其	-543
此同时	-544
虽然	-545
之间的	-546
的影响	-547
经济增长	-548
代表	-549
障碍	-550
促进	-551
大量	-552
年来	-553
才能	-554
第二	-555
最大的	-556
今年	-557
会议	-558
公众	-559
或许	-560
条件	-561
知道	-562
食品	-563
▁其	-564
之后	-565
产品	-566
共和	-567
十分	-568
危险	-569
武器	-570
真正	-571
的美国	-572
发达国家	-573
60	-574
or	-575
之前	-576
压力	-577
大陆	-578
尼日	-579
日益	-580
治理	-581
避免	-582
预算	-583
不足	-584
商品	-585
普京	-586
现代	-587
的信	-588
表现	-589
首先	-590
199	-591
一位	-592
不到	-593
利率	-594
承认	-595
是在	-596
极端	-597
相反	-598
相当	-599
税收	-600
认识	-601
一次	-602
内部	-603
加入	-604
复杂	-605
正如	-606
相信	-607
2008	-608
人类	-609
依然	-610
尤其	-611
所谓	-612
而是	-613
联邦	-614
衰退	-615
▁中国	-616
▁欧洲	-617
了一个	-618
▁它	-619
▁有	-620
一代	-621
中心	-622
伊斯	-623
数量	-624
经历	-625
结束	-626
财富	-627
▁当然	-628
不平等	-629
1.	-630
▁、	-631
依赖	-632
大利	-633
平衡	-634
必要	-635
排放	-636
暴力	-637
积极	-638
至少	-639
行的	-640
资产	-641
革命	-642
意大利	-643
投资者	-644
的情况下	-645
▁与此同时	-646
两个	-647
但是	-648
吸引	-649
地位	-650
愿意	-651
文化	-652
粮食	-653
试图	-654
达到	-655
达成	-656
伊拉克	-657
决策者	-658
大多数	-659
恐怖主义	-660
充分	-661
准备	-662
助于	-663
埃塞	-664
失败	-665
新兴	-666
民众	-667
理解	-668
网络	-669
视为	-670
转型	-671
难以	-672
ion	-673
伊斯兰	-674
埃塞俄	-675
世界银行	-676
分子	-677
及其	-678
多的	-679
家族	-680
直接	-681
联系	-682
这是	-683
大规模	-684
的全球	-685
经济的	-686
尼日利亚	-687
埃塞俄比亚	-688
70	-689
例如	-690
后的	-691
很多	-692
显然	-693
机制	-694
法律	-695
缺乏	-696
解释	-697
的支持	-698
▁201	-699
ic	-700
一项	-701
中东	-702
官员	-703
崛起	-704
广泛	-705
承担	-706
根据	-707
班牙	-708
第三	-709
群体	-710
过程	-711
的时候	-712
西班牙	-713
这一点	-714
,000	-715
▁C	-716
上述	-717
主权	-718
也不	-719
后果	-720
意义	-721
技能	-722
核心	-723
爆发	-724
短期	-725
证明	-726
地区的	-727
▁S	-728
▁》	-729
专家	-730
仅仅	-731
办法	-732
好处	-733
宣布	-734
将在	-735
就会	-736
强化	-737
强调	-738
显示	-739
权力	-740
条约	-741
毫无	-742
经验	-743
美联	-744
质量	-745
选民	-746
错误	-747
集中	-748
的机会	-749
美联储	-750
解决方案	-751
11	-752
一场	-753
基于	-754
就能	-755
并非	-756
快速	-757
意识	-758
感到	-759
手段	-760
担心	-761
拒绝	-762
时期	-763
相对	-764
陷入	-765
鼓励	-766
的非洲	-767
阿尔及	-768
金融危机	-769
el	-770
也在	-771
人员	-772
信息	-773
去年	-774
双边	-775
工人	-776
恢复	-777
投入	-778
民族	-779
百万	-780
角色	-781
足够	-782
进入	-783
进展	-784
▁首先	-785
不可能	-786
方面的	-787
有助于	-788
让我们	-789
阿尔及利亚	-790
▁A	-791
一起	-792
保证	-793
只能	-794
合法	-795
困难	-796
学生	-797
平均	-798
明确	-799
来的	-800
表示	-801
遏制	-802
重大	-803
阻止	-804
个国家	-805
80	-806
▁除	-807
人士	-808
反应	-809
国会	-810
岗位	-811
批评	-812
提升	-813
灾难	-814
现象	-815
疾病	-816
经常	-817
预期	-818
▁随着	-819
它们的	-820
带来的	-821
的一个	-822
的社会	-823
问题上	-824
外交政策	-825
▁M	-826
也将	-827
加强	-828
巨大	-829
形式	-830
教训	-831
有利	-832
期间	-833
框架	-834
正是	-835
正确	-836
比例	-837
激励	-838
独立	-839
诊断	-840
进程	-841
欧洲的	-842
其他国家	-843
开发银行	-844
可持续发展	-845
之外	-846
信贷	-847
农民	-848
南非	-849
大幅	-850
媒体	-851
巴勒	-852
建议	-853
形成	-854
某种	-855
然而	-856
至关	-857
范围	-858
规则	-859
通常	-860
通胀	-861
不确定	-862
几十年	-863
叙利亚	-864
实际上	-865
政府的	-866
的那样	-867
巴勒斯坦	-868
25	-869
es	-870
▁T	-871
使得	-872
允许	-873
即便	-874
大约	-875
失去	-876
完成	-877
就像	-878
想要	-879
损失	-880
方向	-881
理论	-882
确实	-883
绿色	-884
讨论	-885
贡献	-886
▁这样	-887
制造业	-888
可以在	-889
并不是	-890
并没有	-891
的研究	-892
人都	-893
代价	-894
公开	-895
削减	-896
少数	-897
希腊	-898
无论	-899
有的	-900
纽约	-901
统治	-902
这场	-903
进口	-904
面对	-905
▁为了	-906
▁目前	-907
工业化	-908
是因为	-909
it	-910
事务	-911
伦敦	-912
信用	-913
外国	-914
引起	-915
打击	-916
支付	-917
更高	-918
最大	-919
相比	-920
负责	-921
迅速	-922
青年	-923
中国的	-924
为什么	-925
共和党	-926
发展中国家	-927
90	-928
▁:	-929
▁D	-930
共识	-931
出了	-932
协定	-933
太阳	-934
她们	-935
安倍	-936
工具	-937
引发	-938
有所	-939
流动	-940
简单	-941
腐败	-942
行业	-943
证据	-944
赢得	-945
▁这种	-946
市场的	-947
国际社会	-948
▁一	-949
▁更	-950
▁该	-951
主导	-952
主席	-953
分析	-954
反映	-955
地球	-956
处理	-957
学习	-958
容易	-959
年中	-960
毕竟	-961
秩序	-962
第一	-963
系列	-964
统计	-965
致力	-966
过度	-967
道德	-968
预计	-969
▁但这	-970
成员国	-971
的目标	-972
美国和	-973
万亿美元	-974
2.	-975
一定	-976
东西	-977
两国	-978
全面	-979
外部	-980
多样	-981
多边	-982
寻求	-983
峰会	-984
当今	-985
当地	-986
很大	-987
思想	-988
攻击	-989
政权	-990
效果	-991
死亡	-992
污染	-993
燃料	-994
看来	-995
和政治	-996
年以来	-997
提供了	-998
的国际	-999
致力于	-1000
2015	-1001
经济学家	-1002
is	-1003
▁要	-1004
一致	-1005
也有	-1006
二十	-1007
互相	-1008
交易	-1009
前景	-1010
否则	-1011
哈拉	-1012
国民	-1013
复苏	-1014
宗教	-1015
工程	-1016
找到	-1017
最高	-1018
满足	-1019
潜力	-1020
疫苗	-1021
看到	-1022
组成	-1023
胜利	-1024
议会	-1025
贬值	-1026
都在	-1027
领袖	-1028
▁一个	-1029
▁一些	-1030
▁它们	-1031
▁对于	-1032
▁现在	-1033
严重的	-1034
主义的	-1035
另一个	-1036
的增长	-1037
▁发	-1038
▁的	-1039
事情	-1040
人权	-1041
优势	-1042
供应	-1043
保险	-1044
公平	-1045
塔利	-1046
塞尔	-1047
实力	-1048
执行	-1049
投票	-1050
本身	-1051
来源	-1052
正式	-1053
目的	-1054
负债	-1055
分之一	-1056
和经济	-1057
失业率	-1058
的主要	-1059
程度上	-1060
需要的	-1061
2014	-1062
▁200	-1063
40	-1064
以南	-1065
任务	-1066
华盛	-1067
协调	-1068
卢旺	-1069
回报	-1070
处于	-1071
学家	-1072
性恋	-1073
收益	-1074
曾经	-1075
治疗	-1076
理由	-1077
策略	-1078
肯定	-1079
自然	-1080
观察	-1081
调查	-1082
逐渐	-1083
韩国	-1084
ent	-1085
▁而且	-1086
主义者	-1087
华盛顿	-1088
卢旺达	-1089
塔利班	-1090
撒哈拉	-1091
的方式	-1092
的欧洲	-1093
美国人	-1094
2000	-1095
重要的是	-1096
et	-1097
依靠	-1098
分配	-1099
则是	-1100
埃及	-1101
扮演	-1102
普遍	-1103
电力	-1104
的高	-1105
社区	-1106
部长	-1107
首相	-1108
▁即使	-1109
▁同样	-1110
▁毕竟	-1111
▁相反	-1112
▁虽然	-1113
和社会	-1114
所谓的	-1115
IM	-1116
下的	-1117
个月	-1118
也会	-1119
债券	-1120
共产	-1121
双方	-1122
它的	-1123
态度	-1124
所以	-1125
政客	-1126
生育	-1127
科索	-1128
速度	-1129
▁不管	-1130
全球化	-1131
太阳能	-1132
的能力	-1133
科索沃	-1134
肯尼亚	-1135
▁特朗普	-1136
欧洲央行	-1137
非洲大陆	-1138
12	-1139
15	-1140
不但	-1141
例子	-1142
俄国	-1143
充满	-1144
具备	-1145
即将	-1146
原则	-1147
学术	-1148
开放	-1149
性别	-1150
成立	-1151
我的	-1152
所需	-1153
日程	-1154
有关	-1155
永远	-1156
评估	-1157
适应	-1158
高达	-1159
IMF	-1160
▁发自	-1161
▁结果	-1162
▁这是	-1163
▁通过	-1164
和美国	-1165
增长率	-1166
增长的	-1167
幸的是	-1168
的世界	-1169
的人口	-1170
类似的	-1171
▁P	-1172
▁据	-1173
一切	-1174
乌干	-1175
加剧	-1176
医生	-1177
发挥	-1178
只要	-1179
墨西	-1180
多少	-1181
怀疑	-1182
指标	-1183
构建	-1184
民粹	-1185
消息	-1186
立场	-1187
脆弱	-1188
萨尔	-1189
调整	-1190
购买	-1191
追求	-1192
and	-1193
▁只有	-1194
▁然而	-1195
乌干达	-1196
价值观	-1197
墨西哥	-1198
强大的	-1199
的发展	-1200
的重要	-1201
自身的	-1202
as	-1203
▁B	-1204
▁G	-1205
不过	-1206
两大	-1207
争论	-1208
产业	-1209
伤害	-1210
做法	-1211
各种	-1212
启动	-1213
学者	-1214
官方	-1215
层面	-1216
布什	-1217
当时	-1218
思维	-1219
性和	-1220
情绪	-1221
摆脱	-1222
效率	-1223
显著	-1224
更好	-1225
癌症	-1226
穆斯	-1227
精神	-1228
联网	-1229
补贴	-1230
袭击	-1231
规划	-1232
议院	-1233
该国	-1234
账户	-1235
远远	-1236
▁但在	-1237
世界上	-1238
出现了	-1239
更大的	-1240
更好的	-1241
生育率	-1242
的政府	-1243
▁特别是	-1244
撒哈拉以南	-1245
不管	-1246
估计	-1247
地产	-1248
大选	-1249
局面	-1250
左右	-1251
强烈	-1252
总理	-1253
成果	-1254
扩张	-1255
担忧	-1256
放弃	-1257
疑问	-1258
设计	-1259
转移	-1260
都有	-1261
▁作为	-1262
▁在这	-1263
▁那么	-1264
世界的	-1265
和服务	-1266
成功的	-1267
穆斯林	-1268
认识到	-1269
2017	-1270
ation	-1271
5%	-1272
ac	-1273
am	-1274
ou	-1275
之中	-1276
从未	-1277
低于	-1278
克里	-1279
农村	-1280
动荡	-1281
化为	-1282
合理	-1283
安排	-1284
实验	-1285
当局	-1286
忽视	-1287
旨在	-1288
早已	-1289
是不	-1290
最后	-1291
有人	-1292
未能	-1293
森林	-1294
汇率	-1295
注意	-1296
生命	-1297
真相	-1298
种族	-1299
称为	-1300
空间	-1301
符合	-1302
纳入	-1303
背景	-1304
覆盖	-1305
角度	-1306
说服	-1307
超导	-1308
遭受	-1309
集团	-1310
198	-1311
▁例如	-1312
▁包括	-1313
▁最后	-1314
▁许多	-1315
也就是	-1316
取得了	-1317
在过去	-1318
所面临	-1319
的挑战	-1320
计划的	-1321
那就是	-1322
18	-1323
om	-1324
vi	-1325
一点	-1326
以上	-1327
准确	-1328
变革	-1329
官僚	-1330
年龄	-1331
彻底	-1332
很少	-1333
政党	-1334
斯科	-1335
明显	-1336
武装	-1337
清楚	-1338
的不	-1339
相互	-1340
真的	-1341
而非	-1342
自我	-1343
见的	-1344
计算	-1345
转变	-1346
道路	-1347
长的	-1348
阶段	-1349
马里	-1350
▁其中	-1351
▁因为	-1352
▁由于	-1353
同性恋	-1354
将继续	-1355
生活在	-1356
2010	-1357
毫无疑问	-1358
re	-1359
▁N	-1360
▁为	-1361
一半	-1362
专业	-1363
为止	-1364
之下	-1365
了解	-1366
人和	-1367
但在	-1368
发表	-1369
变暖	-1370
尔兰	-1371
常常	-1372
很快	-1373
总体	-1374
恶化	-1375
愤怒	-1376
方针	-1377
替代	-1378
欢迎	-1379
气体	-1380
氧化	-1381
潜在	-1382
紧缩	-1383
而不	-1384
能否	-1385
苏联	-1386
著名	-1387
跨国	-1388
集体	-1389
▁纽约	-1390
也可以	-1391
互联网	-1392
必要的	-1393
政策的	-1394
是美国	-1395
消费者	-1396
爱尔兰	-1397
的关键	-1398
的基础	-1399
的风险	-1400
科学家	-1401
竞争力	-1402
基金组织	-1403
货币基金组织	-1404
th	-1405
▁将	-1406
▁新	-1407
产出	-1408
停止	-1409
停滞	-1410
具体	-1411
刚刚	-1412
包容	-1413
另一	-1414
培训	-1415
学校	-1416
年间	-1417
度的	-1418
引入	-1419
很难	-1420
想象	-1421
拯救	-1422
效应	-1423
时刻	-1424
煤炭	-1425
状态	-1426
犹太	-1427
短缺	-1428
签署	-1429
统一	-1430
老年	-1431
被迫	-1432
贫穷	-1433
都将	-1434
阶级	-1435
驱动	-1436
▁以及	-1437
▁正如	-1438
▁没有	-1439
因为它	-1440
就必须	-1441
投资于	-1442
政府和	-1443
的同时	-1444
造成的	-1445
▁但如果	-1446
全球经济	-1447
我们必须	-1448
▁不幸的是	-1449
发达经济体	-1450
0.	-1451
21	-1452
In	-1453
ig	-1454
ol	-1455
▁F	-1456
产量	-1457
仍在	-1458
候选	-1459
克服	-1460
冷战	-1461
几个	-1462
出资	-1463
前的	-1464
双相	-1465
可靠	-1466
各地	-1467
告诉	-1468
宪法	-1469
崩溃	-1470
巴基	-1471
强大	-1472
早期	-1473
朋友	-1474
激进	-1475
独裁	-1476
竞选	-1477
精英	-1478
糟糕	-1479
约翰	-1480
经营	-1481
维亚	-1482
而易	-1483
规定	-1484
访问	-1485
负担	-1486
都会	-1487
饥饿	-1488
高于	-1489
▁今天	-1490
▁今年	-1491
▁所有	-1492
▁最近	-1493
危机的	-1494
同样的	-1495
在未来	-1496
在美国	-1497
核武器	-1498
相当于	-1499
面临着	-1500
不确定性	-1501
巴基斯坦	-1502
所需要的	-1503
▁以	-1504
▁到	-1505
中期	-1506
但却	-1507
作物	-1508
值得	-1509
免疫	-1510
制裁	-1511
削弱	-1512
加纳	-1513
同意	-1514
呼吁	-1515
失衡	-1516
工资	-1517
巴黎	-1518
并未	-1519
当然	-1520
所在	-1521
指责	-1522
推进	-1523
教授	-1524
更大	-1525
林斯	-1526
现有	-1527
生物	-1528
禁止	-1529
种子	-1530
空气	-1531
立法	-1532
约束	-1533
缅甸	-1534
警察	-1535
诸多	-1536
鸦片	-1537
不仅仅	-1538
了这一	-1539
对美国	-1540
日本的	-1541
的所有	-1542
的观点	-1543
的资金	-1544
被视为	-1545
双相障碍	-1546
可以通过	-1547
最重要的	-1548
至关重要	-1549
这些国家	-1550
1,	-1551
DG	-1552
三个	-1553
争议	-1554
保守	-1555
信任	-1556
假设	-1557
做的	-1558
再次	-1559
决于	-1560
分裂	-1561
占据	-1562
各自	-1563
年后	-1564
思考	-1565
恐惧	-1566
故事	-1567
普通	-1568
智能	-1569
最为	-1570
本地	-1571
机器	-1572
法案	-1573
理念	-1574
算法	-1575
纳德	-1576
职业	-1577
警告	-1578
边缘	-1579
那里	-1580
重点	-1581
ers	-1582
人民币	-1583
取决于	-1584
可能性	-1585
和金融	-1586
房地产	-1587
数百万	-1588
的核心	-1589
该地区	-1590
2012	-1591
▁实际上	-1592
新兴市场	-1593
许多国家	-1594
国际货币基金组织	-1595
45	-1596
▁E	-1597
▁自	-1598
一体	-1599
举行	-1600
乌克	-1601
二战	-1602
储备	-1603
关税	-1604
冲击	-1605
几年	-1606
北约	-1607
区域	-1608
取代	-1609
受益	-1610
在内	-1611
坚持	-1612
大国	-1613
富裕	-1614
对其	-1615
将是	-1616
巴西	-1617
强劲	-1618
当中	-1619
得以	-1620
急需	-1621
总是	-1622
手术	-1623
批准	-1624
承受	-1625
担任	-1626
捍卫	-1627
数十	-1628
月份	-1629
有着	-1630
构成	-1631
歧视	-1632
毒品	-1633
汇款	-1634
清洁	-1635
温室	-1636
生存	-1637
用的	-1638
电子	-1639
穷人	-1640
紧迫	-1641
记忆	-1642
足以	-1643
转向	-1644
还要	-1645
防止	-1646
阻碍	-1647
除了	-1648
随后	-1649
100	-1650
ter	-1651
▁19	-1652
▁De	-1653
▁根据	-1654
乌克兰	-1655
原因是	-1656
未来的	-1657
欧盟的	-1658
的作用	-1659
的地方	-1660
的工作	-1661
结构性	-1662
自由化	-1663
足够的	-1664
过程中	-1665
还需要	-1666
2013	-1667
2016	-1668
▁在美国	-1669
亿美元的	-1670
已经成为	-1671
▁这意味着	-1672
▁R	-1673
▁由	-1674
万人	-1675
克林	-1676
公约	-1677
利润	-1678
医院	-1679
发布	-1680
困境	-1681
妥协	-1682
孩子	-1683
定义	-1684
尊重	-1685
干预	-1686
德里	-1687
普及	-1688
有限	-1689
毕业	-1690
汽车	-1691
海默	-1692
深刻	-1693
清晰	-1694
福利	-1695
种植	-1696
科技	-1697
秘书	-1698
缺少	-1699
萧条	-1700
表达	-1701
要么	-1702
解放	-1703
这次	-1704
这类	-1705
部队	-1706
ing	-1707
▁同时	-1708
▁日本	-1709
▁甚至	-1710
中国和	-1711
二氧化	-1712
发生在	-1713
基金会	-1714
已经在	-1715
巴尼亚	-1716
带来了	-1717
很可能	-1718
意识到	-1719
所有人	-1720
提出了	-1721
时代的	-1722
有效的	-1723
的计划	-1724
经历了	-1725
让他们	-1726
转化为	-1727
还没有	-1728
▁联合国	-1729
伙伴关系	-1730
全球变暖	-1731
民粹主义	-1732
的经济增长	-1733
阿尔巴尼亚	-1734
撒哈拉以南非洲	-1735
um	-1736
▁-	-1737
▁多	-1738
▁第	-1739
▁近	-1740
上涨	-1741
中央	-1742
人才	-1743
什叶	-1744
任命	-1745
体制	-1746
作出	-1747
供给	-1748
信心	-1749
全部	-1750
军队	-1751
前所	-1752
卡尔	-1753
取消	-1754
变为	-1755
句话	-1756
大大	-1757
对话	-1758
寻找	-1759
差异	-1760
抓住	-1761
提振	-1762
放缓	-1763
整体	-1764
斗争	-1765
是个	-1766
模型	-1767
沙特	-1768
消失	-1769
消除	-1770
特征	-1771
牺牲	-1772
理想	-1773
痛苦	-1774
的反	-1775
盟友	-1776
能在	-1777
膨胀	-1778
补偿	-1779
议程	-1780
论坛	-1781
质疑	-1782
超级	-1783
身份	-1784
迫使	-1785
透明	-1786
重建	-1787
预防	-1788
领土	-1789
for	-1790
▁人们	-1791
▁其次	-1792
▁可以	-1793
产阶级	-1794
人们的	-1795
反映了	-1796
导致了	-1797
情况下	-1798
是一种	-1799
显而易	-1800
的价格	-1801
的努力	-1802
的成本	-1803
的领导	-1804
美国在	-1805
茨海默	-1806
造成了	-1807
2009	-1808
2030	-1809
ment	-1810
医疗服务	-1811
温室气体	-1812
特别是在	-1813
私人部门	-1814
阿尔茨海默	-1815
3.	-1816
TI	-1817
il	-1818
iv	-1819
op	-1820
ur	-1821
▁大	-1822
一年	-1823
下去	-1824
任期	-1825
优先	-1826
农场	-1827
出来	-1828
动员	-1829
团结	-1830
增强	-1831
天气	-1832
对此	-1833
尚未	-1834
帝国	-1835
干旱	-1836
平台	-1837
廉价	-1838
当选	-1839
必然	-1840
恰恰	-1841
患者	-1842
成就	-1843
拉拉	-1844
捐助	-1845
民党	-1846
测试	-1847
消灭	-1848
渴望	-1849
疟疾	-1850
的小	-1851
盈余	-1852
直到	-1853
研发	-1854
社交	-1855
突破	-1856
紧密	-1857
缓慢	-1858
航空	-1859
西洋	-1860
言论	-1861
课程	-1862
起到	-1863
遭到	-1864
邻国	-1865
▁过去	-1866
▁这个	-1867
不同的	-1868
之所以	-1869
什叶派	-1870
候选人	-1871
克林顿	-1872
历史上	-1873
增加了	-1874
将成为	-1875
影响力	-1876
教育和	-1877
有利于	-1878
的承诺	-1879
的投资	-1880
的长期	-1881
真正的	-1882
社会的	-1883
自由的	-1884
许多人	-1885
部门的	-1886
非洲人	-1887
中产阶级	-1888
二氧化碳	-1889
所带来的	-1890
的一部分	-1891
绝大多数	-1892
美国总统	-1893
越来越多的	-1894
阿尔茨海默症	-1895
3%	-1896
▁H	-1897
▁即	-1898
▁并	-1899
▁幸	-1900
▁简	-1901
中所	-1902
丰富	-1903
为何	-1904
举措	-1905
义务	-1906
事会	-1907
付出	-1908
以前	-1909
传染	-1910
倾向	-1911
决议	-1912
制约	-1913
力和	-1914
响应	-1915
回到	-1916
声音	-1917
女孩	-1918
密尔	-1919
小泉	-1920
就在	-1921
层次	-1922
年长	-1923
式的	-1924
怎样	-1925
执政	-1926
描述	-1927
最新	-1928
有多	-1929
机遇	-1930
材料	-1931
柏林	-1932
涉及	-1933
的前	-1934
矛盾	-1935
示威	-1936
紧张	-1937
结合	-1938
继承	-1939
者们	-1940
获取	-1941
葡萄	-1942
说明	-1943
非法	-1944
500	-1945
▁世界	-1946
▁印度	-1947
▁政府	-1948
▁英国	-1949
一体化	-1950
世纪的	-1951
仅仅是	-1952
价值的	-1953
众议院	-1954
前所未	-1955
发生了	-1956
发生的	-1957
支持者	-1958
的军事	-1959
的最佳	-1960
2004	-1961
2007	-1962
不仅仅是	-1963
几十年来	-1964
已经开始	-1965
恐怖分子	-1966
收入国家	-1967
这意味着	-1968
非洲开发银行	-1969
6%	-1970
ob	-1971
oo	-1972
un	-1973
▁L	-1974
▁换	-1975
不够	-1976
不用	-1977
不要	-1978
与其	-1979
严格	-1980
人工	-1981
众多	-1982
伟大	-1983
体现	-1984
其实	-1985
凯恩	-1986
出售	-1987
分歧	-1988
到的	-1989
剥夺	-1990
加拿	-1991
加速	-1992
势力	-1993
千年	-1994
升级	-1995
协助	-1996
参加	-1997
发起	-1998
在其	-1999
天然	-2000
孤立	-2001
害者	-2002
局势	-2003
居民	-2004
巨额	-2005
巩固	-2006
并在	-2007
怎么	-2008
总额	-2009
意愿	-2010
数学	-2011
暂时	-2012
标志	-2013
此前	-2014
比较	-2015
混乱	-2016
犯罪	-2017
监督	-2018
究竟	-2019
绝对	-2020
缺陷	-2021
者和	-2022
肥胖	-2023
营养	-2024
衡量	-2025
观念	-2026
言之	-2027
训练	-2028
讽刺	-2029
设备	-2030
资助	-2031
都要	-2032
除非	-2033
额外	-2034
马斯	-2035
TIP	-2036
avi	-2037
▁幸运	-2038
▁除了	-2039
利比亚	-2040
发展的	-2041
合法性	-2042
喀拉拉	-2043
大西洋	-2044
好消息	-2045
密尔顿	-2046
形成了	-2047
支持的	-2048
更高的	-2049
林斯潘	-2050
的结果	-2051
自民党	-2052
葡萄牙	-2053
贸易和	-2054
问题是	-2055
2011	-2056
▁不管是	-2057
▁美国的	-2058
塞尔维亚	-2059
我们需要	-2060
格林斯潘	-2061
汉密尔顿	-2062
证据表明	-2063
▁幸运的是	-2064
劳动力市场	-2065
很大程度上	-2066
至关重要的	-2067
CA	-2068
CD	-2069
ab	-2070
ag	-2071
of	-2072
ul	-2073
▁让	-2074
一名	-2075
也能	-2076
亚的	-2077
亿人	-2078
传播	-2079
低的	-2080
例外	-2081
内容	-2082
减排	-2083
加快	-2084
发电	-2085
团体	-2086
坚定	-2087
大型	-2088
女权	-2089
宏观	-2090
实行	-2091
客户	-2092
宣称	-2093
展开	-2094
年内	-2095
德拉	-2096
情形	-2097
手中	-2098
掌握	-2099
放在	-2100
有些	-2101
本国	-2102
极为	-2103
正常	-2104
殖民	-2105
注定	-2106
浪费	-2107
渠道	-2108
生态	-2109
百分	-2110
相同	-2111
真实	-2112
答案	-2113
紧急	-2114
红利	-2115
纳瓦	-2116
经过	-2117
缓解	-2118
至于	-2119
至今	-2120
贝卢	-2121
过于	-2122
运输	-2123
这么	-2124
问责	-2125
400	-2126
MDG	-2127
▁无论	-2128
一系列	-2129
下降到	-2130
为非洲	-2131
举行的	-2132
也没有	-2133
他们对	-2134
债务的	-2135
凯恩斯	-2136
加拿大	-2137
危险的	-2138
和国际	-2139
在全球	-2140
在非洲	-2141
失去了	-2142
实施了	-2143
必须在	-2144
所需的	-2145
时间里	-2146
最近的	-2147
机构的	-2148
注意力	-2149
的唯一	-2150
的方法	-2151
的未来	-2152
目前的	-2153
目的是	-2154
索马里	-2155
组织的	-2156
考虑到	-2157
领导的	-2158
1990	-2159
▁以色列	-2160
▁在过去	-2161
三分之一	-2162
公民社会	-2163
贸易赤字	-2164
长期以来	-2165
▁在这方面	-2166
可持续发展目标	-2167
2%	-2168
4.	-2169
6.	-2170
de	-2171
he	-2172
st	-2173
▁K	-2174
▁是	-2175
不太	-2176
不得	-2177
不满	-2178
主宰	-2179
久的	-2180
之路	-2181
事业	-2182
亚马	-2183
交通	-2184
人物	-2185
以后	-2186
以往	-2187
份额	-2188
伯特	-2189
低碳	-2190
保障	-2191
债权	-2192
党派	-2193
全力	-2194
全国	-2195
再生	-2196
减轻	-2197
加以	-2198
加大	-2199
加尔	-2200
化石	-2201
南极	-2202
占领	-2203
卡特	-2204
反射	-2205
另外	-2206
垄断	-2207
学院	-2208
巴嫩	-2209
常规	-2210
强制	-2211
形态	-2212
得多	-2213
拿出	-2214
排斥	-2215
整合	-2216
日渐	-2217
时机	-2218
明白	-2219
更快	-2220
最佳	-2221
月的	-2222
朝鲜	-2223
来看	-2224
极其	-2225
概念	-2226
泡沫	-2227
波动	-2228
泽纳	-2229
流向	-2230
海洋	-2231
父母	-2232
特殊	-2233
男性	-2234
疲软	-2235
神社	-2236
离开	-2237
管制	-2238
纳税	-2239
经合	-2240
而这	-2241
艺术	-2242
药物	-2243
要比	-2244
说法	-2245
贝尔	-2246
足球	-2247
那个	-2248
那种	-2249
采用	-2250
量的	-2251
震惊	-2252
高效	-2253
art	-2254
▁In	-2255
▁也许	-2256
▁类似	-2257
▁而在	-2258
▁还有	-2259
▁那些	-2260
一直在	-2261
不应该	-2262
与美国	-2263
也不会	-2264
也必须	-2265
了一项	-2266
产生的	-2267
人们对	-2268
会议上	-2269
取得的	-2270
受害者	-2271
可再生	-2272
实现了	-2273
对中国	-2274
就需要	-2275
收入的	-2276
斯科尼	-2277
有能力	-2278
权力的	-2279
泽纳维	-2280
的关系	-2281
的决定	-2282
的地区	-2283
的改革	-2284
的权利	-2285
的生活	-2286
良好的	-2287
获得了	-2288
萨尔科	-2289
规划署	-2290
负债表	-2291
达到了	-2292
这样做	-2293
都没有	-2294
黎巴嫩	-2295
1989	-2296
2006	-2297
2050	-2298
以及其他	-2299
变得更加	-2300
另一方面	-2301
可持续性	-2302
喀拉拉邦	-2303
很有可能	-2304
意识形态	-2305
民族主义	-2306
社交媒体	-2307
采取行动	-2308
金融服务	-2309
贝卢斯科尼	-2310
资产负债表	-2311
24	-2312
ec	-2313
ip	-2314
▁《	-2315
▁阿	-2316
一下	-2317
不利	-2318
不安	-2319
专注	-2320
两者	-2321
中有	-2322
中美	-2323
之时	-2324
争取	-2325
亚投	-2326
人在	-2327
以便	-2328
份子	-2329
借贷	-2330
决心	-2331
出于	-2332
出生	-2333
出的	-2334
化肥	-2335
喜欢	-2336
国外	-2337
大多	-2338
奇怪	-2339
契约	-2340
实践	-2341
导向	-2342
尔尼	-2343
尼斯	-2344
差距	-2345
年度	-2346
强势	-2347
强硬	-2348
形势	-2349
彼此	-2350
忽略	-2351
战斗	-2352
打破	-2353
扩散	-2354
抑制	-2355
损害	-2356
教科	-2357
无力	-2358
明智	-2359
是有	-2360
更是	-2361
有了	-2362
极大	-2363
某个	-2364
榜样	-2365
毁灭	-2366
海外	-2367
温和	-2368
演讲	-2369
父亲	-2370
的首	-2371
禁令	-2372
结论	-2373
绝非	-2374
缺口	-2375
艰难	-2376
觉得	-2377
边境	-2378
边界	-2379
过渡	-2380
还会	-2381
退休	-2382
重组	-2383
镇压	-2384
雄心	-2385
霸权	-2386
音乐	-2387
▁不过	-2388
▁伦敦	-2389
▁即便	-2390
▁去年	-2391
▁第二	-2392
不用说	-2393
也需要	-2394
亚马逊	-2395
今天的	-2396
企业家	-2397
共产党	-2398
创造了	-2399
和政府	-2400
在一起	-2401
在欧洲	-2402
增长和	-2403
天然气	-2404
宗商品	-2405
实验室	-2406
尤其是	-2407
就可以	-2408
建立了	-2409
得不到	-2410
得到了	-2411
技术的	-2412
数据的	-2413
的共同	-2414
的协议	-2415
的危险	-2416
的措施	-2417
相对于	-2418
范围内	-2419
采取了	-2420
错误的	-2421
TTIP	-2422
▁for	-2423
不可避免	-2424
世界各地	-2425
也是如此	-2426
二十世纪	-2427
共产主义	-2428
化石燃料	-2429
发展目标	-2430
合作伙伴	-2431
所有人都	-2432
纳瓦尔尼	-2433
经合组织	-2434
经济发展	-2435
美国政府	-2436
商品和服务	-2437
生产率增长	-2438
▁那	-2439
一份	-2440
一天	-2441
一般	-2442
下跌	-2443
主张	-2444
之为	-2445
乔治	-2446
了其	-2447
于是	-2448
人均	-2449
仍有	-2450
从来	-2451
保健	-2452
兑现	-2453
兴趣	-2454
内塔	-2455
创业	-2456
前任	-2457
加工	-2458
勃勃	-2459
包含	-2460
北京	-2461
南部	-2462
参拜	-2463
反而	-2464
变成	-2465
可怕	-2466
后者	-2467
吸收	-2468
员工	-2469
周期	-2470
哈佛	-2471
地缘	-2472
基督	-2473
威慑	-2474
实体	-2475
密集	-2476
将对	-2477
尔的	-2478
当的	-2479
想法	-2480
抵制	-2481
拖累	-2482
按照	-2483
接近	-2484
推广	-2485
斯特	-2486
明的	-2487
暴露	-2488
更具	-2489
期刊	-2490
杠杆	-2491
水和	-2492
法院	-2493
泛美	-2494
波兰	-2495
活跃	-2496
海地	-2497
澳大	-2498
激烈	-2499
特点	-2500
现任	-2501
现状	-2502
病人	-2503
看法	-2504
科研	-2505
纠正	-2506
给了	-2507
维护	-2508
能让	-2509
药品	-2510
认定	-2511
认真	-2512
讲话	-2513
路线	-2514
身上	-2515
辩论	-2516
还将	-2517
这位	-2518
遭遇	-2519
鉴于	-2520
随之	-2521
难民	-2522
黑人	-2523
鼓舞	-2524
197	-2525
ang	-2526
▁全球	-2527
▁或者	-2528
▁要想	-2529
▁问题	-2530
一部分	-2531
为基础	-2532
充分的	-2533
公司的	-2534
共和国	-2535
出现在	-2536
唐纳德	-2537
国神社	-2538
存在的	-2539
尼亚胡	-2540
总统的	-2541
挑战的	-2542
改革的	-2543
是为了	-2544
来自于	-2545
欧洲人	-2546
的债务	-2547
的做法	-2548
的土地	-2549
的技术	-2550
的标准	-2551
的经验	-2552
的行为	-2553
的资源	-2554
秘书长	-2555
组成的	-2556
被认为	-2557
让人们	-2558
进行了	-2559
长时间	-2560
集中在	-2561
2001	-2562
▁and	-2563
▁他们的	-2564
▁换句话	-2565
▁阿富汗	-2566
▁非洲的	-2567
人工智能	-2568
创造就业	-2569
可持续的	-2570
工作岗位	-2571
澳大利亚	-2572
的一系列	-2573
的问题是	-2574
经常账户	-2575
自由贸易	-2576
萨尔科奇	-2577
货币贬值	-2578
这一目标	-2579
这个问题	-2580
▁我们需要	-2581
内塔尼亚胡	-2582
欧盟委员会	-2583
发展中国家的	-2584
泛美开发银行	-2585
27	-2586
DR	-2587
im	-2588
▁就	-2589
▁比	-2590
▁马	-2591
一家	-2592
一条	-2593
下来	-2594
中等	-2595
之春	-2596
之际	-2597
人意	-2598
位于	-2599
修复	-2600
到来	-2601
功能	-2602
动作	-2603
右翼	-2604
各方	-2605
命运	-2606
困扰	-2607
声称	-2608
多克	-2609
失望	-2610
完整	-2611
密切	-2612
平面	-2613
年将	-2614
并将	-2615
惩罚	-2616
愿景	-2617
扎伊	-2618
抛弃	-2619
指导	-2620
支撑	-2621
教师	-2622
旅游	-2623
权威	-2624
权的	-2625
比重	-2626
流入	-2627
深远	-2628
然后	-2629
物种	-2630
特定	-2631
现金	-2632
电池	-2633
留在	-2634
盖茨	-2635
相应	-2636
竞赛	-2637
组合	-2638
给予	-2639
职位	-2640
荷兰	-2641
获益	-2642
蔓延	-2643
行政	-2644
要素	-2645
谴责	-2646
费用	-2647
走向	-2648
距离	-2649
这笔	-2650
途径	-2651
释放	-2652
里根	-2653
马上	-2654
300	-2655
vel	-2656
▁of	-2657
▁其他	-2658
▁德国	-2659
▁法国	-2660
▁除非	-2661
万美元	-2662
不足以	-2663
专注于	-2664
今年的	-2665
仍然是	-2666
企业的	-2667
十年来	-2668
受到了	-2669
国家和	-2670
在世界	-2671
在经济	-2672
在这一	-2673
多样化	-2674
多样性	-2675
存在着	-2676
引起了	-2677
意义的	-2678
战争的	-2679
排放量	-2680
无法在	-2681
最贫困	-2682
来实现	-2683
正确的	-2684
水资源	-2685
现代化	-2686
的东西	-2687
的儿童	-2688
的原因	-2689
的反对	-2690
的变化	-2691
的威胁	-2692
的最大	-2693
的行动	-2694
的需求	-2695
第一次	-2696
第三个	-2697
老年人	-2698
行动方	-2699
诺贝尔	-2700
赢得了	-2701
超过了	-2702
还必须	-2703
银行的	-2704
领域的	-2705
默多克	-2706
1945	-2707
2002	-2708
2005	-2709
2020	-2710
▁在这一	-2711
▁简言之	-2712
▁类似地	-2713
伊斯兰教	-2714
俄罗斯的	-2715
共和党人	-2716
医疗保险	-2717
卡尔扎伊	-2718
历史学家	-2719
政策制定	-2720
民主国家	-2721
的年轻人	-2722
研究表明	-2723
自然资源	-2724
货币政策	-2725
预算赤字	-2726
▁尽管如此	-2727
可再生能源	-2728
阿拉伯国家	-2729
▁埃塞俄比亚	-2730
1%	-2731
16	-2732
Jo	-2733
ir	-2734
le	-2735
▁O	-2736
▁可	-2737
▁和	-2738
▁如	-2739
▁总	-2740
上去	-2741
上帝	-2742
不愿	-2743
不论	-2744
严峻	-2745
丧失	-2746
主流	-2747
主题	-2748
乃至	-2749
之地	-2750
之处	-2751
习惯	-2752
亚贝	-2753
以外	-2754
会上	-2755
低估	-2756
做到	-2757
催生	-2758
充足	-2759
入侵	-2760
公私	-2761
共享	-2762
其反	-2763
其它	-2764
办公	-2765
动力	-2766
压倒	-2767
发动	-2768
只会	-2769
召开	-2770
合适	-2771
后代	-2772
呈现	-2773
和新	-2774
四个	-2775
坦桑	-2776
塞内	-2777
填补	-2778
婴儿	-2779
孟加	-2780
实质	-2781
家的	-2782
宽松	-2783
尝试	-2784
展示	-2785
属于	-2786
巴尔	-2787
年到	-2788
并以	-2789
应用	-2790
开支	-2791
弱点	-2792
待遇	-2793
情报	-2794
感觉	-2795
愿望	-2796
慈善	-2797
战后	-2798
才是	-2799
抵押	-2800
抵消	-2801
持有	-2802
推行	-2803
摧毁	-2804
操纵	-2805
改进	-2806
敏感	-2807
斯基	-2808
日的	-2809
时任	-2810
更强	-2811
更新	-2812
更有	-2813
最快	-2814
柯齐	-2815
案件	-2816
武力	-2817
每天	-2818
毫不	-2819
没人	-2820
注入	-2821
流行	-2822
激发	-2823
炸弹	-2824
狭隘	-2825
瑞典	-2826
留下	-2827
的两	-2828
的可	-2829
纪念	-2830
终于	-2831
绝望	-2832
美洲	-2833
而被	-2834
自动	-2835
良好	-2836
融合	-2837
西亚	-2838
要在	-2839
规范	-2840
记录	-2841
设立	-2842
语言	-2843
谨慎	-2844
财务	-2845
迄今	-2846
过来	-2847
连接	-2848
逆转	-2849
逊尼	-2850
通货	-2851
部署	-2852
限于	-2853
风暴	-2854
饱受	-2855
首脑	-2856
高度	-2857
▁不仅	-2858
▁几乎	-2859
▁这场	-2860
与其他	-2861
主要的	-2862
也无法	-2863
亚的斯	-2864
亚贝巴	-2865
克里米	-2866
十年代	-2867
十年前	-2868
和中国	-2869
哈马斯	-2870
大学的	-2871
当前的	-2872
影响到	-2873
很多人	-2874
技术和	-2875
提出的	-2876
政治的	-2877
教科文	-2878
最大化	-2879
最好的	-2880
有一个	-2881
有力的	-2882
有效地	-2883
法国的	-2884
流动性	-2885
海平面	-2886
电池板	-2887
的一项	-2888
的事实	-2889
的任务	-2890
的力量	-2891
的市场	-2892
的数据	-2893
的暴力	-2894
的状况	-2895
的环境	-2896
看起来	-2897
积极的	-2898
称之为	-2899
突尼斯	-2900
第一个	-2901
罗伯特	-2902
边缘化	-2903
高质量	-2904
2018	-2905
Gavi	-2906
▁但如今	-2907
▁华盛顿	-2908
伊斯兰国	-2909
取得成功	-2910
各国政府	-2911
地缘政治	-2912
坦桑尼亚	-2913
塞内加尔	-2914
大宗商品	-2915
宏观经济	-2916
工业发展	-2917
年轻人的	-2918
所面临的	-2919
的重要性	-2920
空气污染	-2921
萨尔柯齐	-2922
金融市场	-2923
靖国神社	-2924
velop	-2925
▁换句话说	-2926
之间的关系	-2927
阿拉伯之春	-2928
亚的斯亚贝巴	-2929
▁Develop	-2930
13	-2931
CT	-2932
ay	-2933
▁她	-2934
▁平	-2935
▁本	-2936
一再	-2937
一套	-2938
上了	-2939
不了	-2940
不少	-2941
业务	-2942
东欧	-2943
中日	-2944
主党	-2945
义的	-2946
乐观	-2947
人为	-2948
人所	-2949
人数	-2950
仇恨	-2951
仍是	-2952
以下	-2953
优秀	-2954
估算	-2955
作家	-2956
促使	-2957
倾销	-2958
全民	-2959
公正	-2960
冒险	-2961
出台	-2962
分之	-2963
利卡	-2964
剑桥	-2965
剧烈	-2966
加沙	-2967
加索	-2968
协会	-2969
发放	-2970
司法	-2971
各个	-2972
后来	-2973
否决	-2974
周边	-2975
和中	-2976
回应	-2977
国旗	-2978
土壤	-2979
圣战	-2980
在线	-2981
多元	-2982
宣传	-2983
对外	-2984
对手	-2985
对抗	-2986
对立	-2987
巴斯	-2988
布鲁	-2989
常的	-2990
开展	-2991
引导	-2992
循环	-2993
悲剧	-2994
战胜	-2995
托克	-2996
拉斯	-2997
拉里	-2998
接着	-2999
提醒	-3000
敦促	-3001
新闻	-3002
施加	-3003
无所	-3004
无辜	-3005
有时	-3006
欧美	-3007
正统	-3008
残酷	-3009
比率	-3010
沃尔	-3011
波斯	-3012
洪水	-3013
游行	-3014
焦虑	-3015
生涯	-3016
破产	-3017
签订	-3018
米尔	-3019
终结	-3020
维尔	-3021
罗亚	-3022
考验	-3023
而在	-3024
而已	-3025
股市	-3026
肯尼	-3027
背后	-3028
能量	-3029
致命	-3030
艰巨	-3031
让人	-3032
说是	-3033
赢家	-3034
路径	-3035
软件	-3036
运作	-3037
运行	-3038
迫切	-3039
退欧	-3040
适得	-3041
通讯	-3042
逻辑	-3043
遵守	-3044
都不	-3045
重视	-3046
错的	-3047
频繁	-3048
食物	-3049
首都	-3050
高速	-3051
麻烦	-3052
2.5	-3053
NCD	-3054
SDR	-3055
ert	-3056
▁20	-3057
▁上述	-3058
▁他的	-3059
▁就像	-3060
▁欧盟	-3061
不再是	-3062
不平衡	-3063
不得不	-3064
不稳定	-3065
中国人	-3066
也许会	-3067
也许是	-3068
亚投行	-3069
人口的	-3070
但如果	-3071
全球性	-3072
几年中	-3073
办公室	-3074
参与者	-3075
参议院	-3076
反过来	-3077
发展和	-3078
受欢迎	-3079
变成了	-3080
只不过	-3081
和全球	-3082
和技术	-3083
在印度	-3084
密集型	-3085
尽可能	-3086
已经被	-3087
巴塞尔	-3088
巴尔干	-3089
巴拉克	-3090
年美国	-3091
德国的	-3092
成为了	-3093
服务业	-3094
死亡率	-3095
犹太人	-3096
独裁者	-3097
的一半	-3098
的任何	-3099
的信息	-3100
的基本	-3101
的好处	-3102
的就业	-3103
的教育	-3104
的责任	-3105
的贸易	-3106
的银行	-3107
真主党	-3108
研究所	-3109
背景下	-3110
能力的	-3111
能获得	-3112
自由和	-3113
莫斯科	-3114
著名的	-3115
行为的	-3116
观察家	-3117
让美国	-3118
贸易的	-3119
逊尼派	-3120
都不是	-3121
降低了	-3122
陷入了	-3123
▁奥巴马	-3124
一些国家	-3125
不平等性	-3126
医疗保健	-3127
建立一个	-3128
我们可以	-3129
所有国家	-3130
的可能性	-3131
的大规模	-3132
的大部分	-3133
石油公司	-3134
组成部分	-3135
美国经济	-3136
自由市场	-3137
西班牙和	-3138
资本主义	-3139
越来越多	-3140
这样一个	-3141
适得其反	-3142
▁世界银行	-3143
▁所有这些	-3144
政治领导人	-3145
教科文组织	-3146
新兴经济体	-3147
艾滋病运动	-3148
这些国家的	-3149
非洲年轻人	-3150
ational	-3151
▁Development	-3152
14	-3153
35	-3154
3⁄	-3155
8%	-3156
ah	-3157
ew	-3158
ro	-3159
us	-3160
▁你	-3161
一旦	-3162
万事	-3163
上限	-3164
下滑	-3165
不应	-3166
不起	-3167
两位	-3168
个体	-3169
为例	-3170
举动	-3171
之上	-3172
事故	-3173
件事	-3174
会在	-3175
会晤	-3176
低迷	-3177
作品	-3178
使命	-3179
便宜	-3180
免费	-3181
刚果	-3182
判断	-3183
利他	-3184
利息	-3185
北非	-3186
升值	-3187
升高	-3188
南欧	-3189
原教	-3190
原本	-3191
名义	-3192
和解	-3193
回答	-3194
国务	-3195
在这	-3196
基地	-3197
境内	-3198
增值	-3199
壁垒	-3200
复兴	-3201
夏天	-3202
大力	-3203
子女	-3204
学会	-3205
它在	-3206
实证	-3207
容忍	-3208
对待	-3209
小学	-3210
小时	-3211
小组	-3212
小额	-3213
少的	-3214
尔德	-3215
岁的	-3216
巴布	-3217
形象	-3218
必需	-3219
急剧	-3220
慷慨	-3221
扭转	-3222
抱怨	-3223
拉伊	-3224
指数	-3225
授权	-3226
推翻	-3227
携带	-3228
文学	-3229
方说	-3230
无疑	-3231
昂贵	-3232
明年	-3233
更深	-3234
有害	-3235
期待	-3236
杂志	-3237
来讲	-3238
正规	-3239
波特	-3240
活力	-3241
温度	-3242
游说	-3243
滥用	-3244
焦点	-3245
用来	-3246
用水	-3247
的总	-3248
的暴	-3249
禁酒	-3250
秘密	-3251
移动	-3252
简直	-3253
纳粹	-3254
综合	-3255
罗马	-3256
而后	-3257
股票	-3258
脱离	-3259
获胜	-3260
营商	-3261
融入	-3262
设定	-3263
证实	-3264
评论	-3265
象征	-3266
赞助	-3267
这两	-3268
迹象	-3269
退出	-3270
遗产	-3271
遵循	-3272
酒精	-3273
重塑	-3274
重重	-3275
长久	-3276
间的	-3277
队伍	-3278
防御	-3279
阻挠	-3280
非盟	-3281
顾问	-3282
饥荒	-3283
香港	-3284
马克	-3285
350	-3286
3⁄4	-3287
700	-3288
igh	-3289
oun	-3290
▁只要	-3291
▁国际	-3292
▁如此	-3293
▁并且	-3294
▁当时	-3295
▁必须	-3296
▁或许	-3297
▁显然	-3298
▁相比	-3299
▁经济	-3300
万事达	-3301
不愿意	-3302
二十一	-3303
以至于	-3304
会导致	-3305
传染病	-3306
债权人	-3307
其经济	-3308
出口国	-3309
出现的	-3310
加剧了	-3311
十年中	-3312
危机前	-3313
原教旨	-3314
反射率	-3315
可能是	-3316
可能的	-3317
各国的	-3318
和世界	-3319
和公共	-3320
和投资	-3321
唯一的	-3322
因为他	-3323
在一个	-3324
在国际	-3325
城市化	-3326
基督教	-3327
孟加拉	-3328
安全和	-3329
实力的	-3330
对非洲	-3331
导致的	-3332
巴布韦	-3333
席执行	-3334
广泛的	-3335
弗利卡	-3336
很好的	-3337
我们所	-3338
政治家	-3339
是一场	-3340
是全球	-3341
是如此	-3342
是通过	-3343
服务的	-3344
机构和	-3345
权利的	-3346
段时间	-3347
比以往	-3348
瓦拉伊	-3349
生产力	-3350
的人民	-3351
的信号	-3352
的公共	-3353
的家庭	-3354
的报告	-3355
的时代	-3356
的模式	-3357
的现实	-3358
的说法	-3359
看到了	-3360
表现出	-3361
计算机	-3362
转移到	-3363
选举中	-3364
透明度	-3365
都无法	-3366
重要性	-3367
项目的	-3368
预计将	-3369
▁199	-3370
▁为什么	-3371
▁大部分	-3372
中央银行	-3373
任何时候	-3374
克里米亚	-3375
卫生组织	-3376
发展援助	-3377
四分之一	-3378
增长最快	-3379
席执行官	-3380
所造成的	-3381
显而易见	-3382
更不用说	-3383
欧洲议会	-3384
津巴布韦	-3385
特朗普的	-3386
的经济体	-3387
的领导人	-3388
目前为止	-3389
绝大部分	-3390
能够获得	-3391
自由民主	-3392
迄今为止	-3393
过度诊断	-3394
通货膨胀	-3395
采取措施	-3396
银行系统	-3397
阿富汗的	-3398
▁毫无疑问	-3399
华盛顿共识	-3400
并不意味着	-3401
改变反射率	-3402
沙特阿拉伯	-3403
的解决方案	-3404
非洲领导人	-3405
千年发展目标	-3406
在很大程度上	-3407
太阳能电池板	-3408
Tw	-3409
ed	-3410
▁;	-3411
▁年	-3412
▁诚	-3413
三角	-3414
不久	-3415
不受	-3416
不如	-3417
不良	-3418
东亚	-3419
东京	-3420
严厉	-3421
中曾	-3422
临床	-3423
临时	-3424
之急	-3425
也被	-3426
习近	-3427
交流	-3428
人群	-3429
仅有	-3430
今后	-3431
仔细	-3432
他人	-3433
以为	-3434
以使	-3435
会有	-3436
会被	-3437
住房	-3438
何时	-3439
信誉	-3440
做好	-3441
做得	-3442
兄弟	-3443
克利	-3444
克劳	-3445
公投	-3446
养老	-3447
减税	-3448
减速	-3449
出版	-3450
分散	-3451
势头	-3452
北部	-3453
单边	-3454
博弈	-3455
受过	-3456
台湾	-3457
同事	-3458
名字	-3459
听到	-3460
周年	-3461
哥拉	-3462
哪怕	-3463
商界	-3464
回归	-3465
在本	-3466
在此	-3467
地说	-3468
士顿	-3469
多个	-3470
奉献	-3471
奥朗	-3472
女儿	-3473
姆斯	-3474
安理	-3475
定居	-3476
定期	-3477
富国	-3478
富有	-3479
对称	-3480
将其	-3481
就职	-3482
履行	-3483
工会	-3484
布雷	-3485
干涉	-3486
平息	-3487
平权	-3488
平民	-3489
年底	-3490
并对	-3491
庞大	-3492
建筑	-3493
开启	-3494
当务	-3495
心的	-3496
必将	-3497
忍受	-3498
忘记	-3499
悖论	-3500
意见	-3501
我在	-3502
指控	-3503
捐献	-3504
捷克	-3505
接触	-3506
收支	-3507
敌人	-3508
斯大	-3509
新政	-3510
是对	-3511
最初	-3512
最小	-3513
核裁	-3514
根源	-3515
棘手	-3516
残障	-3517
沦为	-3518
游戏	-3519
源自	-3520
生计	-3521
电视	-3522
电话	-3523
白人	-3524
的三	-3525
的无	-3526
看似	-3527
看作	-3528
突然	-3529
等等	-3530
签证	-3531
纪律	-3532
细节	-3533
结婚	-3534
结核	-3535
缓和	-3536
缩减	-3537
置于	-3538
美中	-3539
而又	-3540
而论	-3541
股东	-3542
能为	-3543
能给	-3544
自愿	-3545
舆论	-3546
花费	-3547
英语	-3548
范式	-3549
落后	-3550
落实	-3551
著作	-3552
街头	-3553
补助	-3554
认知	-3555
议员	-3556
设置	-3557
赋予	-3558
走出	-3559
起了	-3560
迎来	-3561
这条	-3562
这项	-3563
违反	-3564
通缩	-3565
道理	-3566
销售	-3567
阵营	-3568
陌生	-3569
雇用	-3570
颠覆	-3571
高级	-3572
196	-3573
30%	-3574
ate	-3575
ive	-3576
ric	-3577
▁on	-3578
▁有人	-3579
▁确实	-3580
▁西方	-3581
▁诚然	-3582
▁这将	-3583
一直是	-3584
三角洲	-3585
不管是	-3586
也不是	-3587
也包括	-3588
也可能	-3589
也应该	-3590
习近平	-3591
亿欧元	-3592
他们所	-3593
倾向于	-3594
公平的	-3595
几年来	-3596
出资者	-3597
反对派	-3598
同时也	-3599
和教育	-3600
在内的	-3601
在国家	-3602
奥朗德	-3603
女性的	-3604
安哥拉	-3605
就不会	-3606
工作的	-3607
已成为	-3608
庞大的	-3609
很重要	-3610
急需的	-3611
性疾病	-3612
成功地	-3613
我们在	-3614
我们有	-3615
我们都	-3616
政治和	-3617
有利的	-3618
核裁军	-3619
每一个	-3620
波士顿	-3621
百分点	-3622
的一次	-3623
的事情	-3624
的人们	-3625
的历史	-3626
的压力	-3627
的反应	-3628
的和平	-3629
的女性	-3630
的崛起	-3631
的成功	-3632
的控制	-3633
的最新	-3634
的策略	-3635
相关的	-3636
美国对	-3637
董事会	-3638
被称为	-3639
角度讲	-3640
负责任	-3641
起到了	-3642
还可以	-3643
进行的	-3644
高加索	-3645
▁伊拉克	-3646
▁但这些	-3647
▁另一个	-3648
▁这就是	-3649
一个新的	-3650
与此同时	-3651
中期选举	-3652
主导地位	-3653
令人震惊	-3654
任何一个	-3655
保护主义	-3656
其他地区	-3657
农业政策	-3658
几乎没有	-3659
商业投资	-3660
因为它们	-3661
女权主义	-3662
官僚家族	-3663
当务之急	-3664
抵押贷款	-3665
极有可能	-3666
民主党人	-3667
波斯尼亚	-3668
生活水平	-3669
粮食安全	-3670
财政部长	-3671
资本市场	-3672
跨大西洋	-3673
这一问题	-3674
雄心勃勃	-3675
非洲政府	-3676
领导作用	-3677
itter	-3678
▁美国总统	-3679
▁这是一个	-3680
低收入国家	-3681
显而易见的	-3682
的基础设施	-3683
基础设施投资	-3684
大宗商品价格	-3685
艾滋病规划署	-3686
1/	-3687
28	-3688
3,	-3689
31	-3690
5.	-3691
9%	-3692
PP	-3693
ce	-3694
ow	-3695
▁I	-3696
▁像	-3697
▁拉	-3698
一度	-3699
一轮	-3700
不上	-3701
不在	-3702
不必	-3703
丑闻	-3704
为首	-3705
之道	-3706
了对	-3707
予以	-3708
争端	-3709
五年	-3710
亚美	-3711
人力	-3712
从中	-3713
代际	-3714
位置	-3715
何种	-3716
侵略	-3717
便是	-3718
保留	-3719
信服	-3720
借助	-3721
僵局	-3722
克文	-3723
克鲁	-3724
兴起	-3725
农地	-3726
决裂	-3727
凸显	-3728
出色	-3729
切尔	-3730
利的	-3731
前往	-3732
前提	-3733
动态	-3734
劳工	-3735
勾结	-3736
化和	-3737
化学	-3738
匮乏	-3739
单位	-3740
危害	-3741
却在	-3742
却是	-3743
厌恶	-3744
变性	-3745
各州	-3746
名为	-3747
告终	-3748
周围	-3749
哪个	-3750
哪些	-3751
固的	-3752
在一	-3753
地理	-3754
坚决	-3755
基因	-3756
塞浦	-3757
外界	-3758
大气	-3759
太平	-3760
奖励	-3761
她的	-3762
好事	-3763
好像	-3764
季度	-3765
学科	-3766
完善	-3767
完美	-3768
宗派	-3769
宣言	-3770
寿命	-3771
小农	-3772
就将	-3773
山素	-3774
市民	-3775
带着	-3776
幅度	-3777
底层	-3778
延续	-3779
引擎	-3780
强力	-3781
强加	-3782
很有	-3783
很高	-3784
总值	-3785
情景	-3786
惊讶	-3787
惠及	-3788
或缺	-3789
手机	-3790
批判	-3791
排除	-3792
接种	-3793
推出	-3794
携手	-3795
收集	-3796
放松	-3797
效仿	-3798
文章	-3799
无视	-3800
是从	-3801
是无	-3802
显得	-3803
暗示	-3804
更广	-3805
本人	-3806
杀虫	-3807
来为	-3808
极权	-3809
格里	-3810
格鲁	-3811
正好	-3812
此外	-3813
母亲	-3814
每个	-3815
沮丧	-3816
法治	-3817
浪潮	-3818
灌溉	-3819
煽动	-3820
爆炸	-3821
父辈	-3822
物质	-3823
用户	-3824
电脑	-3825
症状	-3826
登盛	-3827
的低	-3828
的确	-3829
的罪	-3830
砍伐	-3831
私营	-3832
程序	-3833
稳步	-3834
穷国	-3835
立刻	-3836
网站	-3837
美军	-3838
群众	-3839
肆虐	-3840
花在	-3841
萨德	-3842
蓬勃	-3843
薄弱	-3844
虐待	-3845
行长	-3846
补充	-3847
西尔	-3848
西岸	-3849
记者	-3850
诞生	-3851
诱惑	-3852
诸如	-3853
资格	-3854
走上	-3855
超出	-3856
超越	-3857
路斯	-3858
轨迹	-3859
软弱	-3860
迈向	-3861
运用	-3862
运营	-3863
选战	-3864
逐步	-3865
逮捕	-3866
金钱	-3867
限度	-3868
随时	-3869
零售	-3870
面向	-3871
首次	-3872
高企	-3873
高出	-3874
高昂	-3875
高管	-3876
1.5	-3877
40%	-3878
70%	-3879
ard	-3880
end	-3881
ran	-3882
▁Ch	-3883
▁一种	-3884
▁于是	-3885
▁未来	-3886
▁由此	-3887
▁而这	-3888
▁鉴于	-3889
一开始	-3890
上个月	-3891
下一个	-3892
不仅是	-3893
世纪初	-3894
中获得	-3895
也开始	-3896
了这些	-3897
了非洲	-3898
些什么	-3899
产生了	-3900
以及对	-3901
价值链	-3902
伴随着	-3903
共同的	-3904
其中的	-3905
冲突的	-3906
出来的	-3907
创新和	-3908
创新的	-3909
创新者	-3910
十年的	-3911
协议的	-3912
去杠杆	-3913
变得更	-3914
只需要	-3915
可以为	-3916
和欧洲	-3917
和法国	-3918
和环境	-3919
因为这	-3920
国务卿	-3921
在短期	-3922
在这些	-3923
基本面	-3924
增值税	-3925
多年的	-3926
大幅度	-3927
太平洋	-3928
学术界	-3929
安全的	-3930
安理会	-3931
尽全力	-3932
山素季	-3933
年代末	-3934
建立在	-3935
引发了	-3936
形式的	-3937
投资的	-3938
提供的	-3939
支出的	-3940
教育的	-3941
斯大林	-3942
新一代	-3943
是否会	-3944
更好地	-3945
机会的	-3946
杀虫剂	-3947
来应对	-3948
极大地	-3949
极大的	-3950
构成了	-3951
标志着	-3952
清楚地	-3953
演变为	-3954
甚至在	-3955
生产和	-3956
的一份	-3957
的一大	-3958
的例子	-3959
的公司	-3960
的农业	-3961
的增加	-3962
的巨大	-3963
的必要	-3964
的态度	-3965
的方案	-3966
的日本	-3967
的水平	-3968
的激励	-3969
的立场	-3970
的要求	-3971
的角色	-3972
的金融	-3973
种子和	-3974
秩序的	-3975
第一步	-3976
第二次	-3977
简单化	-3978
纳税人	-3979
给他们	-3980
罗亚尔	-3981
肯尼迪	-3982
解释了	-3983
让非洲	-3984
证明了	-3985
该计划	-3986
货币化	-3987
资源的	-3988
超导体	-3989
路线图	-3990
都必须	-3991
阿萨德	-3992
陆克文	-3993
非常规	-3994
tern	-3995
▁The	-3996
▁多年来	-3997
世界上最	-3998
世界经济	-3999
亚美尼亚	-4000
全球基金	-4001
其他地方	-4002
刺激计划	-4003
和联合国	-4004
塞浦路斯	-4005
好消息是	-4006
如果没有	-4007
实现经济	-4008
所有这些	-4009
政府官员	-4010
无法获得	-4011
昂山素季	-4012
更多的人	-4013
没有得到	-4014
的支持者	-4015
研究人员	-4016
税收收入	-4017
经济复苏	-4018
经济学的	-4019
联系起来	-4020
艾滋病毒	-4021
裔美国人	-4022
货币联盟	-4023
这一挑战	-4024
这个国家	-4025
这是一个	-4026
金融机构	-4027
▁2008	-4028
▁2009	-4029
▁2014	-4030
▁发达国家	-4031
▁尼日利亚	-4032
▁我们必须	-4033
中国和印度	-4034
二十一世纪	-4035
某种程度上	-4036
Twitter	-4037
17	-4038
7%	-4039
ID	-4040
ad	-4041
ak	-4042
eb	-4043
em	-4044
ff	-4045
hn	-4046
od	-4047
ot	-4048
ru	-4049
ry	-4050
ud	-4051
▁9	-4052
▁也	-4053
▁伯	-4054
▁前	-4055
▁反	-4056
▁现	-4057
▁都	-4058
▁高	-4059
一倍	-4060
三大	-4061
上台	-4062
不及	-4063
专门	-4064
世贸	-4065
两倍	-4066
严肃	-4067
中小	-4068
中间	-4069
争夺	-4070
事的	-4071
互动	-4072
产能	-4073
享受	-4074
人道	-4075
代理	-4076
但它	-4077
体面	-4078
侵犯	-4079
信仰	-4080
修正	-4081
偏好	-4082
停火	-4083
偿还	-4084
儿子	-4085
光是	-4086
入了	-4087
入门	-4088
全新	-4089
其在	-4090
典型	-4091
内的	-4092
内阁	-4093
再度	-4094
准则	-4095
分别	-4096
分布	-4097
列为	-4098
刘晓	-4099
加利	-4100
动机	-4101
区分	-4102
十九	-4103
千禧	-4104
单一	-4105
印象	-4106
压迫	-4107
反复	-4108
发行	-4109
叛乱	-4110
古典	-4111
各大	-4112
合物	-4113
吉亚	-4114
同于	-4115
同情	-4116
含义	-4117
哈尔	-4118
哈根	-4119
哥本	-4120
国防	-4121
坎布	-4122
境况	-4123
声明	-4124
外科	-4125
大使	-4126
太多	-4127
婚礼	-4128
子孙	-4129
定书	-4130
实在	-4131
害怕	-4132
家和	-4133
富人	-4134
对象	-4135
导弹	-4136
小说	-4137
居住	-4138
屠杀	-4139
工厂	-4140
左翼	-4141
市长	-4142
布尔	-4143
布莱	-4144
帕拉	-4145
常态	-4146
年初	-4147
并使	-4148
幸福	-4149
康弘	-4150
当下	-4151
很好	-4152
意图	-4153
我和	-4154
房屋	-4155
打算	-4156
执法	-4157
抗议	-4158
披露	-4159
抵御	-4160
抵抗	-4161
拖延	-4162
招募	-4163
排名	-4164
探索	-4165
探讨	-4166
推迟	-4167
掩盖	-4168
提案	-4169
提议	-4170
收购	-4171
效益	-4172
教学	-4173
无人	-4174
是将	-4175
是最	-4176
是由	-4177
有力	-4178
未必	-4179
杀害	-4180
权衡	-4181
条款	-4182
来到	-4183
根廷	-4184
根深	-4185
格尔	-4186
梦想	-4187
检查	-4188
检验	-4189
正义	-4190
残疾	-4191
沉重	-4192
沉默	-4193
沟通	-4194
流失	-4195
消极	-4196
深入	-4197
深度	-4198
演说	-4199
潜能	-4200
爱因	-4201
爱国	-4202
物理	-4203
特的	-4204
环保	-4205
瑞士	-4206
电信	-4207
电厂	-4208
男子	-4209
痴呆	-4210
白宫	-4211
的老	-4212
的近	-4213
盟国	-4214
目光	-4215
着眼	-4216
知的	-4217
积累	-4218
篮子	-4219
纠纷	-4220
约旦	-4221
纷纷	-4222
经费	-4223
美以	-4224
考察	-4225
苏丹	-4226
英雄	-4227
萎靡	-4228
血腥	-4229
行事	-4230
认可	-4231
认同	-4232
设法	-4233
话题	-4234
负面	-4235
越南	-4236
转折	-4237
较小	-4238
还能	-4239
进而	-4240
连续	-4241
述了	-4242
选项	-4243
采购	-4244
里奇	-4245
野蛮	-4246
铁路	-4247
门垫	-4248
阴影	-4249
霍乱	-4250
面前	-4251
首要	-4252
鼓吹	-4253
1.7	-4254
3.5	-4255
50%	-4256
60%	-4257
600	-4258
ICT	-4259
Rob	-4260
ari	-4261
con	-4262
ect	-4263
eet	-4264
est	-4265
ity	-4266
ook	-4267
▁Ac	-4268
▁不久	-4269
▁他在	-4270
▁公共	-4271
▁具体	-4272
▁农业	-4273
▁国家	-4274
▁在我	-4275
▁平心	-4276
▁当前	-4277
▁普京	-4278
▁某些	-4279
▁的确	-4280
▁第三	-4281
▁这就	-4282
▁这项	-4283
一方面	-4284
丁美洲	-4285
不信任	-4286
与中国	-4287
世界最	-4288
严格的	-4289
中国在	-4290
中扮演	-4291
为代价	-4292
主义和	-4293
之一是	-4294
也因此	-4295
也存在	-4296
了一份	-4297
了一场	-4298
人意料	-4299
从现在	-4300
代表着	-4301
令人瞩	-4302
会产生	-4303
伟大的	-4304
传统上	-4305
但它们	-4306
体系中	-4307
依赖于	-4308
信息和	-4309
做出了	-4310
健康的	-4311
充满了	-4312
关系的	-4313
农作物	-4314
刘晓波	-4315
利益的	-4316
制度的	-4317
加起来	-4318
即使是	-4319
原材料	-4320
可怕的	-4321
可行的	-4322
合适的	-4323
吸引了	-4324
和南非	-4325
和数学	-4326
和日本	-4327
和能源	-4328
和韩国	-4329
困难的	-4330
在许多	-4331
大萧条	-4332
失败的	-4333
就开始	-4334
尼日尔	-4335
工程师	-4336
希拉克	-4337
希拉里	-4338
平等的	-4339
年开始	-4340
并不能	-4341
引起的	-4342
影响的	-4343
很快就	-4344
必然会	-4345
性问题	-4346
恢复力	-4347
扩大的	-4348
投票权	-4349
持续的	-4350
政府在	-4351
政治上	-4352
教训是	-4353
旅游业	-4354
昆德拉	-4355
是什么	-4356
有什么	-4357
有许多	-4358
来解决	-4359
根康弘	-4360
根深蒂	-4361
每个人	-4362
生产商	-4363
的一些	-4364
的下降	-4365
的不断	-4366
的人类	-4367
的信任	-4368
的利益	-4369
的合作	-4370
的声音	-4371
的德国	-4372
的战争	-4373
的担忧	-4374
的效果	-4375
的教训	-4376
的时间	-4377
的某些	-4378
的法律	-4379
的理由	-4380
监管者	-4381
看上去	-4382
研究的	-4383
破坏性	-4384
稳定的	-4385
组织和	-4386
给我们	-4387
而言之	-4388
而这些	-4389
肯定会	-4390
背后的	-4391
自动化	-4392
角度看	-4393
议定书	-4394
过去的	-4395
这件事	-4396
通过了	-4397
都需要	-4398
重大的	-4399
阿巴斯	-4400
阿根廷	-4401
需要在	-4402
非政府	-4403
领导者	-4404
马克思	-4405
1960	-4406
2003	-4407
John	-4408
▁但尽管	-4409
▁但我们	-4410
▁但这一	-4411
▁但这种	-4412
▁俄罗斯	-4413
▁土耳其	-4414
▁年轻人	-4415
▁比方说	-4416
▁考虑到	-4417
▁西班牙	-4418
▁让我们	-4419
主权债务	-4420
令人信服	-4421
令人失望	-4422
价格上涨	-4423
作为一个	-4424
全球贸易	-4425
其他任何	-4426
军事行动	-4427
农村地区	-4428
加入欧盟	-4429
医疗补助	-4430
发展融资	-4431
可以实现	-4432
哥本哈根	-4433
哪个国家	-4434
因为他们	-4435
国民储蓄	-4436
坎布里奇	-4437
子孙后代	-4438
孟加拉国	-4439
帮助非洲	-4440
年轻一代	-4441
影响力的	-4442
快速增长	-4443
撒瓦拉伊	-4444
政府必须	-4445
整个非洲	-4446
方向发展	-4447
无法解决	-4448
格鲁吉亚	-4449
残障人士	-4450
清洁能源	-4451
灾难性的	-4452
爱因斯坦	-4453
的生育率	-4454
的美国人	-4455
研究成果	-4456
行动起来	-4457
被认为是	-4458
认为美国	-4459
该地区的	-4460
财政刺激	-4461
财政赤字	-4462
▁2017	-4463
▁可以肯定	-4464
▁平心而论	-4465
▁非洲国家	-4466
农业生产率	-4467
前所未有的	-4468
双相障碍的	-4469
发达国家的	-4470
工程和数学	-4471
带来巨大的	-4472
提供了一个	-4473
波特弗利卡	-4474
生物多样性	-4475
真相委员会	-4476
美国和其他	-4477
领导人必须	-4478
Robert	-4479
万事达基金会	-4480
全球金融危机	-4481
医疗服务提供	-4482
参拜靖国神社	-4483
尼日尔三角洲	-4484
温室气体排放	-4485
经常账户赤字	-4486
财政货币贬值	-4487
..	-4488
29	-4489
34	-4490
9.	-4491
An	-4492
Ch	-4493
DA	-4494
ET	-4495
IT	-4496
ge	-4497
ov	-4498
pp	-4499
se	-4500
ut	-4501
▁Y	-4502
▁仅	-4503
▁另	-4504
▁截	-4505
▁无	-4506
▁普	-4507
▁正	-4508
▁被	-4509
▁难	-4510
一无	-4511
一边	-4512
上万	-4513
下一	-4514
下了	-4515
不前	-4516
不止	-4517
世俗	-4518
两项	-4519
中之	-4520
临近	-4521
为此	-4522
之势	-4523
也就	-4524
也更	-4525
也要	-4526
买卖	-4527
从事	-4528
他对	-4529
付诸	-4530
仪式	-4531
们在	-4532
但这	-4533
体育	-4534
信号	-4535
借款	-4536
借鉴	-4537
倡议	-4538
偏见	-4539
偿付	-4540
元素	-4541
充斥	-4542
先例	-4543
先进	-4544
克尔	-4545
入盟	-4546
八个	-4547
公路	-4548
关闭	-4549
其所	-4550
典礼	-4551
内瓦	-4552
减缓	-4553
切实	-4554
创始	-4555
到底	-4556
制的	-4557
制药	-4558
制衡	-4559
前沿	-4560
加上	-4561
加坡	-4562
动摇	-4563
助长	-4564
匈牙	-4565
北方	-4566
北欧	-4567
医学	-4568
协力	-4569
占比	-4570
及时	-4571
反恐	-4572
发明	-4573
取向	-4574
口号	-4575
可信	-4576
可见	-4577
同盟	-4578
同等	-4579
否定	-4580
听众	-4581
吸取	-4582
和高	-4583
品种	-4584
哥伦	-4585
哪里	-4586
团队	-4587
国有	-4588
国界	-4589
地主	-4590
培养	-4591
培育	-4592
基文	-4593
基石	-4594
处的	-4595
外债	-4596
多重	-4597
大于	-4598
大众	-4599
大有	-4600
奇迹	-4601
奥斯	-4602
她在	-4603
子和	-4604
宝贵	-4605
实用	-4606
尊严	-4607
就要	-4608
左派	-4609
席位	-4610
干扰	-4611
广告	-4612
庆祝	-4613
应付	-4614
废水	-4615
废除	-4616
延长	-4617
建造	-4618
弗里	-4619
弥补	-4620
弱势	-4621
征收	-4622
征税	-4623
得上	-4624
得更	-4625
心理	-4626
忧虑	-4627
悲哀	-4628
情感	-4629
意外	-4630
意的	-4631
戈尔	-4632
成效	-4633
成绩	-4634
成长	-4635
所说	-4636
所赐	-4637
才会	-4638
扭曲	-4639
报复	-4640
报道	-4641
担保	-4642
指望	-4643
接入	-4644
推向	-4645
摩洛	-4646
收缩	-4647
改造	-4648
放大	-4649
敌对	-4650
文件	-4651
新鲜	-4652
方的	-4653
旅行	-4654
日子	-4655
日常	-4656
早就	-4657
旱灾	-4658
明天	-4659
易事	-4660
曝光	-4661
曲线	-4662
曾被	-4663
最好	-4664
有益	-4665
期望	-4666
本质	-4667
杀戮	-4668
村庄	-4669
极高	-4670
果真	-4671
格兰	-4672
欺诈	-4673
步骤	-4674
民意	-4675
民调	-4676
水源	-4677
永久	-4678
没能	-4679
法规	-4680
注重	-4681
测量	-4682
涌现	-4683
深化	-4684
清理	-4685
漏洞	-4686
灵活	-4687
猜测	-4688
王朝	-4689
理应	-4690
由此	-4691
电站	-4692
男人	-4693
留给	-4694
病和	-4695
的那	-4696
的非	-4697
监狱	-4698
监禁	-4699
相似	-4700
眼下	-4701
眼光	-4702
确诊	-4703
祖母	-4704
禁毒	-4705
科特	-4706
税率	-4707
空中	-4708
突出	-4709
立即	-4710
站在	-4711
第四	-4712
等于	-4713
级的	-4714
纯粹	-4715
经理	-4716
维奥	-4717
罗毕	-4718
罪犯	-4719
职场	-4720
肯锡	-4721
致死	-4722
舞台	-4723
艰苦	-4724
莱坞	-4725
行使	-4726
表演	-4727
衰落	-4728
要想	-4729
详细	-4730
赋权	-4731
起点	-4732
起着	-4733
跨越	-4734
身为	-4735
轻易	-4736
过剩	-4737
过早	-4738
过时	-4739
运转	-4740
这块	-4741
这里	-4742
远离	-4743
追踪	-4744
选票	-4745
通信	-4746
通往	-4747
通用	-4748
都对	-4749
都能	-4750
里亚	-4751
长达	-4752
陷于	-4753
隐藏	-4754
预示	-4755
预见	-4756
领先	-4757
饮料	-4758
黄金	-4759
/11	-4760
10%	-4761
195	-4762
250	-4763
80%	-4764
ACA	-4765
anc	-4766
enn	-4767
hip	-4768
ill	-4769
ist	-4770
lob	-4771
oal	-4772
ood	-4773
the	-4774
▁人类	-4775
▁他还	-4776
▁任何	-4777
▁各国	-4778
▁否则	-4779
▁对此	-4780
▁巴黎	-4781
▁我在	-4782
▁最终	-4783
▁确保	-4784
一些人	-4785
上发表	-4786
不一定	-4787
不存在	-4788
不那么	-4789
不需要	-4790
世界大	-4791
世界杯	-4792
主要是	-4793
也不能	-4794
也同样	-4795
了欧洲	-4796
五年中	-4797
些时候	-4798
人民的	-4799
他们在	-4800
以上的	-4801
以失败	-4802
以确保	-4803
伊朗核	-4804
会成为	-4805
但他们	-4806
体现在	-4807
供应链	-4808
催生了	-4809
公众对	-4810
公共品	-4811
内部的	-4812
决不能	-4813
几年的	-4814
分之二	-4815
到来的	-4816
力量的	-4817
占据了	-4818
卡特尔	-4819
印度的	-4820
双性恋	-4821
发挥了	-4822
只有在	-4823
可能在	-4824
可靠的	-4825
合理的	-4826
启动了	-4827
和伊朗	-4828
和地区	-4829
和安全	-4830
和平的	-4831
和支持	-4832
和未来	-4833
和贸易	-4834
因素是	-4835
在欧盟	-4836
坎帕拉	-4837
基本上	-4838
多年来	-4839
大公司	-4840
大国的	-4841
它们在	-4842
安全网	-4843
定居点	-4844
家庭的	-4845
对欧洲	-4846
对这些	-4847
寻常的	-4848
将会是	-4849
将导致	-4850
工作者	-4851
年前的	-4852
应该在	-4853
引发的	-4854
影响着	-4855
心协力	-4856
感受到	-4857
所有的	-4858
所需要	-4859
投资和	-4860
拒绝了	-4861
提高了	-4862
摩洛哥	-4863
收入和	-4864
数字化	-4865
数量的	-4866
新技术	-4867
日内瓦	-4868
是一位	-4869
更多地	-4870
最严重	-4871
有超过	-4872
来西亚	-4873
比美国	-4874
演讲中	-4875
潘基文	-4876
理事会	-4877
理论上	-4878
的一年	-4879
的个人	-4880
的代价	-4881
的信贷	-4882
的城市	-4883
的复杂	-4884
的工人	-4885
的数字	-4886
的普及	-4887
的极端	-4888
的现象	-4889
的相关	-4890
的谈判	-4891
的趋势	-4892
的部分	-4893
的项目	-4894
禁酒令	-4895
第二个	-4896
等其他	-4897
等国家	-4898
结果是	-4899
绝不是	-4900
统治的	-4901
而在于	-4902
而没有	-4903
自由派	-4904
行动的	-4905
警告说	-4906
这就是	-4907
适用于	-4908
银行和	-4909
陌生人	-4910
面临的	-4911
预测性	-4912
饮用水	-4913
麦肯锡	-4914
2025	-4915
aceb	-4916
eter	-4917
outh	-4918
▁197	-4919
▁Pro	-4920
▁the	-4921
▁伯克利	-4922
▁在许多	-4923
▁更糟糕	-4924
▁而不是	-4925
▁而尽管	-4926
▁近年来	-4927
▁这样的	-4928
不可或缺	-4929
不同的是	-4930
与以色列	-4931
与俄罗斯	-4932
世界秩序	-4933
个百分点	-4934
之间存在	-4935
人道主义	-4936
全球金融	-4937
其中一个	-4938
决定性的	-4939
前所未有	-4940
加工食品	-4941
千禧一代	-4942
危机爆发	-4943
去杠杆化	-4944
发展趋势	-4945
可以成为	-4946
和俄罗斯	-4947
哈佛大学	-4948
哥伦比亚	-4949
国家安全	-4950
在阿富汗	-4951
如果不是	-4952
富裕国家	-4953
小额信贷	-4954
少数群体	-4955
平均水平	-4956
年轻人在	-4957
应对措施	-4958
强有力的	-4959
总体而言	-4960
总统普京	-4961
恐怖袭击	-4962
成为一个	-4963
我们正在	-4964
我们能够	-4965
投资银行	-4966
日本首相	-4967
最高法院	-4968
有足够的	-4969
极端贫困	-4970
欧洲大陆	-4971
民主刚果	-4972
永远不会	-4973
法国总统	-4974
活跃分子	-4975
消费者的	-4976
生活方式	-4977
的基础上	-4978
的影响力	-4979
的非洲人	-4980
直接投资	-4981
税收合作	-4982
竞争力的	-4983
竭尽全力	-4984
经常项目	-4985
经济衰退	-4986
统计数据	-4987
联合起来	-4988
能够带来	-4989
西尔维奥	-4990
讽刺的是	-4991
诺贝尔奖	-4992
资本账户	-4993
这一观点	-4994
这场危机	-4995
重新定义	-4996
非洲需要	-4997
1,000	-4998
conom	-4999
lobal	-5000
▁2015	-5001
▁Part	-5002
▁其他国家	-5003
▁相比之下	-5004
▁这些国家	-5005
▁长期以来	-5006
▁问题在于	-5007
万亿美元的	-5008
中曾根康弘	-5009
产品和服务	-5010
伊拉克战争	-5011
传染性疾病	-5012
全球经济的	-5013
到目前为止	-5014
变得越来越	-5015
基础设施和	-5016
大部分地区	-5017
奥巴马总统	-5018
奥巴马政府	-5019
已经取得了	-5020
指出的那样	-5021
欧盟和美国	-5022
欧盟成员国	-5023
民粹主义者	-5024
经济和政治	-5025
经济增长的	-5026
结构性改革	-5027
联系在一起	-5028
资本主义的	-5029
首席执行官	-5030
高加索地区	-5031
ership	-5032
世界卫生组织	-5033
共同农业政策	-5034
联合国秘书长	-5035
acebook	-5036
▁Econom	-5037
22	-5038
26	-5039
65	-5040
EN	-5041
ai	-5042
ia	-5043
oc	-5044
ri	-5045
tw	-5046
▁5	-5047
▁J	-5048
▁W	-5049
▁内	-5050
▁向	-5051
▁用	-5052
▁若	-5053
▁说	-5054
一件	-5055
一小	-5056
一根	-5057
万亿	-5058
三倍	-5059
上加	-5060
上周	-5061
不出	-5062
不当	-5063
不难	-5064
世卫	-5065
东非	-5066
两岸	-5067
丰厚	-5068
为时	-5069
为期	-5070
主体	-5071
主持	-5072
也从	-5073
也比	-5074
亦然	-5075
亨利	-5076
京都	-5077
亲王	-5078
仅为	-5079
仅占	-5080
他在	-5081
以此	-5082
以致	-5083
优质	-5084
会为	-5085
会计	-5086
但仍	-5087
但他	-5088
但其	-5089
低效	-5090
作战	-5091
使其	-5092
依存	-5093
依旧	-5094
便利	-5095
促成	-5096
信念	-5097
借钱	-5098
偏远	-5099
光明	-5100
克格	-5101
克索	-5102
克雅	-5103
关联	-5104
冒犯	-5105
写作	-5106
减贫	-5107
出发	-5108
分崩	-5109
刑事	-5110
初级	-5111
利和	-5112
别无	-5113
前者	-5114
前进	-5115
前途	-5116
加哥	-5117
动用	-5118
勒颇	-5119
北美	-5120
匹马	-5121
区区	-5122
十亿	-5123
升息	-5124
半个	-5125
单枪	-5126
压抑	-5127
反弹	-5128
发出	-5129
受损	-5130
受访	-5131
受限	-5132
只占	-5133
可疑	-5134
合同	-5135
名单	-5136
向前	-5137
否认	-5138
和对	-5139
和更	-5140
和谐	-5141
咨询	-5142
商人	-5143
固定	-5144
国债	-5145
在对	-5146
地下	-5147
地在	-5148
地将	-5149
地面	-5150
场所	-5151
均衡	-5152
埃里	-5153
增进	-5154
增速	-5155
士兵	-5156
处在	-5157
外围	-5158
外来	-5159
多万	-5160
多种	-5161
大会	-5162
大批	-5163
大胆	-5164
夫的	-5165
奖学	-5166
奢侈	-5167
女人	-5168
妻子	-5169
姆林	-5170
始于	-5171
它将	-5172
定的	-5173
审判	-5174
审查	-5175
家园	-5176
对比	-5177
封闭	-5178
尤为	-5179
屋顶	-5180
展现	-5181
岛屿	-5182
州的	-5183
差别	-5184
已是	-5185
已然	-5186
布斯	-5187
席卷	-5188
年所	-5189
年青	-5190
并为	-5191
幻觉	-5192
开创	-5193
开采	-5194
异见	-5195
引人	-5196
引领	-5197
强迫	-5198
形容	-5199
德克	-5200
德斯	-5201
急于	-5202
性质	-5203
总量	-5204
恐慌	-5205
恰当	-5206
恶劣	-5207
悲观	-5208
意思	-5209
战术	-5210
所做	-5211
所能	-5212
抑郁	-5213
持久	-5214
按揭	-5215
挣扎	-5216
挫折	-5217
挽救	-5218
损伤	-5219
揭露	-5220
撰写	-5221
收回	-5222
政界	-5223
故意	-5224
效用	-5225
数以	-5226
族裔	-5227
无关	-5228
既得	-5229
时的	-5230
星期	-5231
是以	-5232
是让	-5233
智慧	-5234
暴跌	-5235
曙光	-5236
月底	-5237
有核	-5238
有点	-5239
未克	-5240
未知	-5241
本能	-5242
朴槿	-5243
极度	-5244
果断	-5245
案例	-5246
检测	-5247
气温	-5248
求职	-5249
沙漠	-5250
没了	-5251
油价	-5252
法西	-5253
热情	-5254
燃烧	-5255
特色	-5256
犹豫	-5257
生机	-5258
电影	-5259
电网	-5260
略有	-5261
疫情	-5262
的事	-5263
的海	-5264
的自	-5265
的重	-5266
看待	-5267
看看	-5268
看着	-5269
碎片	-5270
福祉	-5271
离析	-5272
稳健	-5273
立足	-5274
等国	-5275
等待	-5276
筹集	-5277
给出	-5278
缺失	-5279
置疑	-5280
老龄	-5281
者是	-5282
聆听	-5283
职能	-5284
范畴	-5285
萨拉	-5286
萨默	-5287
著的	-5288
蒙代	-5289
蒙特	-5290
薪酬	-5291
要为	-5292
视野	-5293
解体	-5294
议题	-5295
评级	-5296
谈论	-5297
贿赂	-5298
较高	-5299
达尔	-5300
近期	-5301
还在	-5302
远的	-5303
远程	-5304
连任	-5305
迪瓦	-5306
逃避	-5307
邀请	-5308
邦联	-5309
配额	-5310
采伐	-5311
重回	-5312
铭记	-5313
铺平	-5314
错了	-5315
问卷	-5316
阻力	-5317
降雨	-5318
陷阱	-5319
难度	-5320
雨林	-5321
面包	-5322
顶级	-5323
预料	-5324
飓风	-5325
飙升	-5326
首位	-5327
鲜有	-5328
150	-5329
CAO	-5330
ODA	-5331
TPP	-5332
ant	-5333
ess	-5334
ich	-5335
lim	-5336
omm	-5337
ore	-5338
▁Af	-5339
▁St	-5340
▁一位	-5341
▁他说	-5342
▁令人	-5343
▁俄国	-5344
▁公司	-5345
▁在此	-5346
▁她们	-5347
▁如何	-5348
▁安倍	-5349
▁尤其	-5350
▁我的	-5351
▁所以	-5352
▁接着	-5353
▁新的	-5354
▁有些	-5355
▁来自	-5356
▁此后	-5357
▁第一	-5358
▁认为	-5359
▁这份	-5360
▁需要	-5361
▁韩国	-5362
一代人	-5363
一致的	-5364
三十年	-5365
上世纪	-5366
上升到	-5367
下一位	-5368
不会被	-5369
不在于	-5370
与国际	-5371
与社会	-5372
两年前	-5373
个人的	-5374
中东的	-5375
中之重	-5376
中心的	-5377
中获益	-5378
丰富的	-5379
为一个	-5380
了一种	-5381
从而使	-5382
他们是	-5383
代表的	-5384
任何人	-5385
会受到	-5386
会造成	-5387
似乎在	-5388
似乎是	-5389
体现了	-5390
使用的	-5391
保持着	-5392
克格勃	-5393
克里斯	-5394
公民的	-5395
养老金	-5396
农业和	-5397
农产品	-5398
冲突中	-5399
几个月	-5400
剥夺了	-5401
办法是	-5402
化合物	-5403
千上万	-5404
历史的	-5405
去年的	-5406
受访者	-5407
可以用	-5408
可以被	-5409
史以来	-5410
吸引力	-5411
和企业	-5412
和变性	-5413
和国家	-5414
和实施	-5415
和工作	-5416
在一定	-5417
在某些	-5418
多元化	-5419
大数据	-5420
夫斯基	-5421
奖学金	-5422
将如何	-5423
就业率	-5424
峰会上	-5425
已经有	-5426
年代初	-5427
并最终	-5428
并通过	-5429
应该将	-5430
应该是	-5431
开发和	-5432
得多的	-5433
必不可	-5434
总统穆	-5435
总需求	-5436
恩格尔	-5437
所做的	-5438
所带来	-5439
投票率	-5440
挑战是	-5441
排除在	-5442
接受了	-5443
推动了	-5444
明显的	-5445
明确的	-5446
是唯一	-5447
是如何	-5448
是我们	-5449
是非常	-5450
曼德拉	-5451
最新的	-5452
最高的	-5453
有害的	-5454
有用的	-5455
有限的	-5456
朴槿惠	-5457
林斯顿	-5458
标准的	-5459
标志性	-5460
根本不	-5461
正处于	-5462
此之外	-5463
比例的	-5464
毕业生	-5465
沃尔夫	-5466
法国人	-5467
法西斯	-5468
活力和	-5469
活动中	-5470
漫长的	-5471
激进的	-5472
烟工业	-5473
状况的	-5474
独立的	-5475
的一位	-5476
的一致	-5477
的不满	-5478
的人均	-5479
的依赖	-5480
的信心	-5481
的关注	-5482
的其他	-5483
的创新	-5484
的发生	-5485
的外交	-5486
的大幅	-5487
的大量	-5488
的存在	-5489
的希望	-5490
的建议	-5491
的打击	-5492
的持续	-5493
的推动	-5494
的改善	-5495
的数量	-5496
的文化	-5497
的时机	-5498
的权力	-5499
的民主	-5500
的生产	-5501
的石油	-5502
的科学	-5503
的移民	-5504
的第一	-5505
的绿色	-5506
的选择	-5507
的预期	-5508
目标是	-5509
相结合	-5510
着眼于	-5511
知识的	-5512
科学界	-5513
等同于	-5514
等领域	-5515
简单的	-5516
管理者	-5517
类似于	-5518
繁荣的	-5519
经济和	-5520
结束了	-5521
而中国	-5522
肥胖率	-5523
能够为	-5524
能够在	-5525
自主权	-5526
芝加哥	-5527
英国的	-5528
获得的	-5529
萨默斯	-5530
表达了	-5531
被广泛	-5532
被证明	-5533
规定的	-5534
诊断为	-5535
谈判的	-5536
货币区	-5537
贷款的	-5538
贸易战	-5539
赞助者	-5540
转折点	-5541
近年来	-5542
还包括	-5543
这一切	-5544
这两个	-5545
这些人	-5546
这方面	-5547
远低于	-5548
通过的	-5549
遭到了	-5550
避免的	-5551
都可以	-5552
都认为	-5553
银行在	-5554
银行家	-5555
长期的	-5556
雷克雅	-5557
非正式	-5558
预示着	-5559
领导力	-5560
马德里	-5561
1991	-5562
5000	-5563
tion	-5564
▁但非洲	-5565
▁全世界	-5566
▁卢旺达	-5567
▁在这些	-5568
▁如果不	-5569
▁欧元区	-5570
▁民主党	-5571
▁泽纳维	-5572
▁马德里	-5573
也有助于	-5574
付出代价	-5575
克里姆林	-5576
全世界的	-5577
全球化的	-5578
全球性的	-5579
公私合作	-5580
几十年中	-5581
出人意料	-5582
分崩离析	-5583
切尔克索	-5584
刚刚结束	-5585
利他主义	-5586
十分重要	-5587
单枪匹马	-5588
双边贸易	-5589
受欢迎的	-5590
另外一个	-5591
只是一个	-5592
可能导致	-5593
周年纪念	-5594
和平进程	-5595
商业领袖	-5596
国际合作	-5597
在美国的	-5598
大规模的	-5599
失业问题	-5600
尤其重要	-5601
布鲁塞尔	-5602
平权政策	-5603
应该成为	-5604
性别平等	-5605
恰恰相反	-5606
托克维尔	-5607
拉丁美洲	-5608
提供资金	-5609
援助资金	-5610
支付系统	-5611
政府应该	-5612
政治制度	-5613
政治参与	-5614
教育程度	-5615
数百万人	-5616
无法实现	-5617
既得利益	-5618
更有可能	-5619
有意义的	-5620
未来十年	-5621
极端天气	-5622
正在经历	-5623
毫不奇怪	-5624
环境保护	-5625
现在已经	-5626
生产总值	-5627
的支持下	-5628
的欧元区	-5629
的过程中	-5630
社会保险	-5631
私人投资	-5632
私营部门	-5633
科特迪瓦	-5634
粮食产量	-5635
紧张局势	-5636
经济活动	-5637
经济表现	-5638
经济问题	-5639
罗马尼亚	-5640
职业生涯	-5641
能够成为	-5642
营商环境	-5643
蓬勃发展	-5644
解决办法	-5645
解决问题	-5646
言论自由	-5647
贫穷国家	-5648
贸易伙伴	-5649
资本流入	-5650
超级大国	-5651
越来越大	-5652
近几年来	-5653
这一事实	-5654
这一方向	-5655
这一比例	-5656
这一趋势	-5657
这种情况	-5658
造成严重	-5659
都是如此	-5660
金融包容	-5661
问题在于	-5662
非洲妇女	-5663
非洲联盟	-5664
领导人们	-5665
马来西亚	-5666
齐心协力	-5667
tweet	-5668
▁2011	-5669
▁不仅如此	-5670
▁具体而言	-5671
▁在经历了	-5672
▁巴勒斯坦	-5673
▁我们现在	-5674
▁无论如何	-5675
▁欧洲央行	-5676
不可持续的	-5677
事务委员会	-5678
以失败告终	-5679
做到这一点	-5680
劳动力成本	-5681
和世界银行	-5682
国际社会的	-5683
在许多国家	-5684
年金融危机	-5685
更重要的是	-5686
根深蒂固的	-5687
欧洲领导人	-5688
的一个关键	-5689
的主要原因	-5690
经济和社会	-5691
货币政策的	-5692
这样的国家	-5693
重要的角色	-5694
雷克雅未克	-5695
非政府组织	-5696
▁Partn	-5697
▁更糟糕的是	-5698
▁阿尔及利亚	-5699
世界其他国家	-5700
双性恋和变性	-5701
基础设施建设	-5702
外国直接投资	-5703
许多非洲国家	-5704
阿拉伯世界的	-5705
▁非洲开发银行	-5706
西班牙和意大利	-5707
Facebook	-5708
联合国艾滋病规划署	-5709
ternational	-5710
▁Partnership	-5711
,9	-5712
2,	-5713
37	-5714
4%	-5715
7.	-5716
8.	-5717
AR	-5718
Af	-5719
Am	-5720
IV	-5721
aw	-5722
az	-5723
ee	-5724
hi	-5725
og	-5726
yn	-5727
—3	-5728
▁t	-5729
▁巴	-5730
▁很	-5731
▁或	-5732
▁所	-5733
▁把	-5734
▁每	-5735
▁能	-5736
一地	-5737
一块	-5738
一如	-5739
一座	-5740
一日	-5741
一片	-5742
一番	-5743
一股	-5744
一道	-5745
上学	-5746
下台	-5747
不停	-5748
不堪	-5749
不多	-5750
不容	-5751
不惜	-5752
不清	-5753
不通	-5754
两名	-5755
两年	-5756
两次	-5757
两种	-5758
丧生	-5759
个新	-5760
中止	-5761
临界	-5762
为其	-5763
举办	-5764
之以	-5765
乌托	-5766
也与	-5767
也让	-5768
乡村	-5769
了他	-5770
了在	-5771
事关	-5772
事物	-5773
他所	-5774
他还	-5775
代人	-5776
们的	-5777
会使	-5778
会是	-5779
低下	-5780
你们	-5781
你的	-5782
侨民	-5783
信徒	-5784
修改	-5785
修补	-5786
修订	-5787
借口	-5788
假装	-5789
催化	-5790
克斯	-5791
免于	-5792
入境	-5793
入学	-5794
入狱	-5795
公元	-5796
公斤	-5797
公顷	-5798
共有	-5799
关心	-5800
内战	-5801
冷漠	-5802
几十	-5803
出席	-5804
击败	-5805
分享	-5806
分割	-5807
分离	-5808
切断	-5809
划分	-5810
划定	-5811
则在	-5812
制止	-5813
力度	-5814
加贝	-5815
动乱	-5816
勇气	-5817
匹配	-5818
区别	-5819
十个	-5820
半岛	-5821
协作	-5822
单纯	-5823
南海	-5824
博物	-5825
卡梅	-5826
压制	-5827
原始	-5828
原子	-5829
原理	-5830
友好	-5831
反思	-5832
反美	-5833
受灾	-5834
古兰	-5835
古巴	-5836
可供	-5837
可图	-5838
可得	-5839
可观	-5840
可言	-5841
吉尔	-5842
同胞	-5843
名昭	-5844
名词	-5845
君主	-5846
吞并	-5847
含量	-5848
听取	-5849
和安	-5850
因于	-5851
困惑	-5852
在不	-5853
在了	-5854
在从	-5855
在新	-5856
在眉	-5857
地与	-5858
地为	-5859
地狱	-5860
场上	-5861
场合	-5862
坎登	-5863
坚挺	-5864
埃尔	-5865
城镇	-5866
增量	-5867
复制	-5868
多次	-5869
大相	-5870
大脑	-5871
太大	-5872
太过	-5873
失速	-5874
头脑	-5875
奖金	-5876
奠定	-5877
奴隶	-5878
妨碍	-5879
娱乐	-5880
婚姻	-5881
学位	-5882
学到	-5883
安南	-5884
定价	-5885
定性	-5886
审慎	-5887
宽容	-5888
对方	-5889
将使	-5890
将近	-5891
小麦	-5892
尔多	-5893
尼尔	-5894
局部	-5895
展望	-5896
州和	-5897
巴乔	-5898
巴沙	-5899
布拉	-5900
幻想	-5901
度过	-5902
建国	-5903
建成	-5904
开端	-5905
弹性	-5906
归还	-5907
当作	-5908
彼得	-5909
径庭	-5910
得主	-5911
得出	-5912
得起	-5913
微小	-5914
心态	-5915
心脏	-5916
忏悔	-5917
性地	-5918
总部	-5919
恰米	-5920
恶魔	-5921
患有	-5922
想到	-5923
意志	-5924
房价	-5925
所作	-5926
手里	-5927
打了	-5928
扩展	-5929
扼杀	-5930
护理	-5931
抨击	-5932
拉登	-5933
拉美	-5934
拓展	-5935
挂钩	-5936
挑起	-5937
捐赠	-5938
据此	-5939
授予	-5940
接地	-5941
推特	-5942
推高	-5943
搜集	-5944
撤出	-5945
操作	-5946
攀升	-5947
支箭	-5948
救命	-5949
教堂	-5950
教皇	-5951
数千	-5952
数百	-5953
方济	-5954
无数	-5955
无比	-5956
无能	-5957
无需	-5958
日元	-5959
旧的	-5960
明证	-5961
易得	-5962
星球	-5963
春天	-5964
晋三	-5965
普世	-5966
更少	-5967
曾在	-5968
最坏	-5969
来了	-5970
果实	-5971
枯竭	-5972
查德	-5973
校园	-5974
核不	-5975
核武	-5976
桥梁	-5977
次级	-5978
歇尔	-5979
此次	-5980
此类	-5981
步伐	-5982
毒贩	-5983
比作	-5984
比赛	-5985
比起	-5986
毛里	-5987
民用	-5988
气氛	-5989
求斯	-5990
法官	-5991
洛因	-5992
流程	-5993
深深	-5994
深陷	-5995
港口	-5996
源于	-5997
溢出	-5998
溯到	-5999
激增	-6000
激活	-6001
激起	-6002
热带	-6003
然地	-6004
物的	-6005
特区	-6006
特性	-6007
特拉	-6008
狂热	-6009
玉米	-6010
球队	-6011
理事	-6012
理工	-6013
甘地	-6014
用途	-6015
男女	-6016
界限	-6017
疑虑	-6018
病例	-6019
瘫痪	-6020
的原	-6021
的核	-6022
的生	-6023
的要	-6024
直面	-6025
看护	-6026
真心	-6027
眼中	-6028
眼前	-6029
矿物	-6030
破灭	-6031
祖国	-6032
神话	-6033
祸首	-6034
种种	-6035
种类	-6036
稀缺	-6037
竭力	-6038
等级	-6039
米兰	-6040
精力	-6041
纪录	-6042
纯属	-6043
纽黑	-6044
结盟	-6045
维生	-6046
编辑	-6047
美的	-6048
而出	-6049
而对	-6050
聚焦	-6051
背叛	-6052
自豪	-6053
般的	-6054
节目	-6055
芬兰	-6056
荣誉	-6057
萎缩	-6058
营造	-6059
营销	-6060
融化	-6061
血液	-6062
表面	-6063
西欧	-6064
规避	-6065
解读	-6066
计入	-6067
讨好	-6068
许可	-6069
论者	-6070
试验	-6071
误解	-6072
说的	-6073
说过	-6074
谋杀	-6075
谷歌	-6076
财产	-6077
赞美	-6078
越发	-6079
足的	-6080
较低	-6081
输家	-6082
过上	-6083
进来	-6084
远见	-6085
适当	-6086
逆差	-6087
遇到	-6088
道歉	-6089
遗憾	-6090
邪恶	-6091
都已	-6092
采访	-6093
重启	-6094
重振	-6095
重申	-6096
量化	-6097
错综	-6098
阵线	-6099
阶层	-6100
附加	-6101
隐私	-6102
难题	-6103
雇佣	-6104
靠拢	-6105
预言	-6106
频密	-6107
验证	-6108
鲜明	-6109
黑暗	-6110
齐聚	-6111
1.4	-6112
1.6	-6113
1.9	-6114
1/3	-6115
90%	-6116
ENP	-6117
SDG	-6118
age	-6119
all	-6120
dis	-6121
ean	-6122
ell	-6123
ens	-6124
ern	-6125
man	-6126
ren	-6127
▁Re	-6128
▁Tr	-6129
▁in	-6130
▁伊朗	-6131
▁但它	-6132
▁但我	-6133
▁值得	-6134
▁允许	-6135
▁关于	-6136
▁军事	-6137
▁到了	-6138
▁南非	-6139
▁可能	-6140
▁女性	-6141
▁建设	-6142
▁总统	-6143
▁政客	-6144
▁教育	-6145
▁有时	-6146
▁柏林	-6147
▁正在	-6148
▁约翰	-6149
▁还是	-6150
▁这次	-6151
▁这类	-6152
▁通常	-6153
▁针对	-6154
▁预计	-6155
一直被	-6156
上加霜	-6157
下一代	-6158
下一任	-6159
下一步	-6160
下降了	-6161
不一样	-6162
不久前	-6163
不作为	-6164
不利于	-6165
不断地	-6166
不相同	-6167
不错的	-6168
与过去	-6169
世界中	-6170
严厉的	-6171
中国对	-6172
为世界	-6173
为导向	-6174
为目标	-6175
为首的	-6176
主义派	-6177
主导的	-6178
主要由	-6179
之外的	-6180
乌托邦	-6181
了一些	-6182
了经济	-6183
了美国	-6184
了许多	-6185
了那些	-6186
亚国家	-6187
从而让	-6188
他们将	-6189
他们就	-6190
以美国	-6191
们已经	-6192
企业和	-6193
会发生	-6194
但我们	-6195
但现在	-6196
但美国	-6197
但这一	-6198
低收入	-6199
供应商	-6200
保守派	-6201
儿童的	-6202
充斥着	-6203
克鲁尼	-6204
关注的	-6205
其原因	-6206
具体的	-6207
再分配	-6208
再平衡	-6209
决定性	-6210
准确地	-6211
几乎无	-6212
凸显出	-6213
创新性	-6214
制定的	-6215
削弱了	-6216
副总统	-6217
匈牙利	-6218
医疗和	-6219
博物馆	-6220
卡梅伦	-6221
历史性	-6222
参议员	-6223
又一次	-6224
反对者	-6225
另一种	-6226
可不是	-6227
可以从	-6228
可以将	-6229
可以说	-6230
各自的	-6231
向世界	-6232
向美国	-6233
告诉我	-6234
和债务	-6235
和商业	-6236
和增长	-6237
和管理	-6238
和脆弱	-6239
和自由	-6240
因为其	-6241
国内的	-6242
在一次	-6243
在中国	-6244
在他的	-6245
在当今	-6246
在当前	-6247
在最近	-6248
在眉睫	-6249
在英国	-6250
在这个	-6251
坏消息	-6252
增加到	-6253
多年前	-6254
大会上	-6255
大选中	-6256
太多的	-6257
女性在	-6258
威胁的	-6259
它必须	-6260
定义为	-6261
宝莱坞	-6262
实现其	-6263
容易被	-6264
富有的	-6265
对自身	-6266
对这个	-6267
对那些	-6268
将受到	-6269
尼西亚	-6270
层面的	-6271
居住在	-6272
工人的	-6273
已不再	-6274
已经对	-6275
巴沙尔	-6276
布莱尔	-6277
希望的	-6278
年代的	-6279
年后的	-6280
并试图	-6281
建设性	-6282
引人注	-6283
归因于	-6284
很少有	-6285
必须是	-6286
必须的	-6287
怎么办	-6288
思想和	-6289
总统在	-6290
恰当的	-6291
恰恰是	-6292
情形中	-6293
愤怒的	-6294
愿意为	-6295
成员的	-6296
我们为	-6297
我们也	-6298
或许是	-6299
战略性	-6300
所造成	-6301
承诺将	-6302
承诺要	-6303
投入到	-6304
报告中	-6305
拥有了	-6306
持久的	-6307
捐助方	-6308
推出了	-6309
措施的	-6310
携带者	-6311
收益率	-6312
改变了	-6313
改革者	-6314
攻击的	-6315
政府将	-6316
政策和	-6317
新欧洲	-6318
方济各	-6319
时间和	-6320
是中国	-6321
是人类	-6322
是实现	-6323
是时候	-6324
是非洲	-6325
暴露出	-6326
更低的	-6327
更容易	-6328
更广泛	-6329
更愿意	-6330
最小化	-6331
最紧迫	-6332
最贫穷	-6333
有一种	-6334
有两个	-6335
有必要	-6336
来支付	-6337
来支持	-6338
来源于	-6339
来的钱	-6340
桑德斯	-6341
正确地	-6342
殖民地	-6343
民主和	-6344
没有人	-6345
没有被	-6346
活动的	-6347
流行的	-6348
海洛因	-6349
涉及到	-6350
源自于	-6351
狭隘的	-6352
现在的	-6353
理性的	-6354
理查德	-6355
甚至是	-6356
生产的	-6357
的份额	-6358
的决策	-6359
的命运	-6360
的因素	-6361
的失败	-6362
的思想	-6363
的损失	-6364
的援助	-6365
的攻击	-6366
的直接	-6367
的稳定	-6368
的联邦	-6369
的资产	-6370
的道德	-6371
的错误	-6372
的高级	-6373
碎片化	-6374
碳排放	-6375
种族和	-6376
科学和	-6377
移民的	-6378
第二大	-6379
等方面	-6380
等问题	-6381
简直是	-6382
系统性	-6383
繁荣和	-6384
纽黑文	-6385
统治者	-6386
统计局	-6387
美国将	-6388
而且在	-6389
而美国	-6390
能带来	-6391
获得者	-6392
菲尔德	-6393
表现得	-6394
被用于	-6395
西方人	-6396
西方的	-6397
规模的	-6398
视而不	-6399
该政策	-6400
说明了	-6401
调整的	-6402
迈斯特	-6403
还要多	-6404
这是一	-6405
这是个	-6406
这表明	-6407
追溯到	-6408
适当的	-6409
选择了	-6410
通常会	-6411
那样的	-6412
邻国的	-6413
都知道	-6414
铜氧化	-6415
长期看	-6416
问题在	-6417
随之而	-6418
集中于	-6419
集团的	-6420
高收入	-6421
高效的	-6422
魁祸首	-6423
1970	-6424
1980	-6425
ICAO	-6426
rica	-6427
▁000	-6428
▁Fin	-6429
▁NCD	-6430
▁但日本	-6431
▁但这个	-6432
▁但随着	-6433
▁即使是	-6434
▁在欧洲	-6435
▁在英国	-6436
▁在这个	-6437
▁大多数	-6438
▁当前的	-6439
▁意大利	-6440
▁新德里	-6441
▁美联储	-6442
▁这样做	-6443
一开始就	-6444
一段时间	-6445
万美元的	-6446
不会导致	-6447
不太可能	-6448
不幸的是	-6449
不是一个	-6450
不难理解	-6451
专业人士	-6452
世界大战	-6453
东欧和中	-6454
中国政府	-6455
中小企业	-6456
九十年代	-6457
也不应该	-6458
也是一个	-6459
了美国的	-6460
互相依赖	-6461
五分之一	-6462
亚洲国家	-6463
人力资本	-6464
人口红利	-6465
使用武力	-6466
保守主义	-6467
债务负担	-6468
停滞不前	-6469
储蓄短缺	-6470
充分利用	-6471
全世界最	-6472
全球卫生	-6473
公共卫生	-6474
关键领域	-6475
创造一个	-6476
利益相关	-6477
化学武器	-6478
医疗覆盖	-6479
单边主义	-6480
卫生援助	-6481
卫生设施	-6482
取得进展	-6483
可能发生	-6484
和他们的	-6485
和以色列	-6486
和伊拉克	-6487
和消费者	-6488
和西班牙	-6489
国内储蓄	-6490
国际援助	-6491
大幅增加	-6492
大相径庭	-6493
安倍晋三	-6494
实体经济	-6495
实现这些	-6496
家庭消费	-6497
家族企业	-6498
对美国和	-6499
对美国的	-6500
就业创造	-6501
就业增长	-6502
就业岗位	-6503
就业机会	-6504
就是明证	-6505
就职演说	-6506
工业革命	-6507
已经证明	-6508
巴黎气候	-6509
年增长率	-6510
很快就会	-6511
想象一下	-6512
意味的是	-6513
戈尔巴乔	-6514
成千上万	-6515
成员国的	-6516
我们应该	-6517
我们无法	-6518
我们是否	-6519
所有人的	-6520
拥有一个	-6521
提醒我们	-6522
摆脱贫困	-6523
文化遗产	-6524
普遍认为	-6525
更深层次	-6526
更进一步	-6527
最有可能	-6528
有史以来	-6529
机器学习	-6530
极权主义	-6531
核不扩散	-6532
根本无法	-6533
欧洲国家	-6534
毛里求斯	-6535
毫无意义	-6536
民主党的	-6537
汇率贬值	-6538
没有什么	-6539
甚至可能	-6540
生态系统	-6541
生物资源	-6542
电力供应	-6543
病和疟疾	-6544
的必要性	-6545
的新技术	-6546
的生产率	-6547
直到最近	-6548
研究发现	-6549
私人信贷	-6550
空气质量	-6551
经济危机	-6552
经济来说	-6553
经济转型	-6554
绿色增长	-6555
美以公共	-6556
美国国会	-6557
美国正在	-6558
联邦政府	-6559
能够通过	-6560
能源需求	-6561
能让我们	-6562
自由流动	-6563
解决之道	-6564
该委员会	-6565
财政政策	-6566
贫困国家	-6567
贷款条件	-6568
贸易协议	-6569
贸易失衡	-6570
资本流动	-6571
跨太平洋	-6572
这些问题	-6573
这方面的	-6574
远远不够	-6575
迫切需要	-6576
迫在眉睫	-6577
选举结果	-6578
通胀目标	-6579
金融体系	-6580
金融部门	-6581
错综复杂	-6582
阿尔恰米	-6583
雪上加霜	-6584
非洲女性	-6585
非洲必须	-6586
领导地位	-6587
,2014	-6588
1,700	-6589
2008—	-6590
▁2001	-6591
▁2005	-6592
▁2013	-6593
▁Clim	-6594
▁为了实现	-6595
▁发自伦敦	-6596
▁好消息是	-6597
▁巴基斯坦	-6598
▁我们希望	-6599
▁汉密尔顿	-6600
▁而事实上	-6601
▁萨尔科奇	-6602
不可避免的	-6603
不断扩大的	-6604
产生的影响	-6605
亿美元用于	-6606
令人瞩目的	-6607
克里姆林宫	-6608
决策者必须	-6609
劳动密集型	-6610
即将到来的	-6611
增长最快的	-6612
妇女的暴力	-6613
工业化进程	-6614
很大一部分	-6615
很好的例子	-6616
政治和经济	-6617
新兴市场的	-6618
最大经济体	-6619
欧洲一体化	-6620
第三个十年	-6621
美联储主席	-6622
致力于改善	-6623
规模最大的	-6624
贸易和投资	-6625
这种情况下	-6626
阿拉伯世界	-6627
非洲国家的	-6628
高收入国家	-6629
ancing	-6630
▁更重要的是	-6631
▁艾滋病运动	-6632
创造就业机会	-6633
原教旨主义者	-6634
合作伙伴关系	-6635
基础设施项目	-6636
政策制定者们	-6637
新兴市场国家	-6638
结核病和疟疾	-6639
联邦医疗补助	-6640
讽刺意味的是	-6641
适应气候变化	-6642
阿尔及利亚人	-6643
非洲裔美国人	-6644
二氧化碳排放量	-6645
比以往任何时候	-6646
▁Climate	-6647
联合国教科文组织	-6648
撒哈拉以南非洲地区	-6649
美以公共事务委员会	-6650
贝卢斯科尼西尔维奥	-6651
(6	-6652
23	-6653
44	-6654
54	-6655
59	-6656
62	-6657
68	-6658
7,	-6659
DI	-6660
EP	-6661
NA	-6662
SC	-6663
aj	-6664
au	-6665
ax	-6666
ch	-6667
ev	-6668
fo	-6669
if	-6670
iz	-6671
os	-6672
oz	-6673
sh	-6674
sk	-6675
uc	-6676
▁1	-6677
▁2	-6678
▁U	-6679
▁Z	-6680
▁中	-6681
▁再	-6682
▁受	-6683
▁地	-6684
▁想	-6685
▁放	-6686
▁斯	-6687
▁非	-6688
▁颇	-6689
一党	-6690
一同	-6691
一提	-6692
一支	-6693
一方	-6694
一是	-6695
一笔	-6696
一级	-6697
一词	-6698
一路	-6699
上千	-6700
上浇	-6701
上面	-6702
下面	-6703
不乏	-6704
不从	-6705
不入	-6706
不力	-6707
不复	-6708
不定	-6709
不知	-6710
与伦	-6711
专利	-6712
专制	-6713
业绩	-6714
丝绸	-6715
两人	-6716
个别	-6717
中也	-6718
中位	-6719
中去	-6720
中学	-6721
主动	-6722
主管	-6723
之又	-6724
之所	-6725
之梦	-6726
之行	-6727
之门	-6728
乐部	-6729
也为	-6730
也无	-6731
也门	-6732
书记	-6733
了两	-6734
了近	-6735
二月	-6736
于此	-6737
五大	-6738
亚太	-6739
交换	-6740
产权	-6741
人也	-6742
人对	-6743
今日	-6744
从前	-6745
他将	-6746
代替	-6747
企图	-6748
伐木	-6749
优惠	-6750
优点	-6751
会把	-6752
会让	-6753
会说	-6754
但从	-6755
住了	-6756
住宅	-6757
体验	-6758
依据	-6759
侵入	-6760
侵蚀	-6761
修建	-6762
倒台	-6763
倒塌	-6764
借此	-6765
倡导	-6766
倾斜	-6767
假说	-6768
偏爱	-6769
儒家	-6770
元首	-6771
克拉	-6772
党的	-6773
八国	-6774
公务	-6775
公然	-6776
六个	-6777
关乎	-6778
关进	-6779
养活	-6780
内布	-6781
内斯	-6782
写道	-6783
农夫	-6784
冰岛	-6785
冻结	-6786
凝聚	-6787
几位	-6788
几周	-6789
分类	-6790
切地	-6791
创建	-6792
创意	-6793
判决	-6794
力更	-6795
加深	-6796
务农	-6797
勇敢	-6798
包装	-6799
北极	-6800
医保	-6801
十字	-6802
华建	-6803
南方	-6804
博拉	-6805
卜杜	-6806
卡加	-6807
卡塔	-6808
印美	-6809
却不	-6810
卷土	-6811
压低	-6812
又是	-6813
双重	-6814
变迁	-6815
叙事	-6816
古尔	-6817
只在	-6818
叫停	-6819
可怜	-6820
可行	-6821
可谓	-6822
右派	-6823
各斯	-6824
各样	-6825
各类	-6826
合规	-6827
同一	-6828
同期	-6829
名叫	-6830
名言	-6831
吕尼	-6832
听证	-6833
和东	-6834
和性	-6835
和空	-6836
和非	-6837
品质	-6838
哈特	-6839
四十	-6840
四年	-6841
回了	-6842
回合	-6843
回顾	-6844
因其	-6845
国王	-6846
圣诞	-6847
在我	-6848
地带	-6849
堕落	-6850
增幅	-6851
增税	-6852
士底	-6853
处境	-6854
备受	-6855
多么	-6856
多人	-6857
多大	-6858
多极	-6859
够的	-6860
大军	-6861
大卫	-6862
大小	-6863
太少	-6864
夭折	-6865
失所	-6866
失灵	-6867
好了	-6868
如同	-6869
妮斯	-6870
姿态	-6871
宁愿	-6872
定位	-6873
定向	-6874
宝座	-6875
审视	-6876
客观	-6877
宣战	-6878
宣誓	-6879
宪政	-6880
家里	-6881
富翁	-6882
对他	-6883
对俄	-6884
对冲	-6885
对策	-6886
封锁	-6887
将于	-6888
将军	-6889
将把	-6890
将有	-6891
将来	-6892
将由	-6893
将给	-6894
将要	-6895
将让	-6896
小型	-6897
小心	-6898
就有	-6899
尼古	-6900
尼泊	-6901
尼雷	-6902
局和	-6903
居高	-6904
山都	-6905
崩盘	-6906
巨型	-6907
巨头	-6908
已久	-6909
已有	-6910
布伦	-6911
平常	-6912
平稳	-6913
年在	-6914
年时	-6915
年里	-6916
底拖	-6917
延伸	-6918
建制	-6919
开明	-6920
弊端	-6921
强奸	-6922
归属	-6923
归根	-6924
当代	-6925
当权	-6926
很低	-6927
很长	-6928
律师	-6929
德曼	-6930
德鲁	-6931
必定	-6932
忙于	-6933
总数	-6934
总裁	-6935
息地	-6936
悬崖	-6937
情愿	-6938
惊奇	-6939
意在	-6940
意料	-6941
感染	-6942
感谢	-6943
慢性	-6944
戏剧	-6945
成年	-6946
或是	-6947
所为	-6948
所犯	-6949
打开	-6950
打着	-6951
打造	-6952
执掌	-6953
把持	-6954
投机	-6955
投诉	-6956
报导	-6957
抬高	-6958
担负	-6959
拙劣	-6960
拨款	-6961
拼命	-6962
指南	-6963
指引	-6964
掀起	-6965
掉了	-6966
掌权	-6967
推理	-6968
描绘	-6969
提下	-6970
提到	-6971
揭示	-6972
摇摇	-6973
撤退	-6974
支柱	-6975
收成	-6976
收紧	-6977
收费	-6978
改良	-6979
救援	-6980
教会	-6981
数额	-6982
文明	-6983
斑块	-6984
断网	-6985
斯和	-6986
新书	-6987
新型	-6988
新增	-6989
族群	-6990
无限	-6991
时尚	-6992
是指	-6993
更低	-6994
最低	-6995
最受	-6996
有趣	-6997
服装	-6998
本书	-6999
本土	-7000
本月	-7001
杀人	-7002
权益	-7003
权限	-7004
村民	-7005
束缚	-7006
来临	-7007
杰出	-7008
林肯	-7009
树木	-7010
树立	-7011
校长	-7012
样板	-7013
根除	-7014
格局	-7015
梅德	-7016
植物	-7017
模糊	-7018
欠缺	-7019
次于	-7020
欲坠	-7021
正轨	-7022
正逢	-7023
此举	-7024
步入	-7025
水域	-7026
水的	-7027
汲取	-7028
沿海	-7029
泄漏	-7030
法则	-7031
法庭	-7032
法的	-7033
法郎	-7034
注册	-7035
注资	-7036
洁净	-7037
派别	-7038
流出	-7039
流离	-7040
海湾	-7041
涵盖	-7042
淀粉	-7043
混合	-7044
清醒	-7045
清除	-7046
演化	-7047
潮流	-7048
激怒	-7049
灭绝	-7050
照顾	-7051
牛津	-7052
猖獗	-7053
环节	-7054
理智	-7055
畅销	-7056
界定	-7057
略微	-7058
病患	-7059
的代	-7060
的克	-7061
的军	-7062
的女	-7063
监控	-7064
目睹	-7065
盲目	-7066
直至	-7067
相称	-7068
真理	-7069
真空	-7070
短暂	-7071
短短	-7072
确立	-7073
碳氢	-7074
福音	-7075
秘鲁	-7076
穆雷	-7077
笼罩	-7078
筹措	-7079
简化	-7080
管辖	-7081
管道	-7082
米德	-7083
紧要	-7084
累斯	-7085
约有	-7086
结局	-7087
结算	-7088
给他	-7089
继任	-7090
罹患	-7091
美俄	-7092
而该	-7093
肾脏	-7094
能使	-7095
能比	-7096
脱欧	-7097
自主	-7098
自信	-7099
自治	-7100
自行	-7101
节奏	-7102
节省	-7103
节约	-7104
节节	-7105
芬克	-7106
苦难	-7107
英镑	-7108
苹果	-7109
荣耀	-7110
药方	-7111
萨诸	-7112
虚弱	-7113
行列	-7114
被捕	-7115
要点	-7116
见解	-7117
解除	-7118
触发	-7119
警惕	-7120
让我	-7121
让步	-7122
许诺	-7123
请愿	-7124
调节	-7125
谷物	-7126
豁免	-7127
赚取	-7128
赞同	-7129
赞成	-7130
起义	-7131
跟上	-7132
转让	-7133
轮值	-7134
辍学	-7135
辩解	-7136
迁往	-7137
迈进	-7138
近乎	-7139
近来	-7140
还不	-7141
还给	-7142
这也	-7143
违法	-7144
迪拜	-7145
迷失	-7146
追逐	-7147
追随	-7148
适合	-7149
道义	-7150
遥远	-7151
遵从	-7152
那就	-7153
那次	-7154
邦的	-7155
配置	-7156
采纳	-7157
重来	-7158
间谍	-7159
阅读	-7160
防范	-7161
隔离	-7162
难免	-7163
集权	-7164
面的	-7165
顺利	-7166
顽固	-7167
领衔	-7168
颇有	-7169
风格	-7170
飞机	-7171
饮食	-7172
驱逐	-7173
高产	-7174
高估	-7175
高层	-7176
高温	-7177
鲁莽	-7178
麦克	-7179
麻省	-7180
,20	-7181
1.1	-7182
1.3	-7183
1.8	-7184
18—	-7185
20%	-7186
800	-7187
FDI	-7188
Tig	-7189
ach	-7190
ade	-7191
ain	-7192
are	-7193
arl	-7194
her	-7195
ial	-7196
icy	-7197
ine	-7198
iss	-7199
ler	-7200
ond	-7201
ust	-7202
ver	-7203
▁Br	-7204
▁Le	-7205
▁一旦	-7206
▁不要	-7207
▁不难	-7208
▁中东	-7209
▁事实	-7210
▁传统	-7211
▁关键	-7212
▁农民	-7213
▁到那	-7214
▁剑桥	-7215
▁另外	-7216
▁填补	-7217
▁小泉	-7218
▁就在	-7219
▁帮助	-7220
▁应当	-7221
▁投资	-7222
▁报告	-7223
▁政治	-7224
▁是的	-7225
▁曾经	-7226
▁有了	-7227
▁每年	-7228
▁现代	-7229
▁自从	-7230
▁至少	-7231
▁解决	-7232
▁近期	-7233
▁这部	-7234
▁难道	-7235
一例外	-7236
一半的	-7237
一小撮	-7238
一点点	-7239
上浇油	-7240
不具有	-7241
不可靠	-7242
不如说	-7243
不符合	-7244
不过是	-7245
与世界	-7246
与伦比	-7247
与全球	-7248
与欧洲	-7249
专家们	-7250
中受益	-7251
中的一	-7252
为人所	-7253
为他们	-7254
为美国	-7255
之前的	-7256
也不再	-7257
也将是	-7258
也已经	-7259
也正在	-7260
了全球	-7261
了国际	-7262
了大量	-7263
了道路	-7264
争议的	-7265
事实力	-7266
二战后	-7267
亚洲的	-7268
人认为	-7269
人铭记	-7270
从一个	-7271
他们能	-7272
代理人	-7273
代表团	-7274
会下降	-7275
会带来	-7276
但不能	-7277
作为其	-7278
你可以	-7279
俱乐部	-7280
停留在	-7281
健康和	-7282
催化剂	-7283
克劳利	-7284
全人类	-7285
公众的	-7286
六个月	-7287
关键性	-7288
其他人	-7289
内斯堡	-7290
决定的	-7291
冷战的	-7292
准备好	-7293
准备的	-7294
几年前	-7295
出售给	-7296
出现前	-7297
出色的	-7298
分之三	-7299
创造出	-7300
创造性	-7301
制造商	-7302
前总统	-7303
前苏联	-7304
力更生	-7305
加大对	-7306
加沙的	-7307
包括了	-7308
北部的	-7309
协议中	-7310
南极洲	-7311
危机后	-7312
即使在	-7313
即便是	-7314
历史中	-7315
原子弹	-7316
参与到	-7317
及其他	-7318
双方的	-7319
双方都	-7320
反映出	-7321
发现了	-7322
受益于	-7323
变化的	-7324
古兰经	-7325
可以让	-7326
可能有	-7327
可预测	-7328
号决议	-7329
同一个	-7330
同时又	-7331
后者的	-7332
向公众	-7333
听上去	-7334
周期性	-7335
和印度	-7336
和发展	-7337
和埃及	-7338
和外部	-7339
和就业	-7340
和平与	-7341
和文化	-7342
和消费	-7343
和监管	-7344
和组织	-7345
和腐败	-7346
和资本	-7347
和银行	-7348
和非洲	-7349
回报率	-7350
因为在	-7351
困扰着	-7352
国家所	-7353
在一场	-7354
在不断	-7355
在今后	-7356
在他们	-7357
在全国	-7358
在去年	-7359
在没有	-7360
地认为	-7361
埃博拉	-7362
基加利	-7363
增加值	-7364
增长到	-7365
外围国	-7366
大企业	-7367
大目标	-7368
大量的	-7369
奢侈品	-7370
她们的	-7371
如果不	-7372
如果你	-7373
威胁到	-7374
存在于	-7375
它已经	-7376
安全与	-7377
安全感	-7378
完全是	-7379
完成了	-7380
宗教式	-7381
实质性	-7382
宣布了	-7383
对人类	-7384
对他的	-7385
对全球	-7386
对未来	-7387
对环境	-7388
对经济	-7389
将不会	-7390
将这一	-7391
尤妮斯	-7392
就应该	-7393
就无法	-7394
尼泊尔	-7395
岁群体	-7396
工业园	-7397
工作和	-7398
已经从	-7399
布吕尼	-7400
布拉格	-7401
布雷顿	-7402
希望在	-7403
年收入	-7404
年轻的	-7405
年长的	-7406
年长者	-7407
并不会	-7408
并且在	-7409
并因此	-7410
并确保	-7411
并要求	-7412
应有的	-7413
底拖网	-7414
庸置疑	-7415
建立的	-7416
强制性	-7417
强化了	-7418
强烈的	-7419
强调了	-7420
当然的	-7421
往往会	-7422
很大的	-7423
很好地	-7424
很显然	-7425
德国人	-7426
必须与	-7427
必须以	-7428
必须要	-7429
性取向	-7430
总债务	-7431
惊人的	-7432
感兴趣	-7433
愤怒和	-7434
成立了	-7435
我的祖	-7436
所有权	-7437
才能够	-7438
托马斯	-7439
扩大到	-7440
扮演了	-7441
批评者	-7442
找不到	-7443
技能的	-7444
拉斯加	-7445
持有的	-7446
捍卫者	-7447
控制了	-7448
措施来	-7449
提供商	-7450
提高到	-7451
支持和	-7452
政策将	-7453
文化的	-7454
新加坡	-7455
方案的	-7456
方法是	-7457
方面也	-7458
无人机	-7459
是一次	-7460
是可以	-7461
是基于	-7462
显然是	-7463
普京的	-7464
更健康	-7465
更少的	-7466
更快地	-7467
曾经是	-7468
替代率	-7469
最令人	-7470
最糟糕	-7471
最艰巨	-7472
最重要	-7473
最需要	-7474
月以来	-7475
有关的	-7476
有多少	-7477
朝一日	-7478
来帮助	-7479
极少数	-7480
某些人	-7481
核威慑	-7482
根本上	-7483
欧元的	-7484
欧洲和	-7485
此前的	-7486
段时期	-7487
比以前	-7488
民主的	-7489
注定要	-7490
泰米尔	-7491
活力的	-7492
海地的	-7493
淀粉样	-7494
深刻的	-7495
深层次	-7496
灾难性	-7497
独特的	-7498
环境下	-7499
环境中	-7500
现有的	-7501
生活中	-7502
由美国	-7503
痛苦的	-7504
百分之	-7505
的一切	-7506
的一步	-7507
的一种	-7508
的主题	-7509
的争论	-7510
的价值	-7511
的使用	-7512
的关税	-7513
的内容	-7514
的农民	-7515
的创造	-7516
的后果	-7517
的大学	-7518
的局面	-7519
的想法	-7520
的愤怒	-7521
的政客	-7522
的早期	-7523
的时刻	-7524
的最后	-7525
的最高	-7526
的概念	-7527
的武装	-7528
的气候	-7529
的法国	-7530
的潜在	-7531
的竞选	-7532
的管理	-7533
的细节	-7534
的结论	-7535
的能源	-7536
的脆弱	-7537
的解释	-7538
的认识	-7539
的话题	-7540
的货币	-7541
的过去	-7542
的过程	-7543
的速度	-7544
的道路	-7545
的重大	-7546
的预测	-7547
的预算	-7548
的首要	-7549
的黑人	-7550
相关性	-7551
短期内	-7552
研究和	-7553
研究者	-7554
程度的	-7555
立法者	-7556
站出来	-7557
竞争性	-7558
竞争者	-7559
第一位	-7560
管理和	-7561
管理的	-7562
约翰逊	-7563
经验的	-7564
统治下	-7565
维持在	-7566
维生素	-7567
综合性	-7568
老龄化	-7569
而感到	-7570
而易举	-7571
而欧洲	-7572
能够将	-7573
能源的	-7574
腐败的	-7575
自然而	-7576
自视为	-7577
臭名昭	-7578
致命的	-7579
舞台上	-7580
英格兰	-7581
莫过于	-7582
萨诸塞	-7583
蒙代尔	-7584
行不通	-7585
行业的	-7586
被取消	-7587
要么是	-7588
詹姆斯	-7589
计划中	-7590
让它们	-7591
讲述了	-7592
说服力	-7593
资金来	-7594
资金的	-7595
转型的	-7596
辅之以	-7597
达尔富	-7598
达成的	-7599
过渡期	-7600
还不到	-7601
远高于	-7602
选举的	-7603
都应该	-7604
都拥有	-7605
降低到	-7606
限度的	-7607
青年的	-7608
非正规	-7609
非洲和	-7610
非银行	-7611
预计到	-7612
领导层	-7613
食品和	-7614
饥饿和	-7615
马歇尔	-7616
鼓励了	-7617
1930	-7618
1987	-7619
1992	-7620
1995	-7621
3000	-7622
High	-7623
SCID	-7624
ight	-7625
ound	-7626
rans	-7627
reat	-7628
▁For	-7629
▁IMF	-7630
▁Pol	-7631
▁Sum	-7632
▁不久前	-7633
▁也就是	-7634
▁也许是	-7635
▁今年的	-7636
▁他认为	-7637
▁但由于	-7638
▁即使在	-7639
▁叙利亚	-7640
▁因此我	-7641
▁在一个	-7642
▁在中国	-7643
▁在未来	-7644
▁对美国	-7645
▁对非洲	-7646
▁尤其是	-7647
▁意味着	-7648
▁我们在	-7649
▁我们的	-7650
▁最新的	-7651
▁爱尔兰	-7652
▁第二个	-7653
▁而如今	-7654
▁艾滋病	-7655
▁许多人	-7656
▁该计划	-7657
▁这不是	-7658
▁这也是	-7659
▁这或许	-7660
▁非洲人	-7661
一个国家	-7662
一点都不	-7663
一直以来	-7664
三分之二	-7665
不可接受	-7666
世界各国	-7667
世界贸易	-7668
世贸组织	-7669
丝绸之路	-7670
严重程度	-7671
个国家的	-7672
中国经济	-7673
为基础的	-7674
主要来源	-7675
也采取了	-7676
了一系列	-7677
人类活动	-7678
仍然可以	-7679
他们就会	-7680
他们需要	-7681
以及如何	-7682
伊拉克和	-7683
保持稳定	-7684
信用供给	-7685
做些什么	-7686
做好准备	-7687
全球治理	-7688
全面禁止	-7689
公共政策	-7690
关键作用	-7691
决定因素	-7692
决策机构	-7693
减少贫困	-7694
创造新的	-7695
创造更多	-7696
利用这一	-7697
别无选择	-7698
制药公司	-7699
医疗支出	-7700
十分困难	-7701
华建国际	-7702
南极条约	-7703
南极海洋	-7704
卫生体系	-7705
卫生项目	-7706
危机中的	-7707
卷土重来	-7708
压力测试	-7709
双边关系	-7710
发生变化	-7711
只不过是	-7712
只有一个	-7713
合作关系	-7714
合法性的	-7715
和乌干达	-7716
和伊斯兰	-7717
和决策者	-7718
和卢旺达	-7719
商业模式	-7720
四分之三	-7721
国家利益	-7722
国家统计	-7723
国防部长	-7724
国际发展	-7725
国际机构	-7726
圣战主义	-7727
在俄罗斯	-7728
在此期间	-7729
地方政府	-7730
基地组织	-7731
多样化的	-7732
多边主义	-7733
大幅下降	-7734
学术期刊	-7735
它们可以	-7736
官僚主义	-7737
实现目标	-7738
实现超导	-7739
实质性的	-7740
对俄罗斯	-7741
对外政策	-7742
将有助于	-7743
将注意力	-7744
将进一步	-7745
少数几个	-7746
少数民族	-7747
尤其如此	-7748
就有可能	-7749
尽可能地	-7750
工业化的	-7751
布什总统	-7752
平均而言	-7753
年代以来	-7754
年青一代	-7755
并不一定	-7756
开始实施	-7757
弗里德曼	-7758
当地地主	-7759
当选总统	-7760
德克拉克	-7761
德国总理	-7762
必须得到	-7763
总统大选	-7764
慈善机构	-7765
我们不能	-7766
我们已经	-7767
我们认为	-7768
我的朋友	-7769
所产生的	-7770
所导致的	-7771
所有主要	-7772
拯救地球	-7773
按揭贷款	-7774
捐助国的	-7775
推动非洲	-7776
提供更多	-7777
摇摇欲坠	-7778
改善数据	-7779
改革者们	-7780
政府债券	-7781
政府债务	-7782
政府已经	-7783
数十年的	-7784
整个国家	-7785
无所作为	-7786
无烟工业	-7787
早些时候	-7788
是不够的	-7789
是全世界	-7790
是正确的	-7791
暴力活动	-7792
更加严重	-7793
更加糟糕	-7794
更加紧密	-7795
更加难以	-7796
更多的钱	-7797
替代方案	-7798
最严重的	-7799
最主要的	-7800
有充分的	-7801
有利可图	-7802
来自非洲	-7803
构成威胁	-7804
根本性的	-7805
根本没有	-7806
欧元债券	-7807
欧盟轮值	-7808
正在努力	-7809
此外还有	-7810
气候问题	-7811
水底拖网	-7812
没有一个	-7813
流离失所	-7814
温和认知	-7815
火上浇油	-7816
现代经济	-7817
现实主义	-7818
理工学院	-7819
生机勃勃	-7820
的世界中	-7821
的前提下	-7822
的原因是	-7823
的受访者	-7824
的国家和	-7825
的大多数	-7826
的方式来	-7827
的目标是	-7828
的经济和	-7829
的背景下	-7830
的领导下	-7831
的领导者	-7832
盈余储蓄	-7833
相互依存	-7834
石油价格	-7835
矿物燃料	-7836
研究中心	-7837
禁毒战争	-7838
科研机构	-7839
结构改革	-7840
绝非易事	-7841
继续下去	-7842
维持生计	-7843
网络空间	-7844
美国政治	-7845
能源效率	-7846
自力更生	-7847
自由化的	-7848
航空公司	-7849
英国退欧	-7850
营养不良	-7851
行动计划	-7852
表示支持	-7853
西方女权	-7854
视而不见	-7855
调查显示	-7856
负责任的	-7857
财富基金	-7858
贫困人口	-7859
赤字支出	-7860
轻而易举	-7861
还是一个	-7862
还有助于	-7863
还有很多	-7864
这一承诺	-7865
这一结果	-7866
这些措施	-7867
这些政策	-7868
这块大陆	-7869
这样才能	-7870
这样的人	-7871
进行合作	-7872
都有可能	-7873
重中之重	-7874
量化宽松	-7875
金融系统	-7876
铜氧化物	-7877
银行服务	-7878
长期增长	-7879
问题上的	-7880
需要一个	-7881
非洲经济	-7882
预期寿命	-7883
高质量的	-7884
,2000	-7885
,2008	-7886
,2010	-7887
2,000	-7888
5,000	-7889
Peter	-7890
ative	-7891
—2014	-7892
▁2002	-7893
▁2003	-7894
▁2010	-7895
▁2016	-7896
▁Cent	-7897
▁他们必须	-7898
▁但是这一	-7899
▁全球经济	-7900
▁其结果是	-7901
▁几十年来	-7902
▁国际社会	-7903
▁在乌干达	-7904
▁坎布里奇	-7905
▁如果我们	-7906
▁它们可以	-7907
▁尽管美国	-7908
▁我们知道	-7909
▁普林斯顿	-7910
▁更不用说	-7911
▁目前为止	-7912
▁简而言之	-7913
▁美国剑桥	-7914
▁这一计划	-7915
不同寻常的	-7916
中国领导人	-7917
京都议定书	-7918
从一开始就	-7919
企业家精神	-7920
伊朗核协议	-7921
内布拉斯加	-7922
决策者应该	-7923
切尔克索夫	-7924
利益相关方	-7925
原教旨主义	-7926
可持续性的	-7927
和尼日利亚	-7928
和私人部门	-7929
喀拉拉邦的	-7930
国民收入的	-7931
大西洋两岸	-7932
大部分国家	-7933
实施必要的	-7934
已经认识到	-7935
已经超过了	-7936
巴勒斯坦人	-7937
巴勒斯坦国	-7938
布雷顿森林	-7939
意味着什么	-7940
我们所有人	-7941
我们有的是	-7942
房地产泡沫	-7943
提出了一个	-7944
提高增值税	-7945
数十亿美元	-7946
日益严重的	-7947
最贫困国家	-7948
最重要的是	-7949
欧元区国家	-7950
毫无疑问是	-7951
消灭艾滋病	-7952
特朗普总统	-7953
的人口红利	-7954
的关键要素	-7955
的发达国家	-7956
的研究表明	-7957
的经济复苏	-7958
的经济表现	-7959
监督委员会	-7960
真正的问题	-7961
社会安全网	-7962
经济学入门	-7963
经济学家的	-7964
美国和欧洲	-7965
联合国千年	-7966
解释为什么	-7967
贸易自由化	-7968
近几十年来	-7969
部分是因为	-7970
阿巴斯王朝	-7971
非洲国家在	-7972
非洲的科学	-7973
马歇尔计划	-7974
50,000	-7975
Global	-7976
ission	-7977
▁发展中国家	-7978
▁在许多国家	-7979
▁最重要的是	-7980
▁约翰内斯堡	-7981
二氧化碳排放	-7982
其他发达国家	-7983
北美自由贸易	-7984
吞并克里米亚	-7985
在一定程度上	-7986
在发展中国家	-7987
埃塞俄比亚和	-7988
官方发展援助	-7989
小额信贷机构	-7990
工业发展组织	-7991
所面临的问题	-7992
欧盟轮值主席	-7993
温和认知损伤	-7994
美国外交政策	-7995
英国石油公司	-7996
越来越多的人	-7997
麻省理工学院	-7998
黎巴嫩真主党	-7999
▁Africa	-8000
▁从某种程度上	-8001
俄罗斯总统普京	-8002
双性恋和变性人	-8003
在阿尔茨海默症	-8004
针对妇女的暴力	-8005
▁但这并不意味着	-8006
北美自由贸易协定	-8007
南极海洋生物资源	-8008
▁Economic	-8009
▁国际货币基金组织	-8010
,4	-8011
,6	-8012
05	-8013
33	-8014
4,	-8015
41	-8016
47	-8017
73	-8018
AC	-8019
Ab	-8020
BM	-8021
EA	-8022
ES	-8023
Ne	-8024
Pr	-8025
TV	-8026
ap	-8027
ha	-8028
id	-8029
ik	-8030
ne	-8031
ph	-8032
qu	-8033
ub	-8034
▁?	-8035
▁V	-8036
▁b	-8037
▁·	-8038
▁亚	-8039
▁同	-8040
▁拜	-8041
▁既	-8042
▁照	-8043
▁胡	-8044
▁莫	-8045
▁西	-8046
▁谁	-8047
▁重	-8048
▁雅	-8049
一书	-8050
一国	-8051
一批	-8052
一群	-8053
一面	-8054
万个	-8055
三十	-8056
三项	-8057
上来	-8058
上签	-8059
上都	-8060
上风	-8061
下令	-8062
下半	-8063
不公	-8064
不合	-8065
不开	-8066
不快	-8067
不懈	-8068
不放	-8069
不讳	-8070
与之	-8071
与会	-8072
专政	-8073
世的	-8074
两党	-8075
两点	-8076
两院	-8077
丧命	-8078
中对	-8079
中海	-8080
中被	-8081
丹麦	-8082
为人	-8083
为奇	-8084
为政	-8085
为数	-8086
丽贝	-8087
举例	-8088
之久	-8089
之内	-8090
之力	-8091
之年	-8092
之旅	-8093
乘客	-8094
也对	-8095
也纳	-8096
书籍	-8097
事项	-8098
互惠	-8099
五个	-8100
五十	-8101
五裂	-8102
亚于	-8103
交战	-8104
产值	-8105
产物	-8106
亲美	-8107
人人	-8108
人是	-8109
亿万	-8110
介入	-8111
仍将	-8112
付款	-8113
令其	-8114
价还	-8115
伐克	-8116
会令	-8117
伤亡	-8118
伦理	-8119
伪善	-8120
但与	-8121
位列	-8122
低廉	-8123
体重	-8124
作俑	-8125
侵害	-8126
俄勒	-8127
保罗	-8128
倒退	-8129
偏向	-8130
做了	-8131
停顿	-8132
储存	-8133
储量	-8134
傲慢	-8135
像我	-8136
像是	-8137
僵化	-8138
充当	-8139
先是	-8140
光靠	-8141
克森	-8142
免受	-8143
免遭	-8144
全局	-8145
全方	-8146
公债	-8147
公决	-8148
公布	-8149
公德	-8150
兰卡	-8151
共存	-8152
关押	-8153
兴旺	-8154
其余	-8155
其道	-8156
养护	-8157
内向	-8158
内在	-8159
内政	-8160
冈州	-8161
再也	-8162
再到	-8163
农户	-8164
农神	-8165
冬天	-8166
冰层	-8167
冲动	-8168
准入	-8169
几名	-8170
几百	-8171
凭借	-8172
出手	-8173
分娩	-8174
列第	-8175
创立	-8176
初期	-8177
判定	-8178
利于	-8179
利华	-8180
利尔	-8181
利斯	-8182
利比	-8183
到处	-8184
制作	-8185
功于	-8186
加德	-8187
务实	-8188
动物	-8189
动的	-8190
助澜	-8191
区间	-8192
医师	-8193
升至	-8194
半数	-8195
协商	-8196
卓识	-8197
单独	-8198
卡兹	-8199
卡诺	-8200
卡车	-8201
印钞	-8202
压缩	-8203
原料	-8204
去了	-8205
友邦	-8206
反之	-8207
反腐	-8208
反驳	-8209
发言	-8210
取缔	-8211
受其	-8212
变局	-8213
变量	-8214
古老	-8215
可用	-8216
叶刀	-8217
各项	-8218
合伙	-8219
合并	-8220
合资	-8221
同住	-8222
同行	-8223
名人	-8224
向其	-8225
呼声	-8226
命令	-8227
和他	-8228
和低	-8229
和我	-8230
和水	-8231
和祖	-8232
和阿	-8233
咎于	-8234
咖啡	-8235
哈里	-8236
唯恐	-8237
商务	-8238
善意	-8239
噩梦	-8240
囚禁	-8241
四倍	-8242
四分	-8243
四岛	-8244
回头	-8245
回忆	-8246
回馈	-8247
固有	-8248
固然	-8249
图书	-8250
在他	-8251
地向	-8252
垮台	-8253
堪称	-8254
塔鲁	-8255
增添	-8256
声誉	-8257
外汇	-8258
外逃	-8259
多久	-8260
多位	-8261
多名	-8262
多哈	-8263
多国	-8264
大事	-8265
大体	-8266
大加	-8267
大厦	-8268
大受	-8269
大坝	-8270
大家	-8271
大局	-8272
大楼	-8273
大概	-8274
大臣	-8275
天堂	-8276
天赋	-8277
太久	-8278
夫兰	-8279
失效	-8280
夸张	-8281
奉行	-8282
奏效	-8283
奥尔	-8284
好转	-8285
妄想	-8286
始终	-8287
嫌疑	-8288
子的	-8289
字面	-8290
孤独	-8291
学派	-8292
学费	-8293
安抚	-8294
宏伟	-8295
实意	-8296
客机	-8297
宣扬	-8298
宪章	-8299
家中	-8300
宿命	-8301
富于	-8302
对她	-8303
对我	-8304
对美	-8305
寻常	-8306
将向	-8307
将达	-8308
小平	-8309
尔和	-8310
尖锐	-8311
尘暴	-8312
就任	-8313
就越	-8314
就连	-8315
局限	-8316
屈辱	-8317
山的	-8318
岁及	-8319
巨资	-8320
帕台	-8321
带头	-8322
带领	-8323
常任	-8324
平庸	-8325
年和	-8326
年均	-8327
年就	-8328
年有	-8329
年纪	-8330
年被	-8331
并从	-8332
并把	-8333
并被	-8334
并让	-8335
广受	-8336
广场	-8337
广大	-8338
庄稼	-8339
庇护	-8340
店和	-8341
废止	-8342
度也	-8343
度和	-8344
开来	-8345
开设	-8346
异常	-8347
引用	-8348
当头	-8349
当属	-8350
当我	-8351
彰显	-8352
影子	-8353
影片	-8354
得一	-8355
得不	-8356
得益	-8357
徘徊	-8358
微型	-8359
微笑	-8360
快要	-8361
态势	-8362
总共	-8363
总结	-8364
总能	-8365
恋情	-8366
恐怕	-8367
恰好	-8368
恶性	-8369
恶意	-8370
想像	-8371
想让	-8372
想起	-8373
愈演	-8374
愈烈	-8375
感受	-8376
戈登	-8377
成因	-8378
成熟	-8379
成百	-8380
我所	-8381
战场	-8382
战火	-8383
截止	-8384
截然	-8385
所处	-8386
所提	-8387
所欲	-8388
手让	-8389
托尼	-8390
扫描	-8391
找出	-8392
技巧	-8393
投向	-8394
抗击	-8395
折磨	-8396
护士	-8397
护照	-8398
报酬	-8399
抵挡	-8400
担当	-8401
拉夫	-8402
拉机	-8403
拉维	-8404
拉马	-8405
拜登	-8406
挖掘	-8407
挤压	-8408
挫败	-8409
捉摸	-8410
捕鱼	-8411
换取	-8412
掠夺	-8413
掣肘	-8414
接管	-8415
推崇	-8416
推波	-8417
推荐	-8418
提交	-8419
提前	-8420
握有	-8421
援引	-8422
摇摆	-8423
摇身	-8424
撒冷	-8425
支配	-8426
收到	-8427
收拾	-8428
收获	-8429
放任	-8430
放心	-8431
敌方	-8432
教条	-8433
散的	-8434
整套	-8435
文字	-8436
断然	-8437
斯洛	-8438
新娘	-8439
新生	-8440
方便	-8441
无可	-8442
无神	-8443
既有	-8444
既非	-8445
早在	-8446
时所	-8447
明了	-8448
明博	-8449
明星	-8450
易斯	-8451
昔日	-8452
是与	-8453
是件	-8454
是谁	-8455
显现	-8456
智力	-8457
暴乱	-8458
曾几	-8459
曾是	-8460
最多	-8461
月和	-8462
有序	-8463
有志	-8464
有意	-8465
有望	-8466
有过	-8467
期限	-8468
木材	-8469
未经	-8470
本周	-8471
本来	-8472
本次	-8473
机关	-8474
枢纽	-8475
架构	-8476
标签	-8477
根于	-8478
格斯	-8479
梦幻	-8480
模仿	-8481
次要	-8482
次贷	-8483
欺骗	-8484
此时	-8485
步履	-8486
残忍	-8487
残暴	-8488
母国	-8489
每位	-8490
比前	-8491
比让	-8492
毛泽	-8493
水利	-8494
沃伦	-8495
沃斯	-8496
沉迷	-8497
治下	-8498
治国	-8499
沼气	-8500
泛滥	-8501
洲的	-8502
活着	-8503
派系	-8504
派遣	-8505
济于	-8506
浪漫	-8507
浮现	-8508
消耗	-8509
消退	-8510
涌入	-8511
渐进	-8512
渗透	-8513
满意	-8514
漫长	-8515
激动	-8516
火箭	-8517
灾害	-8518
点是	-8519
点燃	-8520
烟草	-8521
热浪	-8522
热点	-8523
熟悉	-8524
熟知	-8525
爱好	-8526
版本	-8527
牵涉	-8528
特兰	-8529
特和	-8530
特权	-8531
特种	-8532
特里	-8533
犯下	-8534
狂躁	-8535
独家	-8536
独自	-8537
狼藉	-8538
现成	-8539
玷污	-8540
珍视	-8541
理性	-8542
理所	-8543
瓦的	-8544
瓶颈	-8545
生意	-8546
生死	-8547
用词	-8548
申请	-8549
男孩	-8550
疯狂	-8551
痕迹	-8552
百姓	-8553
的二	-8554
的对	-8555
的山	-8556
的良	-8557
的虚	-8558
的访	-8559
的长	-8560
的零	-8561
的频	-8562
益处	-8563
盛行	-8564
直言	-8565
看出	-8566
看见	-8567
看重	-8568
真是	-8569
着手	-8570
着重	-8571
知名	-8572
研讨	-8573
磁体	-8574
示范	-8575
神经	-8576
福田	-8577
移交	-8578
穆勒	-8579
穷的	-8580
空白	-8581
空袭	-8582
筹资	-8583
类别	-8584
类型	-8585
素质	-8586
约为	-8587
纵向	-8588
纺织	-8589
线的	-8590
终身	-8591
绑架	-8592
结底	-8593
给人	-8594
绩效	-8595
维和	-8596
维艰	-8597
缘依	-8598
罪名	-8599
罪行	-8600
美方	-8601
翻番	-8602
老师	-8603
考量	-8604
耶伦	-8605
耶路	-8606
聪明	-8607
背负	-8608
胜出	-8609
胡锦	-8610
能对	-8611
脱钩	-8612
自相	-8613
航班	-8614
苛刻	-8615
英才	-8616
英里	-8617
莫迪	-8618
获准	-8619
萨斯	-8620
萨科	-8621
蒙受	-8622
蔬菜	-8623
蜡烛	-8624
被占	-8625
装置	-8626
西部	-8627
要对	-8628
覆辙	-8629
见到	-8630
见证	-8631
规管	-8632
视角	-8633
言辞	-8634
警官	-8635
警方	-8636
训诫	-8637
论文	-8638
论点	-8639
论证	-8640
论调	-8641
设在	-8642
证券	-8643
评价	-8644
评判	-8645
该市	-8646
误导	-8647
说辞	-8648
诺华	-8649
调动	-8650
谎言	-8651
货物	-8652
贩毒	-8653
贫乏	-8654
贫民	-8655
赖以	-8656
赞赏	-8657
赤裸	-8658
走私	-8659
赶超	-8660
跨境	-8661
路上	-8662
路德	-8663
身处	-8664
转换	-8665
较为	-8666
较之	-8667
较少	-8668
输送	-8669
辛格	-8670
边际	-8671
迁徙	-8672
迁移	-8673
过多	-8674
过往	-8675
运气	-8676
这三	-8677
这与	-8678
这份	-8679
这家	-8680
这就	-8681
这座	-8682
这让	-8683
远未	-8684
远比	-8685
违约	-8686
迟缓	-8687
迪尔	-8688
逃离	-8689
逃税	-8690
逍遥	-8691
通向	-8692
造就	-8693
遍布	-8694
遗漏	-8695
邮件	-8696
邻的	-8697
部族	-8698
部的	-8699
都被	-8700
酒吧	-8701
里斯	-8702
里的	-8703
里程	-8704
里约	-8705
重创	-8706
重负	-8707
重蹈	-8708
量子	-8709
金斯	-8710
铁幕	-8711
销毁	-8712
长大	-8713
队的	-8714
防治	-8715
防火	-8716
阴谋	-8717
阻挡	-8718
阿布	-8719
随处	-8720
雇主	-8721
雕像	-8722
雨季	-8723
雷斯	-8724
青少	-8725
靠近	-8726
面积	-8727
顺从	-8728
顺序	-8729
顾虑	-8730
颁布	-8731
预先	-8732
颇为	-8733
马丁	-8734
马塔	-8735
驱使	-8736
驱赶	-8737
高克	-8738
高涨	-8739
高调	-8740
麻痹	-8741
黑塞	-8742
鼓动	-8743
(3,	-8744
...	-8745
140	-8746
19.	-8747
193	-8748
2.1	-8749
75%	-8750
Abd	-8751
And	-8752
Far	-8753
HIV	-8754
act	-8755
air	-8756
ald	-8757
ani	-8758
ank	-8759
eng	-8760
erv	-8761
eth	-8762
ice	-8763
ics	-8764
men	-8765
olf	-8766
ord	-8767
ort	-8768
our	-8769
ppm	-8770
ray	-8771
son	-8772
ull	-8773
ult	-8774
und	-8775
ure	-8776
ute	-8777
—20	-8778
▁12	-8779
▁Al	-8780
▁Bh	-8781
▁He	-8782
▁Mc	-8783
▁Sh	-8784
▁Th	-8785
▁to	-8786
▁一项	-8787
▁不断	-8788
▁不论	-8789
▁东京	-8790
▁主要	-8791
▁也是	-8792
▁也有	-8793
▁仅仅	-8794
▁从而	-8795
▁企业	-8796
▁但对	-8797
▁但当	-8798
▁但要	-8799
▁保持	-8800
▁具有	-8801
▁利用	-8802
▁加强	-8803
▁北约	-8804
▁即将	-8805
▁原因	-8806
▁只是	-8807
▁在其	-8808
▁地球	-8809
▁大概	-8810
▁失业	-8811
▁就算	-8812
▁市场	-8813
▁希腊	-8814
▁应对	-8815
▁当今	-8816
▁总之	-8817
▁悲哀	-8818
▁截止	-8819
▁截至	-8820
▁扩大	-8821
▁按照	-8822
▁提供	-8823
▁支持	-8824
▁放眼	-8825
▁数字	-8826
▁最新	-8827
▁正因	-8828
▁此次	-8829
▁然后	-8830
▁瑞典	-8831
▁私人	-8832
▁移民	-8833
▁第四	-8834
▁简单	-8835
▁美中	-8836
▁联合	-8837
▁联邦	-8838
▁至于	-8839
▁谈判	-8840
▁贸易	-8841
▁超过	-8842
▁这对	-8843
▁银行	-8844
▁长期	-8845
▁随后	-8846
▁颇具	-8847
一个新	-8848
一些最	-8849
一定的	-8850
一无二	-8851
一根筋	-8852
一百万	-8853
下一次	-8854
下降至	-8855
不从心	-8856
不公平	-8857
不具备	-8858
不加入	-8859
不尊重	-8860
不足的	-8861
与伊朗	-8862
与其说	-8863
与我们	-8864
与西方	-8865
东西方	-8866
中找到	-8867
临界点	-8868
为全球	-8869
主宰力	-8870
丽贝卡	-8871
举办了	-8872
之上的	-8873
之又少	-8874
也不要	-8875
也十分	-8876
也应当	-8877
也能够	-8878
也要求	-8879
也非常	-8880
习惯于	-8881
习惯法	-8882
了位于	-8883
了关于	-8884
了我们	-8885
五年前	-8886
交易所	-8887
人已经	-8888
人权和	-8889
人都能	-8890
亿人口	-8891
仍可能	-8892
仍然有	-8893
从美国	-8894
他们有	-8895
付出了	-8896
代表了	-8897
以及与	-8898
以帮助	-8899
以支持	-8900
价值和	-8901
价还价	-8902
任命为	-8903
企业将	-8904
伙伴国	-8905
会影响	-8906
会议员	-8907
传统的	-8908
但仍然	-8909
但他的	-8910
但是在	-8911
低估了	-8912
低增长	-8913
作俑者	-8914
作出了	-8915
使用者	-8916
供水和	-8917
促成了	-8918
保持在	-8919
值一提	-8920
做什么	-8921
停滞和	-8922
全方位	-8923
全欧洲	-8924
全面的	-8925
公元前	-8926
公务员	-8927
其主要	-8928
其地区	-8929
典型的	-8930
内贸易	-8931
军政府	-8932
农神庙	-8933
准确率	-8934
凝聚力	-8935
几乎是	-8936
出生率	-8937
创始人	-8938
利率的	-8939
制度和	-8940
制约着	-8941
刺激了	-8942
副作用	-8943
加利福	-8944
加强对	-8945
动荡的	-8946
努力的	-8947
劳动者	-8948
势力的	-8949
包容性	-8950
北朝鲜	-8951
医学院	-8952
十二月	-8953
十亿人	-8954
协议将	-8955
南非的	-8956
卜杜拉	-8957
占全球	-8958
占领了	-8959
卡加梅	-8960
卡塔尔	-8961
卡诺泽	-8962
卫生部	-8963
印度人	-8964
危机中	-8965
却依然	-8966
压倒性	-8967
原来的	-8968
厢情愿	-8969
参与的	-8970
又开始	-8971
发布的	-8972
发电厂	-8973
发表了	-8974
发起了	-8975
发起的	-8976
同时还	-8977
后两者	-8978
向外界	-8979
听证会	-8980
和专业	-8981
和他的	-8982
和传统	-8983
和住房	-8984
和农村	-8985
和多边	-8986
和执行	-8987
和政策	-8988
和气候	-8989
和维持	-8990
和解决	-8991
和财政	-8992
和货币	-8993
和食品	-8994
哲学家	-8995
商业化	-8996
回报的	-8997
国家中	-8998
国家以	-8999
国界的	-9000
国际法	-9001
在于它	-9002
在传统	-9003
在公共	-9004
在其他	-9005
在某个	-9006
在现实	-9007
地参与	-9008
地强调	-9009
地方的	-9010
型增长	-9011
埃克森	-9012
基本的	-9013
塔鲁洛	-9014
增加对	-9015
处不在	-9016
外交和	-9017
夜之间	-9018
大债券	-9019
大气层	-9020
大约在	-9021
大衰退	-9022
太阳光	-9023
奖得主	-9024
如果要	-9025
如此类	-9026
妨碍了	-9027
孟山都	-9028
学校和	-9029
它拥有	-9030
完整的	-9031
实力源	-9032
实现的	-9033
密特朗	-9034
对他们	-9035
对伊朗	-9036
对大学	-9037
对手的	-9038
对政治	-9039
对某些	-9040
封闭的	-9041
将决定	-9042
将变得	-9043
将因此	-9044
将增长	-9045
将带来	-9046
将能够	-9047
将被迫	-9048
将超过	-9049
将达到	-9050
小农场	-9051
小目标	-9052
少数几	-9053
就不能	-9054
就已经	-9055
尼雷尔	-9056
尽一切	-9057
尽管有	-9058
局限于	-9059
峰会的	-9060
崩溃的	-9061
崭新的	-9062
已久的	-9063
已经为	-9064
市场和	-9065
帝国的	-9066
帮助下	-9067
常常是	-9068
常常被	-9069
年之前	-9070
年之后	-9071
年以后	-9072
年危机	-9073
年实现	-9074
年时间	-9075
年间的	-9076
并不像	-9077
并且把	-9078
并非是	-9079
应该为	-9080
应该被	-9081
廉价的	-9082
建立起	-9083
建筑业	-9084
开启了	-9085
开始时	-9086
引入了	-9087
强加给	-9088
强硬的	-9089
归功于	-9090
归咎于	-9091
影响了	-9092
往往是	-9093
必需品	-9094
必须为	-9095
必须加	-9096
必须对	-9097
必须将	-9098
忽略了	-9099
忽视了	-9100
怎么做	-9101
思想的	-9102
性力量	-9103
性因素	-9104
总书记	-9105
恢复到	-9106
恶化的	-9107
情形下	-9108
想起了	-9109
意义上	-9110
意思是	-9111
感觉到	-9112
慷慨的	-9113
成为新	-9114
成立于	-9115
我们对	-9116
我所在	-9117
所取代	-9118
所在地	-9119
所要求	-9120
手可得	-9121
手段来	-9122
找到了	-9123
承受着	-9124
承担起	-9125
技术上	-9126
把我们	-9127
把自己	-9128
把这一	-9129
抱怨说	-9130
拉姆斯	-9131
拖拉机	-9132
拱手让	-9133
拿不出	-9134
捐助国	-9135
接下来	-9136
接受过	-9137
控制权	-9138
控制的	-9139
推动力	-9140
援助流	-9141
援助的	-9142
摇身一	-9143
支持了	-9144
放在了	-9145
政府所	-9146
政府都	-9147
效率的	-9148
数十万	-9149
文明的	-9150
新古典	-9151
新方法	-9152
新移民	-9153
无条件	-9154
无法让	-9155
无辜的	-9156
日本与	-9157
日本在	-9158
明智的	-9159
是对的	-9160
显示了	-9161
更廉价	-9162
更透明	-9163
最优秀	-9164
最低的	-9165
最后的	-9166
最多的	-9167
有一些	-9168
有任何	-9169
有机会	-9170
有的是	-9171
未计入	-9172
本可以	-9173
本国的	-9174
机制的	-9175
机器人	-9176
李明博	-9177
条件下	-9178
来源国	-9179
来看待	-9180
来进行	-9181
柏林墙	-9182
柳叶刀	-9183
栖息地	-9184
核扩散	-9185
核试验	-9186
格里尼	-9187
格里斯	-9188
梅德韦	-9189
植根于	-9190
正义的	-9191
正在朝	-9192
正逐渐	-9193
正面临	-9194
死亡和	-9195
残酷的	-9196
每一次	-9197
每年的	-9198
比我们	-9199
毛泽东	-9200
民众的	-9201
没有哪	-9202
治疗和	-9203
法郎区	-9204
活动家	-9205
流向了	-9206
消费品	-9207
消费的	-9208
满足其	-9209
潜力的	-9210
煤电厂	-9211
爆发的	-9212
物理学	-9213
特征是	-9214
现在就	-9215
现在正	-9216
现实的	-9217
理论家	-9218
甚至连	-9219
生产性	-9220
生活的	-9221
电子对	-9222
男性的	-9223
留下了	-9224
疾病的	-9225
疾病而	-9226
百万计	-9227
的一篇	-9228
的专家	-9229
的两党	-9230
的义务	-9231
的事件	-9232
的交易	-9233
的人士	-9234
的人马	-9235
的优势	-9236
的伙伴	-9237
的信念	-9238
的则是	-9239
的利率	-9240
的前景	-9241
的劳动	-9242
的印度	-9243
的双重	-9244
的可靠	-9245
的大型	-9246
的大陆	-9247
的安全	-9248
的巨额	-9249
的平台	-9250
的平均	-9251
的建设	-9252
的强力	-9253
的形式	-9254
的性质	-9255
的意愿	-9256
的批判	-9257
的收入	-9258
的政党	-9259
的新兴	-9260
的新的	-9261
的暴行	-9262
的最低	-9263
的朋友	-9264
的森林	-9265
的欧盟	-9266
的比率	-9267
的潜力	-9268
的理念	-9269
的疫苗	-9270
的监管	-9271
的真相	-9272
的知识	-9273
的紧急	-9274
的约束	-9275
的统治	-9276
的罪行	-9277
的考验	-9278
的自由	-9279
的西方	-9280
的记录	-9281
的证据	-9282
的话说	-9283
的诱惑	-9284
的跨国	-9285
的迹象	-9286
的那个	-9287
的革命	-9288
相应的	-9289
看不到	-9290
知识和	-9291
石油和	-9292
破坏了	-9293
确保了	-9294
社会中	-9295
社会和	-9296
离不开	-9297
秘书处	-9298
称得上	-9299
穆加贝	-9300
穷人的	-9301
竞选中	-9302
第三国	-9303
等主要	-9304
等教育	-9305
签署了	-9306
纪律和	-9307
经常会	-9308
经理人	-9309
经营者	-9310
经验和	-9311
结束时	-9312
给世界	-9313
给人们	-9314
给出了	-9315
维也纳	-9316
缅甸的	-9317
缺乏对	-9318
缺陷的	-9319
罗纳德	-9320
群体的	-9321
而不能	-9322
而如今	-9323
而导致	-9324
而言是	-9325
而非洲	-9326
联邦制	-9327
聪明的	-9328
胡锦涛	-9329
能产生	-9330
能力和	-9331
能够从	-9332
能够以	-9333
能够让	-9334
脆弱性	-9335
至今仍	-9336
至少要	-9337
英国和	-9338
落后于	-9339
表现的	-9340
覆盖面	-9341
规则的	-9342
解决的	-9343
解放日	-9344
计划和	-9345
计划在	-9346
认为是	-9347
让妇女	-9348
让那些	-9349
试图让	-9350
该国的	-9351
该组织	-9352
该项目	-9353
财富和	-9354
财政上	-9355
责任和	-9356
责任的	-9357
贫穷的	-9358
起作用	-9359
起来的	-9360
跨政府	-9361
转变为	-9362
软实力	-9363
软技能	-9364
达不到	-9365
达沃斯	-9366
过任何	-9367
过去了	-9368
还存在	-9369
这两者	-9370
这个词	-9371
这么做	-9372
这也是	-9373
这使得	-9374
这可能	-9375
进程的	-9376
追随者	-9377
退休金	-9378
选举后	-9379
通过将	-9380
邓小平	-9381
那一天	-9382
那么它	-9383
那些在	-9384
那里的	-9385
都不会	-9386
都已经	-9387
都表明	-9388
释放出	-9389
里兰卡	-9390
金融业	-9391
锋相对	-9392
问题时	-9393
限制在	-9394
随后的	-9395
需求的	-9396
需要与	-9397
青年人	-9398
音乐会	-9399
领域是	-9400
风险的	-9401
马里兰	-9402
高失业	-9403
100%	-9404
1000	-9405
1950	-9406
1968	-9407
1977	-9408
1993	-9409
2019	-9410
able	-9411
alth	-9412
arry	-9413
avid	-9414
hang	-9415
ject	-9416
stit	-9417
view	-9418
▁...	-9419
▁Con	-9420
▁Med	-9421
▁New	-9422
▁Sec	-9423
▁一开始	-9424
▁今天的	-9425
▁从这个	-9426
▁但也有	-9427
▁但即使	-9428
▁但只有	-9429
▁但对于	-9430
▁但是这	-9431
▁但正如	-9432
▁但美国	-9433
▁全球化	-9434
▁内罗毕	-9435
▁十年前	-9436
▁在某些	-9437
▁在非洲	-9438
▁墨西哥	-9439
▁太阳能	-9440
▁如果说	-9441
▁当我们	-9442
▁我认为	-9443
▁或者说	-9444
▁拉各斯	-9445
▁换言之	-9446
▁据估计	-9447
▁科索沃	-9448
▁第一个	-9449
▁第三个	-9450
▁纽黑文	-9451
▁美国人	-9452
▁美国在	-9453
▁美国对	-9454
▁而如果	-9455
▁而欧洲	-9456
▁而这种	-9457
▁说到底	-9458
▁这一新	-9459
▁这一点	-9460
▁这使得	-9461
▁这表明	-9462
▁这需要	-9463
▁阿勒颇	-9464
▁陆克文	-9465
▁麦肯锡	-9466
▁默多克	-9467
一种新的	-9468
一项研究	-9469
上个月在	-9470
不仅在于	-9471
不可持续	-9472
不可替代	-9473
不复存在	-9474
不断提高	-9475
不是美国	-9476
不满情绪	-9477
不足为奇	-9478
与其说是	-9479
与美国的	-9480
世界中的	-9481
世界人口	-9482
严重挑战	-9483
严重缺乏	-9484
中国进口	-9485
中日关系	-9486
为所有人	-9487
也将继续	-9488
也是赢家	-9489
事实证明	-9490
二十年前	-9491
互相承认	-9492
亚投行的	-9493
交通运输	-9494
人口增长	-9495
亿万富翁	-9496
仍然十分	-9497
仍然存在	-9498
仍然非常	-9499
从而导致	-9500
从长期看	-9501
他们必须	-9502
他们自己	-9503
令人不安	-9504
令人担忧	-9505
以色列的	-9506
但它们的	-9507
但特朗普	-9508
低于成本	-9509
使用煤炭	-9510
俄勒冈州	-9511
俄罗斯和	-9512
信息技术	-9513
债务危机	-9514
债务水平	-9515
儿童权利	-9516
全力支持	-9517
全民公决	-9518
全球危机	-9519
全球市场	-9520
公共债务	-9521
公共利益	-9522
公共投资	-9523
公共服务	-9524
公共财政	-9525
公共部门	-9526
共同努力	-9527
关键时刻	-9528
其中许多	-9529
其它国家	-9530
其领导人	-9531
再也无法	-9532
军事实力	-9533
军事手段	-9534
决策者的	-9535
出口产品	-9536
出口导向	-9537
刚果民主	-9538
利比里亚	-9539
利润丰厚	-9540
制造业的	-9541
力不从心	-9542
加尔布雷	-9543
包括来自	-9544
北方四岛	-9545
医疗改革	-9546
印度经济	-9547
历史教训	-9548
参与进来	-9549
双边投资	-9550
反同性恋	-9551
发展日程	-9552
发展模式	-9553
发展计划	-9554
变得日益	-9555
只有通过	-9556
可以产生	-9557
可以理解	-9558
可以轻易	-9559
可能会在	-9560
可能带来	-9561
可能引发	-9562
可能造成	-9563
各不相同	-9564
各成员国	-9565
各自为政	-9566
合作解决	-9567
吸引更多	-9568
告诉我们	-9569
呼吁建立	-9570
和中国的	-9571
和习近平	-9572
和可持续	-9573
和平谈判	-9574
商品贸易	-9575
四分五裂	-9576
因为人们	-9577
因为这些	-9578
因此必须	-9579
国内需求	-9580
国家政府	-9581
国家来说	-9582
国际组织	-9583
在本世纪	-9584
在经济上	-9585
在这方面	-9586
地理工程	-9587
型制造业	-9588
城市居民	-9589
增长潜力	-9590
外交部长	-9591
外科手术	-9592
外部需求	-9593
多个国家	-9594
多边机构	-9595
失衡问题	-9596
奥巴马的	-9597
如果我们	-9598
如此的话	-9599
始作俑者	-9600
委员会的	-9601
孤立主义	-9602
官僚体系	-9603
实力平衡	-9604
实证主义	-9605
密切关注	-9606
对其进行	-9607
对非洲的	-9608
将在未来	-9609
少之又少	-9610
少数族裔	-9611
尤其是在	-9612
岁及以上	-9613
巨额资金	-9614
已经宣布	-9615
已经表示	-9616
布鲁克斯	-9617
帮助农民	-9618
年长选民	-9619
并不是说	-9620
并不足以	-9621
并不需要	-9622
并非如此	-9623
应对当前	-9624
应该包括	-9625
废水管理	-9626
建设性的	-9627
强烈反对	-9628
归根结底	-9629
当今美国	-9630
当地社区	-9631
很可能是	-9632
很重要的	-9633
很长时间	-9634
得以实现	-9635
得到解决	-9636
心理学家	-9637
必不可少	-9638
必须解决	-9639
快速变化	-9640
性别歧视	-9641
悲剧性的	-9642
愈演愈烈	-9643
感到十分	-9644
成为世界	-9645
成为现实	-9646
成百上千	-9647
我们应当	-9648
战争期间	-9649
战斗人员	-9650
所作所为	-9651
所取得的	-9652
所必须的	-9653
所提供的	-9654
所需资金	-9655
才能获得	-9656
才能解决	-9657
承担责任	-9658
技术正在	-9659
投资者的	-9660
捷克斯洛	-9661
推波助澜	-9662
提供援助	-9663
提供融资	-9664
提高利率	-9665
收入水平	-9666
改善医疗	-9667
政府首脑	-9668
政治上的	-9669
政治支持	-9670
政策利率	-9671
教育领域	-9672
数十年来	-9673
数学科学	-9674
新的全球	-9675
施加压力	-9676
无与伦比	-9677
无关紧要	-9678
无法通过	-9679
无论如何	-9680
日本公司	-9681
是错误的	-9682
显著低于	-9683
普通家庭	-9684
智能手机	-9685
暂时性的	-9686
更广泛的	-9687
更长时间	-9688
曾几何时	-9689
最佳实践	-9690
最后一个	-9691
有价值的	-9692
有所下降	-9693
有更多的	-9694
有朝一日	-9695
未来几年	-9696
本国货币	-9697
本身就是	-9698
极端份子	-9699
某些国家	-9700
某种形式	-9701
根本不会	-9702
欧元区内	-9703
欧洲应该	-9704
正在增加	-9705
正在崛起	-9706
正在进行	-9707
正好相反	-9708
正统思想	-9709
每一个人	-9710
每个国家	-9711
比较优势	-9712
毕业典礼	-9713
民主联盟	-9714
没人知道	-9715
没有必要	-9716
注意的是	-9717
溢出效应	-9718
激励机制	-9719
激进失败	-9720
爆炸事件	-9721
父辈和祖	-9722
特别是对	-9723
特别是当	-9724
特种部队	-9725
独一无二	-9726
环境破坏	-9727
现在开始	-9728
甚至可以	-9729
生产企业	-9730
生活质量	-9731
痴呆症状	-9732
的代名词	-9733
的反对者	-9734
的受害者	-9735
的失业率	-9736
的政治家	-9737
的新时代	-9738
的是一个	-9739
的最重要	-9740
的海平面	-9741
的问题上	-9742
目前正在	-9743
相对较小	-9744
真心实意	-9745
知识产权	-9746
知识分子	-9747
石油产业	-9748
研发支出	-9749
社会主义	-9750
社会契约	-9751
科夫斯基	-9752
科索沃的	-9753
秘密警察	-9754
移民政策	-9755
移民汇款	-9756
立法人员	-9757
经济中的	-9758
经济体系	-9759
经济利益	-9760
经济机会	-9761
结合起来	-9762
绿色新政	-9763
绿色经济	-9764
美国人的	-9765
美国人都	-9766
美国国家	-9767
而且往往	-9768
耶路撒冷	-9769
联邦债务	-9770
能够保持	-9771
能源系统	-9772
能源组合	-9773
自身利益	-9774
致力于为	-9775
航空旅行	-9776
药品价格	-9777
萨诸塞州	-9778
蒙特利尔	-9779
融资计划	-9780
被占领土	-9781
认识到了	-9782
讨价还价	-9783
许多非洲	-9784
试图通过	-9785
该怎么办	-9786
诸如此类	-9787
负面影响	-9788
财政状况	-9789
财政联盟	-9790
财政负担	-9791
财政转移	-9792
货币宽松	-9793
贬值压力	-9794
贸易壁垒	-9795
贸易频密	-9796
资本管制	-9797
边际成本	-9798
达成一致	-9799
达成协议	-9800
过早死亡	-9801
还有一个	-9802
还有其他	-9803
这一决定	-9804
这一势头	-9805
这一数字	-9806
这一现象	-9807
这个世界	-9808
这些公司	-9809
这些数据	-9810
这些趋势	-9811
这是一种	-9812
这次访问	-9813
进一步的	-9814
远见卓识	-9815
远远超过	-9816
远远高于	-9817
透明度和	-9818
通讯技术	-9819
都出现了	-9820
采取更加	-9821
重大事件	-9822
重大影响	-9823
重新开始	-9824
重新思考	-9825
重新考虑	-9826
重要角色	-9827
金融产品	-9828
金融动荡	-9829
银行监管	-9830
陷入困境	-9831
随之而来	-9832
随处可见	-9833
需要做出	-9834
非常重要	-9835
非洲企业	-9836
非洲农民	-9837
非洲崛起	-9838
非洲拥有	-9839
非洲民众	-9840
领导世界	-9841
首要任务	-9842
鲜明对比	-9843
,2015	-9844
,2017	-9845
Trans	-9846
activ	-9847
arles	-9848
ender	-9849
—2007	-9850
—2017	-9851
▁1989	-9852
▁1990	-9853
▁1991	-9854
▁2006	-9855
▁2012	-9856
▁9/11	-9857
▁Comm	-9858
▁Goal	-9859
▁Summ	-9860
▁一些国家	-9861
▁另一方面	-9862
▁塞尔维亚	-9863
▁如果不是	-9864
▁如果没有	-9865
▁如果西方	-9866
▁尽管过去	-9867
▁总而言之	-9868
▁悲哀的是	-9869
▁想象一下	-9870
▁我们已经	-9871
▁我们相信	-9872
▁格林斯潘	-9873
▁正因如此	-9874
▁美国国会	-9875
▁这一趋势	-9876
▁这些公司	-9877
▁这些都是	-9878
▁这些项目	-9879
▁这反映了	-9880
▁除此之外	-9881
▁非洲大陆	-9882
不可预测性	-9883
互联网接入	-9884
从现在开始	-9885
体面的工作	-9886
俄罗斯经济	-9887
信息和通信	-9888
债务增加了	-9889
其他国家的	-9890
净国民储蓄	-9891
出人意料的	-9892
加利福尼亚	-9893
劳动力大军	-9894
华盛顿特区	-9895
印度尼西亚	-9896
压倒性优势	-9897
发展核武器	-9898
发生的情况	-9899
可以追溯到	-9900
和其他国家	-9901
和基础设施	-9902
和巴基斯坦	-9903
和贸易赤字	-9904
国内和国际	-9905
国家和地区	-9906
在世界上的	-9907
在尼日利亚	-9908
地区一体化	-9909
城市水资源	-9910
基础设施的	-9911
外交政策的	-9912
外国投资者	-9913
大学的校长	-9914
委员会主席	-9915
实现这一点	-9916
家庭和企业	-9917
家族企业的	-9918
对经济增长	-9919
工业化国家	-9920
巨大的挑战	-9921
帕台农神庙	-9922
帮助年轻人	-9923
年以来一直	-9924
并不仅仅是	-9925
形成了一个	-9926
影响最大的	-9927
恐怖主义的	-9928
戈尔巴乔夫	-9929
我的祖父母	-9930
扮演的角色	-9931
提供更多的	-9932
政策制定者	-9933
教皇方济各	-9934
是因为他们	-9935
曾被诊断为	-9936
杂志上发表	-9937
欧洲决策者	-9938
欧洲和美国	-9939
正确的政策	-9940
民族主义的	-9941
环境规划署	-9942
生产率悖论	-9943
生活在贫困	-9944
生活实验室	-9945
的全球经济	-9946
的军事力量	-9947
的军事行动	-9948
的唯一办法	-9949
的国家利益	-9950
的国际合作	-9951
的国际秩序	-9952
的最佳办法	-9953
的最佳方式	-9954
的研究人员	-9955
的研究发现	-9956
的组成部分	-9957
的经济发展	-9958
的罪魁祸首	-9959
的货币政策	-9960
的非洲国家	-9961
碳氢化合物	-9962
社交媒体上	-9963
社会和政治	-9964
社会和经济	-9965
私人债权人	-9966
私人投资者	-9967
联合国大会	-9968
自然而然地	-9969
自由贸易和	-9970
莫斯科市长	-9971
获得更好的	-9972
获得足够的	-9973
解决方案网	-9974
解决的问题	-9975
解决问题的	-9976
许多非洲人	-9977
达成的协议	-9978
这些问题的	-9979
铺平了道路	-9980
阿富汗妇女	-9981
阿富汗政府	-9982
非洲大陆的	-9983
非洲的崛起	-9984
马克思主义	-9985
马萨诸塞州	-9986
▁Found	-9987
▁Youth	-9988
▁一个原因是	-9989
▁内塔尼亚胡	-9990
▁在尼日利亚	-9991
▁对美国来说	-9992
▁据世界银行	-9993
中低收入国家	-9994
中国和墨西哥	-9995
为基础的经济	-9996
主权债务危机	-9997
主权财富基金	-9998
二十世纪最后	-9999
二氧化碳含量	-10000
伙伴关系项目	-10001
全民医疗覆盖	-10002
全球经济增长	-10003
净国民储蓄率	-10004
加起来还要多	-10005
劳动力市场的	-10006
医疗支出增长	-10007
发展中经济体	-10008
发达经济体的	-10009
可持续的增长	-10010
哪个国家能够	-10011
国内生产总值	-10012
国务卿希拉里	-10013
在某种程度上	-10014
实现这一目标	-10015
实现这些目标	-10016
巴勒斯坦国的	-10017
所面临的挑战	-10018
捷克斯洛伐克	-10019
机器学习算法	-10020
果真如此的话	-10021
欧元区成员国	-10022
欧洲议会选举	-10023
气候变化问题	-10024
爱因斯坦论坛	-10025
特朗普经济学	-10026
的贸易自由化	-10027
的首席执行官	-10028
经合组织国家	-10029
经常项目赤字	-10030
诺贝尔经济学	-10031
超导铜氧化物	-10032
非传染性疾病	-10033
stitute	-10034
▁Policy	-10035
▁同样重要的是	-10036
▁在这种情况下	-10037
城市水资源管理	-10038
大部分非洲国家	-10039
尼日利亚和南非	-10040
工程和数学领域	-10041
数学科学研究所	-10042
新兴市场经济体	-10043
欧盟委员会主席	-10044
的美国经济来说	-10045
诺贝尔奖获得者	-10046
资本账户自由化	-10047
阿富汗和伊拉克	-10048
▁Project	-10049
▁发自华盛顿特区	-10050
▁美国总统奥巴马	-10051
▁颇具讽刺意味的是	-10052
▁Financing	-10053
▁联合国工业发展组织	-10054
南极海洋生物资源养护	-10055
综合性城市水资源管理	-10056
联合国可持续发展目标	-10057
跨太平洋合作伙伴关系	-10058
▁Commission	-10059
▁Foundation	-10060
▁International	-10061
(1	-10062
,7	-10063
2—	-10064
55	-10065
6,	-10066
63	-10067
76	-10068
77	-10069
Al	-10070
BC	-10071
BT	-10072
CH	-10073
CM	-10074
CO	-10075
DB	-10076
FA	-10077
FS	-10078
Ge	-10079
Ji	-10080
MR	-10081
Pa	-10082
TA	-10083
Te	-10084
av	-10085
cr	-10086
dv	-10087
eh	-10088
gl	-10089
io	-10090
ly	-10091
ny	-10092
oy	-10093
ty	-10094
▁.	-10095
▁4	-10096
▁8	-10097
▁c	-10098
▁d	-10099
▁f	-10100
▁h	-10101
▁l	-10102
▁p	-10103
▁’	-10104
▁且	-10105
▁低	-10106
▁则	-10107
▁单	-10108
▁却	-10109
▁去	-10110
▁叶	-10111
▁四	-10112
▁国	-10113
▁弗	-10114
▁月	-10115
▁来	-10116
▁柯	-10117
▁没	-10118
▁给	-10119
▁达	-10120
▁还	-10121
▁金	-10122
▁黑	-10123
一千	-10124
一去	-10125
一只	-10126
一向	-10127
一周	-10128
一堂	-10129
一届	-10130
一战	-10131
一所	-10132
一揽	-10133
一来	-10134
一波	-10135
一空	-10136
一线	-10137
一角	-10138
一贯	-10139
一郎	-10140
一部	-10141
七年	-10142
三名	-10143
三年	-10144
三维	-10145
上下	-10146
上任	-10147
上半	-10148
上层	-10149
上演	-10150
下属	-10151
不一	-10152
不下	-10153
不休	-10154
不住	-10155
不像	-10156
不变	-10157
不大	-10158
不屈	-10159
不已	-10160
不成	-10161
不振	-10162
不易	-10163
不耐	-10164
不谓	-10165
不远	-10166
与否	-10167
与日	-10168
与此	-10169
专属	-10170
专心	-10171
世行	-10172
业已	-10173
业者	-10174
东南	-10175
东部	-10176
两场	-10177
两极	-10178
两样	-10179
两派	-10180
严的	-10181
严酷	-10182
中上	-10183
中共	-10184
中士	-10185
中流	-10186
为一	-10187
为之	-10188
为他	-10189
为继	-10190
为零	-10191
主任	-10192
之争	-10193
之于	-10194
之初	-10195
之和	-10196
之国	-10197
之计	-10198
之都	-10199
之高	-10200
乌云	-10201
乎其	-10202
乐施	-10203
也好	-10204
也最	-10205
书的	-10206
买单	-10207
买家	-10208
乱局	-10209
了与	-10210
事先	-10211
二次	-10212
互信	-10213
五月	-10214
亚开	-10215
些许	-10216
亟待	-10217
交由	-10218
交道	-10219
享有	-10220
亲属	-10221
亲戚	-10222
亲身	-10223
人心	-10224
人手	-10225
人耳	-10226
人身	-10227
人际	-10228
亿吨	-10229
亿多	-10230
什图	-10231
仍不	-10232
仍旧	-10233
从安	-10234
他也	-10235
他会	-10236
他性	-10237
他是	-10238
他说	-10239
以免	-10240
以内	-10241
以待	-10242
们则	-10243
仰仗	-10244
价比	-10245
任重	-10246
仿之	-10247
仿佛	-10248
仿效	-10249
伊夫	-10250
伎俩	-10251
众所	-10252
优化	-10253
优越	-10254
会谈	-10255
传导	-10256
传感	-10257
传达	-10258
传递	-10259
伤性	-10260
伦多	-10261
伯南	-10262
伯拉	-10263
伯斯	-10264
伴侣	-10265
但不	-10266
位居	-10267
何塞	-10268
余地	-10269
作则	-10270
作对	-10271
供水	-10272
侵权	-10273
侵袭	-10274
保全	-10275
俱增	-10276
倒是	-10277
借入	-10278
停人	-10279
健全	-10280
偿债	-10281
元勋	-10282
先决	-10283
先发	-10284
光有	-10285
克什	-10286
克罗	-10287
克逊	-10288
党员	-10289
党团	-10290
兜售	-10291
全体	-10292
公关	-10293
公园	-10294
公益	-10295
共处	-10296
关塔	-10297
关门	-10298
兴奋	-10299
其次	-10300
兼并	-10301
内亚	-10302
内基	-10303
内陆	-10304
冗余	-10305
写下	-10306
写照	-10307
军人	-10308
军方	-10309
农化	-10310
农用	-10311
农田	-10312
冠军	-10313
冰山	-10314
况愈	-10315
冷静	-10316
凌驾	-10317
减弱	-10318
几千	-10319
几项	-10320
出一	-10321
出去	-10322
出路	-10323
出身	-10324
击毙	-10325
分为	-10326
分化	-10327
分工	-10328
分支	-10329
分水	-10330
分行	-10331
切割	-10332
列宁	-10333
列强	-10334
则为	-10335
则有	-10336
创下	-10337
创伤	-10338
初步	-10339
初衷	-10340
判处	-10341
利弊	-10342
利昂	-10343
利普	-10344
利钦	-10345
别人	-10346
到访	-10347
刹车	-10348
刻意	-10349
刻画	-10350
前瞻	-10351
剔除	-10352
剥削	-10353
剩余	-10354
力求	-10355
办事	-10356
功利	-10357
功劳	-10358
加里	-10359
动能	-10360
助理	-10361
劫持	-10362
勒庞	-10363
化了	-10364
化解	-10365
化身	-10366
半球	-10367
华尔	-10368
协同	-10369
卓越	-10370
单个	-10371
单打	-10372
南斯	-10373
南美	-10374
占到	-10375
卡恩	-10376
卡菲	-10377
卡门	-10378
却对	-10379
却有	-10380
卸任	-10381
原有	-10382
原籍	-10383
原谅	-10384
去甚	-10385
参选	-10386
又一	-10387
又在	-10388
又如	-10389
又将	-10390
又能	-10391
又被	-10392
友谊	-10393
反击	-10394
反抗	-10395
发射	-10396
发泄	-10397
发症	-10398
取暖	-10399
受众	-10400
受伤	-10401
受助	-10402
受困	-10403
受的	-10404
变动	-10405
变富	-10406
叛逆	-10407
口同	-10408
口实	-10409
口气	-10410
古人	-10411
叫作	-10412
召集	-10413
可测	-10414
可预	-10415
史上	-10416
号召	-10417
司空	-10418
各业	-10419
各界	-10420
各行	-10421
合格	-10422
同僚	-10423
同化	-10424
名誉	-10425
后半	-10426
向来	-10427
含有	-10428
启发	-10429
吸烟	-10430
吸纳	-10431
告别	-10432
告知	-10433
咄咄	-10434
和人	-10435
和加	-10436
和反	-10437
和威	-10438
和房	-10439
和最	-10440
和的	-10441
和苏	-10442
品和	-10443
哈利	-10444
哥维	-10445
哪种	-10446
哲学	-10447
唯有	-10448
善事	-10449
善于	-10450
喜爱	-10451
四名	-10452
回事	-10453
回来	-10454
回购	-10455
回避	-10456
园艺	-10457
困于	-10458
围绕	-10459
国土	-10460
国境	-10461
国大	-10462
图罗	-10463
在任	-10464
在巴	-10465
在近	-10466
在那	-10467
地图	-10468
地域	-10469
地点	-10470
地讲	-10471
坚守	-10472
坚实	-10473
坚称	-10474
坠毁	-10475
坦率	-10476
垃圾	-10477
城里	-10478
域内	-10479
堡垒	-10480
堵住	-10481
塔梅	-10482
塔赫	-10483
塔里	-10484
塞维	-10485
增大	-10486
声和	-10487
壳牌	-10488
备的	-10489
夕法	-10490
多了	-10491
多于	-10492
多地	-10493
多尔	-10494
多年	-10495
多德	-10496
多项	-10497
大为	-10498
大亨	-10499
大到	-10500
大肆	-10501
大致	-10502
大英	-10503
大行	-10504
大踏	-10505
大错	-10506
大门	-10507
天安	-10508
天才	-10509
太空	-10510
太郎	-10511
太高	-10512
夫人	-10513
夫家	-10514
失落	-10515
失误	-10516
头和	-10517
头寸	-10518
夸大	-10519
夺走	-10520
奉为	-10521
奋斗	-10522
奥萨	-10523
奥贡	-10524
女友	-10525
女生	-10526
好战	-10527
妈妈	-10528
姆尼	-10529
姐妹	-10530
委托	-10531
婚后	-10532
存亡	-10533
存款	-10534
孟买	-10535
季节	-10536
它让	-10537
它还	-10538
定罪	-10539
客车	-10540
害的	-10541
家长	-10542
容克	-10543
密歇	-10544
富饶	-10545
对付	-10546
对准	-10547
对峙	-10548
对新	-10549
对最	-10550
对的	-10551
将为	-10552
将比	-10553
将能	-10554
将该	-10555
小儿	-10556
尔曼	-10557
尔森	-10558
尖端	-10559
尘埃	-10560
就把	-10561
就被	-10562
尼克	-10563
尼兰	-10564
尼黑	-10565
尽快	-10566
尽责	-10567
尽量	-10568
局长	-10569
层级	-10570
层线	-10571
居区	-10572
居尔	-10573
屏蔽	-10574
工艺	-10575
巧妙	-10576
已成	-10577
已死	-10578
布隆	-10579
希特	-10580
带有	-10581
干事	-10582
干涸	-10583
年为	-10584
年仅	-10585
年份	-10586
年会	-10587
年占	-10588
年及	-10589
年是	-10590
并用	-10591
幸存	-10592
幼儿	-10593
库中	-10594
库珀	-10595
废物	-10596
延缓	-10597
开了	-10598
开出	-10599
开国	-10600
开战	-10601
开拓	-10602
开源	-10603
开辟	-10604
异的	-10605
异议	-10606
引力	-10607
引向	-10608
引渡	-10609
引爆	-10610
弥漫	-10611
强国	-10612
强权	-10613
归纳	-10614
当年	-10615
当成	-10616
录取	-10617
很强	-10618
律宾	-10619
徒刑	-10620
得税	-10621
微妙	-10622
德罗	-10623
心目	-10624
忌惮	-10625
志愿	-10626
忠实	-10627
忠诚	-10628
快于	-10629
怀旧	-10630
思熟	-10631
思路	-10632
恐吓	-10633
恩怨	-10634
悠久	-10635
患病	-10636
惊人	-10637
惧怕	-10638
惨重	-10639
惯例	-10640
想方	-10641
愈加	-10642
感和	-10643
感情	-10644
憧憬	-10645
成人	-10646
成分	-10647
成形	-10648
我被	-10649
战士	-10650
战时	-10651
房产	-10652
房子	-10653
手和	-10654
手无	-10655
手续	-10656
打扰	-10657
打消	-10658
打败	-10659
托弗	-10660
托车	-10661
扣的	-10662
执照	-10663
扯皮	-10664
把握	-10665
把钱	-10666
抑或	-10667
抗拒	-10668
抛出	-10669
报纸	-10670
抱有	-10671
抽烟	-10672
拉低	-10673
拉德	-10674
拉詹	-10675
拥抱	-10676
拿来	-10677
指向	-10678
指定	-10679
挚的	-10680
捐款	-10681
捕捞	-10682
损于	-10683
损坏	-10684
捷夫	-10685
掌控	-10686
探底	-10687
接替	-10688
接过	-10689
推断	-10690
推论	-10691
掩饰	-10692
措辞	-10693
提倡	-10694
提及	-10695
提名	-10696
提问	-10697
摄氏	-10698
撤军	-10699
播种	-10700
支援	-10701
收买	-10702
放开	-10703
放慢	-10704
放贷	-10705
政坛	-10706
政局	-10707
效而	-10708
敌意	-10709
救助	-10710
教义	-10711
教室	-10712
教给	-10713
敞口	-10714
整整	-10715
整顿	-10716
斐逊	-10717
斗士	-10718
斯之	-10719
斯克	-10720
斯库	-10721
斯瓦	-10722
新高	-10723
施密	-10724
施里	-10725
旁观	-10726
旗号	-10727
无从	-10728
无情	-10729
无缺	-10730
日在	-10731
时也	-10732
时宜	-10733
时就	-10734
是位	-10735
是处	-10736
是用	-10737
是要	-10738
是高	-10739
是黑	-10740
普罗	-10741
景气	-10742
景象	-10743
智库	-10744
暴行	-10745
更不	-10746
更小	-10747
更美	-10748
更能	-10749
更难	-10750
曾为	-10751
替换	-10752
最不	-10753
最优	-10754
最具	-10755
最有	-10756
月中	-10757
有其	-10758
有待	-10759
有素	-10760
有罪	-10761
朝向	-10762
末代	-10763
本币	-10764
本应	-10765
本特	-10766
本科	-10767
术语	-10768
朴正	-10769
机械	-10770
杉木	-10771
杜绝	-10772
条的	-10773
杯水	-10774
极少	-10775
极易	-10776
构筑	-10777
树和	-10778
样的	-10779
核弹	-10780
格夫	-10781
格拉	-10782
格林	-10783
格格	-10784
格森	-10785
格芬	-10786
格莱	-10787
格达	-10788
桑乔	-10789
桑比	-10790
梅隆	-10791
检讨	-10792
森堡	-10793
植树	-10794
概率	-10795
正当	-10796
此事	-10797
此后	-10798
武士	-10799
死于	-10800
殆尽	-10801
毁坏	-10802
每一	-10803
每次	-10804
每隔	-10805
毒害	-10806
比从	-10807
比在	-10808
比尔	-10809
比方	-10810
气息	-10811
氛围	-10812
水面	-10813
求诊	-10814
汇集	-10815
汉姆	-10816
汹涌	-10817
河床	-10818
治之	-10819
波尔	-10820
波音	-10821
注销	-10822
洛普	-10823
津贴	-10824
洪灾	-10825
流产	-10826
流域	-10827
流血	-10828
浮雕	-10829
海上	-10830
海啸	-10831
海底	-10832
海滩	-10833
涨势	-10834
液体	-10835
淘汰	-10836
深厚	-10837
深层	-10838
深感	-10839
深表	-10840
混淆	-10841
清算	-10842
温得	-10843
温暖	-10844
温泉	-10845
游击	-10846
源头	-10847
滋长	-10848
滥调	-10849
漂亮	-10850
演员	-10851
演进	-10852
潮的	-10853
灯塔	-10854
灵丹	-10855
灵魂	-10856
点上	-10857
烟消	-10858
热烈	-10859
热爱	-10860
热的	-10861
热窝	-10862
热衷	-10863
热门	-10864
照片	-10865
照看	-10866
燃素	-10867
牢固	-10868
牧场	-10869
物价	-10870
牵扯	-10871
特罗	-10872
犯人	-10873
独力	-10874
独斗	-10875
独特	-10876
猛烈	-10877
猜想	-10878
率从	-10879
率先	-10880
率和	-10881
玫瑰	-10882
现行	-10883
玻利	-10884
球迷	-10885
理石	-10886
瓦解	-10887
甚于	-10888
生效	-10889
用以	-10890
用作	-10891
用性	-10892
田间	-10893
由我	-10894
由来	-10895
由非	-10896
电气	-10897
电流	-10898
电缆	-10899
界线	-10900
略的	-10901
疗法	-10902
病毒	-10903
症的	-10904
痴心	-10905
登月	-10906
百年	-10907
的主	-10908
的传	-10909
的去	-10910
的合	-10911
的后	-10912
的多	-10913
的好	-10914
的家	-10915
的年	-10916
的未	-10917
的极	-10918
的民	-10919
的第	-10920
的门	-10921
的面	-10922
的餐	-10923
皇储	-10924
盈利	-10925
盟军	-10926
直指	-10927
直系	-10928
直觉	-10929
相容	-10930
相近	-10931
看得	-10932
看成	-10933
真诚	-10934
眼看	-10935
着力	-10936
着对	-10937
短视	-10938
矿产	-10939
砥柱	-10940
破裂	-10941
确信	-10942
确切	-10943
确认	-10944
碰撞	-10945
礼物	-10946
离婚	-10947
离职	-10948
私有	-10949
科菲	-10950
称作	-10951
移居	-10952
稍微	-10953
稳固	-10954
空缺	-10955
窃听	-10956
窒息	-10957
窘境	-10958
章程	-10959
笔者	-10960
第五	-10961
等量	-10962
策划	-10963
筛查	-10964
管治	-10965
管用	-10966
粮农	-10967
精于	-10968
精心	-10969
糖尿	-10970
系的	-10971
紧紧	-10972
紧随	-10973
累积	-10974
累累	-10975
累计	-10976
约定	-10977
纲领	-10978
纳斯	-10979
纳特	-10980
经受	-10981
绕过	-10982
给定	-10983
给自	-10984
维修	-10985
缓冲	-10986
缩小	-10987
缺位	-10988
缺水	-10989
置身	-10990
美妙	-10991
美孚	-10992
美式	-10993
美欧	-10994
美苏	-10995
群岛	-10996
耀邦	-10997
老人	-10998
老板	-10999
老熟	-11000
老牌	-11001
者在	-11002
而其	-11003
而有	-11004
耐心	-11005
耗费	-11006
耶夫	-11007
职的	-11008
联手	-11009
联酋	-11010
聘用	-11011
聚会	-11012
肆无	-11013
股份	-11014
肤色	-11015
肥料	-11016
胎儿	-11017
胡言	-11018
能令	-11019
能像	-11020
脑后	-11021
脚步	-11022
脱节	-11023
腐蚀	-11024
自杀	-11025
致歉	-11026
舞的	-11027
良多	-11028
色彩	-11029
艾肯	-11030
节能	-11031
英亩	-11032
范例	-11033
草根	-11034
莱因	-11035
获利	-11036
董事	-11037
蒸汽	-11038
蛋白	-11039
行径	-11040
行程	-11041
衣钵	-11042
表态	-11043
表象	-11044
裁决	-11045
裂隙	-11046
裨益	-11047
西联	-11048
西里	-11049
要价	-11050
要务	-11051
要好	-11052
见惯	-11053
观其	-11054
视作	-11055
觊觎	-11056
解冻	-11057
解雇	-11058
计价	-11059
让其	-11060
记住	-11061
记得	-11062
论的	-11063
访华	-11064
诅咒	-11065
识别	-11066
识字	-11067
诉求	-11068
诉诸	-11069
诗人	-11070
话语	-11071
该党	-11072
误诊	-11073
说出	-11074
说话	-11075
课题	-11076
调解	-11077
谈到	-11078
谈的	-11079
谋求	-11080
负有	-11081
贪婪	-11082
贫瘠	-11083
贬低	-11084
贯彻	-11085
贴上	-11086
贾格	-11087
赞扬	-11088
赞誉	-11089
走了	-11090
走进	-11091
赶上	-11092
起伏	-11093
起草	-11094
起诉	-11095
超额	-11096
越多	-11097
跟踪	-11098
跻身	-11099
身居	-11100
车薪	-11101
车道	-11102
轨道	-11103
转而	-11104
转诊	-11105
轻微	-11106
轻松	-11107
辅助	-11108
输了	-11109
输出	-11110
辞职	-11111
辩护	-11112
迁就	-11113
过分	-11114
过着	-11115
过高	-11116
迎接	-11117
还从	-11118
还款	-11119
还被	-11120
这在	-11121
这对	-11122
这将	-11123
这片	-11124
这给	-11125
这股	-11126
这部	-11127
进了	-11128
进去	-11129
进攻	-11130
远东	-11131
远非	-11132
违规	-11133
连贯	-11134
迟迟	-11135
迪逊	-11136
迫害	-11137
追加	-11138
退化	-11139
送给	-11140
适用	-11141
选出	-11142
选定	-11143
通行	-11144
通道	-11145
遏止	-11146
道远	-11147
遗余	-11148
遗留	-11149
遴选	-11150
避税	-11151
邵德	-11152
部副	-11153
部落	-11154
都从	-11155
都以	-11156
都市	-11157
都应	-11158
都更	-11159
都由	-11160
酋长	-11161
配合	-11162
配电	-11163
酒店	-11164
酝酿	-11165
采矿	-11166
重心	-11167
重生	-11168
野心	-11169
钢铁	-11170
铰链	-11171
错乱	-11172
错过	-11173
长于	-11174
长寿	-11175
长远	-11176
门户	-11177
问问	-11178
间接	-11179
闻的	-11180
防务	-11181
阳光	-11182
阵痛	-11183
阿里	-11184
附近	-11185
陈词	-11186
降级	-11187
限额	-11188
隐瞒	-11189
雄辩	-11190
集合	-11191
零和	-11192
革新	-11193
鞋子	-11194
音译	-11195
顶峰	-11196
须知	-11197
顾及	-11198
预定	-11199
颜色	-11200
风潮	-11201
餐饮	-11202
饮用	-11203
饮酒	-11204
首席	-11205
马尔	-11206
骄傲	-11207
高中	-11208
魅力	-11209
魔鬼	-11210
麻生	-11211
黎明	-11212
齐奥	-11213
齐观	-11214
+20	-11215
,18	-11216
-20	-11217
0.1	-11218
0.2	-11219
102	-11220
10—	-11221
12%	-11222
15%	-11223
16%	-11224
2.4	-11225
25%	-11226
3.6	-11227
320	-11228
4.2	-11229
45%	-11230
5.6	-11231
6.2	-11232
6.7	-11233
63%	-11234
750	-11235
900	-11236
95%	-11237
CHW	-11238
ESG	-11239
FSB	-11240
IDS	-11241
MRI	-11242
New	-11243
TAR	-11244
The	-11245
aff	-11246
ali	-11247
ark	-11248
ask	-11249
ass	-11250
ast	-11251
ati	-11252
bod	-11253
ces	-11254
cil	-11255
dep	-11256
ele	-11257
fer	-11258
gan	-11259
gen	-11260
get	-11261
ide	-11262
ien	-11263
ign	-11264
ind	-11265
ink	-11266
ish	-11267
ism	-11268
iti	-11269
ium	-11270
ivi	-11271
ker	-11272
mer	-11273
nal	-11274
ock	-11275
oll	-11276
one	-11277
ork	-11278
ram	-11279
rew	-11280
rey	-11281
ris	-11282
ron	-11283
sky	-11284
ton	-11285
ush	-11286
·11	-11287
—0.	-11288
▁10	-11289
▁18	-11290
▁21	-11291
▁25	-11292
▁Do	-11293
▁Sc	-11294
▁一份	-11295
▁一次	-11296
▁上帝	-11297
▁不但	-11298
▁不同	-11299
▁不少	-11300
▁不是	-11301
▁与此	-11302
▁两国	-11303
▁个人	-11304
▁为何	-11305
▁主流	-11306
▁亚洲	-11307
▁他将	-11308
▁会议	-11309
▁但与	-11310
▁但他	-11311
▁使用	-11312
▁假设	-11313
▁其二	-11314
▁其对	-11315
▁出于	-11316
▁创新	-11317
▁医生	-11318
▁卡特	-11319
▁历史	-11320
▁发展	-11321
▁可惜	-11322
▁后来	-11323
▁土地	-11324
▁大学	-11325
▁大约	-11326
▁大选	-11327
▁央行	-11328
▁妇女	-11329
▁学术	-11330
▁宗教	-11331
▁已经	-11332
▁巴西	-11333
▁很多	-11334
▁很难	-11335
▁总理	-11336
▁想想	-11337
▁所谓	-11338
▁援助	-11339
▁改善	-11340
▁改革	-11341
▁整体	-11342
▁既然	-11343
▁早期	-11344
▁普通	-11345
▁暴力	-11346
▁有效	-11347
▁本周	-11348
▁欧元	-11349
▁此举	-11350
▁没人	-11351
▁波兰	-11352
▁煤炭	-11353
▁理想	-11354
▁研究	-11355
▁科学	-11356
▁税收	-11357
▁第五	-11358
▁答案	-11359
▁网络	-11360
▁而从	-11361
▁而后	-11362
▁自由	-11363
▁袭击	-11364
▁论坛	-11365
▁这位	-11366
▁重建	-11367
▁金融	-11368
▁降低	-11369
▁预测	-11370
▁高层	-11371
▁鸦片	-11372
一个对	-11373
一个由	-11374
一切的	-11375
一国的	-11376
一定是	-11377
一揽子	-11378
一样的	-11379
一直到	-11380
一直都	-11381
一种不	-11382
一起在	-11383
万左右	-11384
三百万	-11385
上签字	-11386
下一场	-11387
下个月	-11388
下半年	-11389
不亚于	-11390
不仅要	-11391
不会有	-11392
不允许	-11393
不公正	-11394
不准备	-11395
不可及	-11396
不同意	-11397
不容易	-11398
不对称	-11399
不断在	-11400
不清楚	-11401
不知道	-11402
不能再	-11403
不超过	-11404
不足和	-11405
不足够	-11406
不足道	-11407
不重要	-11408
与今天	-11409
与传统	-11410
与农业	-11411
与发展	-11412
与当地	-11413
与政府	-11414
与欧盟	-11415
与现实	-11416
两国的	-11417
丧生的	-11418
个孩子	-11419
中东和	-11420
中关系	-11421
中只有	-11422
中国将	-11423
中国或	-11424
中所占	-11425
中挣扎	-11426
中进行	-11427
中间派	-11428
临近的	-11429
为中心	-11430
为了让	-11431
为代表	-11432
为未来	-11433
为防止	-11434
主导着	-11435
乎其微	-11436
乐施会	-11437
乔布斯	-11438
也不太	-11439
也不愿	-11440
也变得	-11441
也处于	-11442
也指出	-11443
也支持	-11444
也相对	-11445
也知道	-11446
也缺乏	-11447
了三倍	-11448
了两个	-11449
了我的	-11450
了新的	-11451
事件中	-11452
事务上	-11453
事务中	-11454
二十年	-11455
亚洲和	-11456
交还给	-11457
产业的	-11458
享受到	-11459
享受着	-11460
人丧生	-11461
人士的	-11462
人指责	-11463
人权的	-11464
人来说	-11465
人民所	-11466
人遭遇	-11467
亿英镑	-11468
什么是	-11469
仅次于	-11470
仅限于	-11471
仇恨和	-11472
仇恨的	-11473
仍无法	-11474
从全球	-11475
从地球	-11476
从政治	-11477
从来就	-11478
从经济	-11479
他不是	-11480
他们会	-11481
他们还	-11482
令人心	-11483
令人欣	-11484
令问题	-11485
以农业	-11486
以冲突	-11487
以出口	-11488
以及在	-11489
以成果	-11490
以来最	-11491
以现金	-11492
以解决	-11493
以遏制	-11494
以降低	-11495
件好事	-11496
价格的	-11497
价销售	-11498
伊朗的	-11499
众所周	-11500
会削弱	-11501
会增加	-11502
会引起	-11503
会怎样	-11504
会持续	-11505
会继续	-11506
会认为	-11507
传感器	-11508
伯南克	-11509
伯拉罕	-11510
伯斯塔	-11511
似乎也	-11512
但世界	-11513
但也有	-11514
但其中	-11515
但因为	-11516
但对于	-11517
但必须	-11518
但显然	-11519
但至少	-11520
但这些	-11521
低工资	-11522
低成本	-11523
低技能	-11524
使他们	-11525
使用和	-11526
使用武	-11527
供给侧	-11528
俄国的	-11529
保险商	-11530
信息及	-11531
借款人	-11532
做准备	-11533
做的事	-11534
像美国	-11535
儿童和	-11536
先发制	-11537
光是在	-11538
入学率	-11539
公司等	-11540
共识的	-11541
关键的	-11542
其收入	-11543
其自身	-11544
内罗毕	-11545
再一次	-11546
冒险和	-11547
军队的	-11548
准备着	-11549
准确性	-11550
准确的	-11551
凌驾于	-11552
减排量	-11553
减轻了	-11554
几内亚	-11555
几年里	-11556
凸显了	-11557
出口商	-11558
出口的	-11559
出台了	-11560
出版的	-11561
出生的	-11562
分析家	-11563
分水岭	-11564
分配给	-11565
则通过	-11566
则需要	-11567
创业家	-11568
创造力	-11569
判入狱	-11570
利普斯	-11571
到一个	-11572
到现在	-11573
制度下	-11574
刺激的	-11575
前提下	-11576
前提是	-11577
剧烈的	-11578
剩下的	-11579
副产品	-11580
力资本	-11581
力量和	-11582
加入了	-11583
加速器	-11584
动荡和	-11585
助长了	-11586
勇敢的	-11587
化以及	-11588
化温度	-11589
化肥和	-11590
医生们	-11591
医生和	-11592
医疗界	-11593
医院的	-11594
十字会	-11595
华尔街	-11596
华雷斯	-11597
卓著的	-11598
单方面	-11599
南苏丹	-11600
占世界	-11601
卡内基	-11602
危机和	-11603
危机而	-11604
却从未	-11605
却无法	-11606
却未能	-11607
压力的	-11608
去甚远	-11609
去监管	-11610
参与率	-11611
友好的	-11612
反倾销	-11613
反复无	-11614
反应的	-11615
反竞争	-11616
发动了	-11617
发展出	-11618
发布了	-11619
发言权	-11620
取代了	-11621
受灾国	-11622
变利率	-11623
变成为	-11624
变革的	-11625
口同声	-11626
句名言	-11627
另一场	-11628
可以以	-11629
可怜的	-11630
可接受	-11631
可能将	-11632
可观的	-11633
可预防	-11634
各地的	-11635
合作以	-11636
合作和	-11637
合作来	-11638
合作的	-11639
合法化	-11640
吉尔吉	-11641
同事们	-11642
同意在	-11643
同时为	-11644
名列第	-11645
名女性	-11646
名妇女	-11647
后一种	-11648
后不久	-11649
后冷战	-11650
后来的	-11651
后果的	-11652
向其他	-11653
向国家	-11654
向欧盟	-11655
吸引的	-11656
呈现出	-11657
周边的	-11658
咄咄逼	-11659
和中东	-11660
和中期	-11661
和保护	-11662
和创新	-11663
和历史	-11664
和参与	-11665
和合作	-11666
和国内	-11667
和复杂	-11668
和失业	-11669
和希腊	-11670
和平等	-11671
和强化	-11672
和总统	-11673
和情报	-11674
和控制	-11675
和普遍	-11676
和暴力	-11677
和机构	-11678
和现实	-11679
和瑞典	-11680
和电子	-11681
和网络	-11682
和荷兰	-11683
和营养	-11684
和行为	-11685
和语言	-11686
和财富	-11687
和贫困	-11688
和铁路	-11689
和领导	-11690
和黑塞	-11691
哈米德	-11692
哈里发	-11693
哥维那	-11694
商品的	-11695
喀布尔	-11696
回答说	-11697
国主义	-11698
国境线	-11699
国家党	-11700
国家级	-11701
国际化	-11702
国集团	-11703
图书馆	-11704
图罗克	-11705
土地和	-11706
在一些	-11707
在今天	-11708
在今年	-11709
在任何	-11710
在伊朗	-11711
在伦敦	-11712
在农业	-11713
在冷战	-11714
在德国	-11715
在我们	-11716
在法国	-11717
在现有	-11718
在社会	-11719
在讨论	-11720
在这里	-11721
地中海	-11722
地位的	-11723
地使用	-11724
地发现	-11725
地指出	-11726
地看到	-11727
地规则	-11728
场战争	-11729
坚定地	-11730
埃及和	-11731
埃尔金	-11732
埃里克	-11733
埃里温	-11734
城市里	-11735
基督徒	-11736
塔梅兰	-11737
士底日	-11738
备竞赛	-11739
复苏的	-11740
多一点	-11741
多大的	-11742
多少钱	-11743
多年内	-11744
多方面	-11745
大体上	-11746
大多是	-11747
大屠杀	-11748
大幅下	-11749
大生产	-11750
大男子	-11751
大踏步	-11752
大陆的	-11753
天安门	-11754
天气的	-11755
失业者	-11756
失败了	-11757
奠定了	-11758
奥布斯	-11759
奥萨马	-11760
如何在	-11761
如果在	-11762
如果想	-11763
妇女在	-11764
妇女的	-11765
婴儿潮	-11766
媒体和	-11767
媒体的	-11768
子公司	-11769
学习和	-11770
学生的	-11771
学者的	-11772
它们是	-11773
它们还	-11774
它们都	-11775
它可以	-11776
安倍的	-11777
安德鲁	-11778
安排的	-11779
完全不	-11780
完全的	-11781
完没了	-11782
实在在	-11783
实施的	-11784
宣誓要	-11785
家族的	-11786
家机构	-11787
宾夕法	-11788
密歇根	-11789
对一个	-11790
对中东	-11791
对儿童	-11792
对当今	-11793
对我们	-11794
对政府	-11795
对有关	-11796
对民主	-11797
对社会	-11798
对贷款	-11799
对这种	-11800
将产生	-11801
将会在	-11802
将依然	-11803
将全球	-11804
将增加	-11805
将实现	-11806
将开始	-11807
将得到	-11808
将拥有	-11809
将最终	-11810
将美国	-11811
将自己	-11812
将这个	-11813
将迫使	-11814
将重点	-11815
将非洲	-11816
尊严和	-11817
小泉纯	-11818
就业和	-11819
就只能	-11820
就在于	-11821
就很难	-11822
就成了	-11823
就是在	-11824
就显得	-11825
尽管他	-11826
届政府	-11827
岁以上	-11828
岁以下	-11829
崛起的	-11830
州政府	-11831
工具和	-11832
工资税	-11833
巩固其	-11834
已开始	-11835
已经将	-11836
已经是	-11837
已足以	-11838
市场上	-11839
布伦纳	-11840
布隆迪	-11841
希特勒	-11842
希腊和	-11843
带一路	-11844
带回到	-11845
年世界	-11846
年中的	-11847
年产量	-11848
年代到	-11849
年内将	-11850
年增加	-11851
年年中	-11852
年期间	-11853
年的低	-11854
年的第	-11855
并促进	-11856
并发症	-11857
并导致	-11858
并强化	-11859
并成功	-11860
并扩大	-11861
并据此	-11862
并积极	-11863
庄严的	-11864
应当在	-11865
应当是	-11866
应该对	-11867
开始在	-11868
引出了	-11869
强烈地	-11870
强调的	-11871
当年的	-11872
当时的	-11873
当权者	-11874
彻底的	-11875
往往被	-11876
待观察	-11877
很容易	-11878
很少的	-11879
很长的	-11880
得更快	-11881
得益于	-11882
德国和	-11883
德累斯	-11884
必需的	-11885
必须有	-11886
思想家	-11887
思熟虑	-11888
性价比	-11889
性机构	-11890
性行为	-11891
总人口	-11892
总体上	-11893
总干事	-11894
慕尼黑	-11895
戏剧性	-11896
成长的	-11897
我希望	-11898
或政治	-11899
战略上	-11900
所包含	-11901
所导致	-11902
所引发	-11903
所抵消	-11904
所拥有	-11905
所遭受	-11906
手中的	-11907
手无策	-11908
才能让	-11909
托克维	-11910
扩大了	-11911
扩大其	-11912
扮演着	-11913
批评的	-11914
承受了	-11915
承担了	-11916
承诺到	-11917
承诺向	-11918
把事情	-11919
投入了	-11920
担负起	-11921
拉加德	-11922
拙劣的	-11923
拥有超	-11924
持怀疑	-11925
持批评	-11926
持续地	-11927
掌握在	-11928
排他性	-11929
接近于	-11930
控制和	-11931
控制着	-11932
推动着	-11933
推迟了	-11934
摆脱了	-11935
摩托车	-11936
操作中	-11937
支付的	-11938
支持率	-11939
收入是	-11940
收到了	-11941
改善了	-11942
攻击者	-11943
放弃了	-11944
政府是	-11945
政府能	-11946
政府被	-11947
政权的	-11948
政治学	-11949
政治理	-11950
敏感度	-11951
教科书	-11952
教育者	-11953
数不清	-11954
数十个	-11955
数据集	-11956
数量比	-11957
文学界	-11958
斗争的	-11959
断层线	-11960
斯特恩	-11961
新一轮	-11962
新市场	-11963
新常态	-11964
新注资	-11965
新疫苗	-11966
新鲜事	-11967
方式来	-11968
施里弗	-11969
无道理	-11970
日本人	-11971
旧欧洲	-11972
时间内	-11973
旺加里	-11974
明年的	-11975
明斯基	-11976
明确定	-11977
星球上	-11978
是一名	-11979
是一块	-11980
是一群	-11981
是一项	-11982
是不会	-11983
是不是	-11984
是世界	-11985
是他们	-11986
是关于	-11987
是十分	-11988
是否将	-11989
是所有	-11990
是支持	-11991
是改善	-11992
是欧洲	-11993
是没有	-11994
是现代	-11995
是这一	-11996
是那些	-11997
显然比	-11998
显示出	-11999
普京在	-12000
普及度	-12001
普遍的	-12002
暴力和	-12003
暴力的	-12004
暴露了	-12005
更喜欢	-12006
更安全	-12007
更深的	-12008
更清洁	-12009
更稳定	-12010
更重要	-12011
更长的	-12012
更高效	-12013
曾表示	-12014
替代品	-12015
最主要	-12016
最初的	-12017
最坏的	-12018
最有效	-12019
最终将	-12020
最终被	-12021
最近在	-12022
最高层	-12023
月份在	-12024
有一位	-12025
有一半	-12026
有一家	-12027
有三个	-12028
有三大	-12029
有几个	-12030
有大约	-12031
有工作	-12032
有效率	-12033
有更多	-12034
有没有	-12035
有理由	-12036
有益的	-12037
有约束	-12038
有足够	-12039
期待的	-12040
未知数	-12041
本世纪	-12042
本应该	-12043
本身的	-12044
朴正熙	-12045
机器的	-12046
机构中	-12047
机构在	-12048
杀伤性	-12049
权利和	-12050
权力和	-12051
条件是	-12052
条约的	-12053
来不及	-12054
来决定	-12055
来吸引	-12056
来完成	-12057
来承担	-12058
来推动	-12059
来阻止	-12060
杰出的	-12061
杰斐逊	-12062
松散的	-12063
极低的	-12064
构成的	-12065
枚炸弹	-12066
核协议	-12067
根本就	-12068
根本性	-12069
根本没	-12070
桑比克	-12071
模式的	-12072
欧洲将	-12073
欧盟和	-12074
正在向	-12075
正在用	-12076
正常化	-12077
此前被	-12078
武器的	-12079
残疾人	-12080
每况愈	-12081
每年都	-12082
毒品和	-12083
比哈尔	-12084
比方说	-12085
比此前	-12086
比现在	-12087
毕业后	-12088
民用核	-12089
水平的	-12090
沃尔玛	-12091
沉迷于	-12092
没有为	-12093
治下的	-12094
治理和	-12095
法塔赫	-12096
注定会	-12097
注意到	-12098
洪水和	-12099
活下去	-12100
活动来	-12101
济于事	-12102
消费税	-12103
消费量	-12104
涌现出	-12105
深受其	-12106
深远的	-12107
渐进式	-12108
漏水的	-12109
激烈的	-12110
灵活性	-12111
热衷于	-12112
焦哈尔	-12113
爆发时	-12114
爱国者	-12115
爱好者	-12116
特点的	-12117
牺牲品	-12118
环境的	-12119
理事国	-12120
理智的	-12121
甚至将	-12122
电力和	-12123
电力的	-12124
留下的	-12125
疾病和	-12126
白人的	-12127
百分比	-12128
的一代	-12129
的一场	-12130
的不同	-12131
的专业	-12132
的两大	-12133
的举措	-12134
的产量	-12135
的人权	-12136
的人的	-12137
的信仰	-12138
的全部	-12139
的公众	-12140
的具体	-12141
的冲突	-12142
的冷战	-12143
的出口	-12144
的出现	-12145
的分析	-12146
的制度	-12147
的动作	-12148
的口号	-12149
的名字	-12150
的境况	-12151
的外部	-12152
的大约	-12153
的大选	-12154
的实际	-12155
的对话	-12156
的幅度	-12157
的干旱	-12158
的年度	-12159
的开始	-12160
的开放	-12161
的思维	-12162
的情形	-12163
的情绪	-12164
的批评	-12165
的指导	-12166
的指控	-12167
的挫折	-12168
的掣肘	-12169
的提高	-12170
的故事	-12171
的斗争	-12172
的新闻	-12173
的方针	-12174
的日益	-12175
的时期	-12176
的显著	-12177
的梦想	-12178
的欧元	-12179
的比例	-12180
的比重	-12181
的气氛	-12182
的燃料	-12183
的现状	-12184
的看法	-12185
的短期	-12186
的神经	-12187
的组织	-12188
的结构	-12189
的群众	-12190
的联合	-12191
的联盟	-12192
的联系	-12193
的血腥	-12194
的表现	-12195
的规划	-12196
的规模	-12197
的言论	-12198
的讨论	-12199
的贡献	-12200
的迅速	-12201
的运动	-12202
的退休	-12203
的选举	-12204
的逻辑	-12205
的部门	-12206
的重新	-12207
的阴影	-12208
的鼓舞	-12209
盖洛普	-12210
目的而	-12211
目睹了	-12212
直接受	-12213
相当大	-12214
相适应	-12215
看不起	-12216
着全球	-12217
短暂的	-12218
研究院	-12219
研讨会	-12220
硬实力	-12221
确实在	-12222
确实是	-12223
种族的	-12224
稳定性	-12225
穷国的	-12226
突破性	-12227
第三方	-12228
等地区	-12229
等数据	-12230
等组织	-12231
等诸多	-12232
等重要	-12233
算得上	-12234
管理层	-12235
糟糕的	-12236
系统和	-12237
系统的	-12238
紧接着	-12239
紧迫性	-12240
约旦河	-12241
纪律的	-12242
纪念日	-12243
纳伊夫	-12244
组织在	-12245
组织等	-12246
经历过	-12247
经常在	-12248
经济式	-12249
经通胀	-12250
结合了	-12251
结束后	-12252
结束的	-12253
结构和	-12254
给美国	-12255
绝不会	-12256
绝对的	-12257
统一的	-12258
继任者	-12259
缓解了	-12260
罗格夫	-12261
美元的	-12262
美国也	-12263
美国所	-12264
翻一番	-12265
老欧洲	-12266
者及其	-12267
者和被	-12268
而不去	-12269
而且还	-12270
而受到	-12271
而德国	-12272
而放弃	-12273
而新的	-12274
而这一	-12275
联盟党	-12276
联系的	-12277
聚居区	-12278
聚焦于	-12279
股公司	-12280
股利和	-12281
肯定的	-12282
肺结核	-12283
能帮助	-12284
能得到	-12285
能提供	-12286
能源署	-12287
能确保	-12288
能维持	-12289
自己在	-12290
自由地	-12291
英国人	-12292
莫缘依	-12293
菲律宾	-12294
萨拉姆	-12295
萨科齐	-12296
蒙特雷	-12297
融资源	-12298
融资的	-12299
行动者	-12300
表达的	-12301
被关进	-12302
被开发	-12303
被杀害	-12304
被确诊	-12305
被西方	-12306
要求他	-12307
要求在	-12308
要通过	-12309
要高于	-12310
覆盖率	-12311
观察到	-12312
观点的	-12313
解释的	-12314
计划将	-12315
认为的	-12316
认同的	-12317
让女性	-12318
议员们	-12319
设计的	-12320
诚挚的	-12321
该协议	-12322
说服了	-12323
请愿书	-12324
调停人	-12325
调查中	-12326
谈到了	-12327
贡献了	-12328
贡献者	-12329
财政部	-12330
购买力	-12331
资本流	-12332
资源和	-12333
资金流	-12334
赤裸裸	-12335
赶不上	-12336
身之所	-12337
身作则	-12338
身而出	-12339
较去年	-12340
边界和	-12341
达成了	-12342
迎来了	-12343
还不够	-12344
还为时	-12345
还呼吁	-12346
还是在	-12347
还是对	-12348
还远未	-12349
这一代	-12350
这一步	-12351
这不是	-12352
这两大	-12353
这两种	-12354
这么说	-12355
这只是	-12356
这本书	-12357
这笔钱	-12358
进入了	-12359
进口国	-12360
进程中	-12361
远没有	-12362
违反了	-12363
选民们	-12364
通过其	-12365
遇到了	-12366
那以后	-12367
部分的	-12368
都属于	-12369
都是不	-12370
都是些	-12371
都更加	-12372
都有着	-12373
酋长国	-12374
采取的	-12375
采访时	-12376
里斯本	-12377
里程碑	-12378
针对性	-12379
银行业	-12380
银行间	-12381
错误地	-12382
问责制	-12383
问责和	-12384
问责性	-12385
间接地	-12386
防火墙	-12387
阶段的	-12388
阻碍了	-12389
阿勒颇	-12390
阿卡兹	-12391
附加值	-12392
限制了	-12393
集中的	-12394
集会上	-12395
零利率	-12396
零开始	-12397
需要从	-12398
霍尔多	-12399
非标准	-12400
非洲也	-12401
非金融	-12402
面对面	-12403
革命性	-12404
音乐厅	-12405
预算的	-12406
预见到	-12407
领域中	-12408
领导下	-12409
食品券	-12410
饥荒和	-12411
马上就	-12412
马塔伊	-12413
驱动力	-12414
麦卡菲	-12415
麦迪逊	-12416
麻烦的	-12417
麻痹症	-12418
默克尔	-12419
,150	-12420
,60%	-12421
1.75	-12422
1200	-12423
1967	-12424
1973	-12425
1979	-12426
1986	-12427
1994	-12428
1997	-12429
1998	-12430
1999	-12431
2063	-12432
7000	-12433
9/11	-12434
AfDB	-12435
Jean	-12436
Jose	-12437
Mill	-12438
Paul	-12439
Sust	-12440
TVET	-12441
aman	-12442
anel	-12443
ange	-12444
cess	-12445
hart	-12446
olas	-12447
ower	-12448
qual	-12449
uman	-12450
vest	-12451
ynes	-12452
▁Act	-12453
▁Adv	-12454
▁Age	-12455
▁Ifo	-12456
▁中国的	-12457
▁为确保	-12458
▁互联网	-12459
▁人们对	-12460
▁他们将	-12461
▁他们还	-12462
▁传统上	-12463
▁但上述	-12464
▁但不管	-12465
▁但不要	-12466
▁但仍有	-12467
▁但因为	-12468
▁但它们	-12469
▁但是在	-12470
▁但现实	-12471
▁但至少	-12472
▁但问题	-12473
▁例如在	-12474
▁克鲁尼	-12475
▁共和党	-12476
▁其一是	-12477
▁其中有	-12478
▁其次是	-12479
▁刘晓波	-12480
▁反过来	-12481
▁另一位	-12482
▁只有当	-12483
▁唐纳德	-12484
▁因此当	-12485
▁在全球	-12486
▁在印度	-12487
▁在德国	-12488
▁在整个	-12489
▁在普京	-12490
▁在社会	-12491
▁在这次	-12492
▁委员会	-12493
▁尽管在	-12494
▁很多人	-12495
▁德国的	-12496
▁我们用	-12497
▁我告诉	-12498
▁托马斯	-12499
▁投资者	-12500
▁政客们	-12501
▁政府和	-12502
▁最近的	-12503
▁沃尔夫	-12504
▁甚至连	-12505
▁生产率	-12506
▁突尼斯	-12507
▁第一步	-12508
▁类似的	-12509
▁结果是	-12510
▁罗伯特	-12511
▁美国和	-12512
▁而其中	-12513
▁而德国	-12514
▁而这一	-12515
▁而这些	-12516
▁而随着	-12517
▁而非洲	-12518
▁蒙代尔	-12519
▁西方人	-12520
▁要保持	-12521
▁该地区	-12522
▁该报告	-12523
▁这一回	-12524
▁这不仅	-12525
▁这两个	-12526
▁这对于	-12527
▁这导致	-12528
▁这当然	-12529
▁这正是	-12530
▁通过将	-12531
一个人的	-12532
一个共同	-12533
一个拥有	-12534
一个更为	-12535
一个能够	-12536
一个阶段	-12537
一体化的	-12538
一例外地	-12539
一名女性	-12540
一场灾难	-12541
一无是处	-12542
一直处于	-12543
一直认为	-12544
万事达卡	-12545
上升趋势	-12546
上述所有	-12547
上述领域	-12548
不为人所	-12549
不仅限于	-12550
不再支持	-12551
不可不谓	-12552
不合时宜	-12553
不如说是	-12554
不断上升	-12555
不断上涨	-12556
不断升级	-12557
不断变化	-12558
不是什么	-12559
不是没有	-12560
与中国的	-12561
与土耳其	-12562
与我们的	-12563
与日俱增	-12564
专利制度	-12565
专家小组	-12566
世卫组织	-12567
世界带来	-12568
世界正在	-12569
两个方面	-12570
两国之间	-12571
严重不足	-12572
严重影响	-12573
中东地区	-12574
中东计划	-12575
中国台湾	-12576
中国国家	-12577
中国已经	-12578
中日双方	-12579
中有一半	-12580
中流砥柱	-12581
中等收入	-12582
中美两国	-12583
为代价的	-12584
为老年人	-12585
主要来自	-12586
主要问题	-12587
举行选举	-12588
久的将来	-12589
义务劳动	-12590
之一就是	-12591
之间流动	-12592
也不会被	-12593
也可以在	-12594
也可能会	-12595
也在增长	-12596
也就是说	-12597
也是一样	-12598
也有可能	-12599
也让人们	-12600
也许需要	-12601
了他们的	-12602
了数百万	-12603
亚太地区	-12604
产业政策	-12605
产品需求	-12606
产生积极	-12607
人们开始	-12608
人口数量	-12609
人口膨胀	-12610
人士论坛	-12611
人的生命	-12612
仍然需要	-12613
从中获益	-12614
从地球上	-12615
从而阻止	-12616
他们可以	-12617
他们应该	-12618
他们是否	-12619
他们的祖	-12620
他的前任	-12621
他的政权	-12622
付诸实施	-12623
付诸行动	-12624
令人印象	-12625
令人困惑	-12626
令人惊奇	-12627
令人惊讶	-12628
令人瞩目	-12629
以及改善	-12630
以及最近	-12631
以及欧洲	-12632
以及随后	-12633
以更好地	-12634
价值观和	-12635
价值观的	-12636
任重道远	-12637
企业必须	-12638
优先事项	-12639
似乎正在	-12640
但在非洲	-12641
但大部分	-12642
但并没有	-12643
作为全球	-12644
供给受限	-12645
依靠进口	-12646
促进长期	-12647
保持距离	-12648
信用增长	-12649
信用评级	-12650
信贷周期	-12651
候选人的	-12652
借来的钱	-12653
做出牺牲	-12654
做出贡献	-12655
做出选择	-12656
做得更好	-12657
做的事情	-12658
停火协议	-12659
储备银行	-12660
充分实现	-12661
充分就业	-12662
先决条件	-12663
克什米尔	-12664
克服这一	-12665
克服这些	-12666
全球体系	-12667
全球增长	-12668
全球挑战	-12669
全球粮食	-12670
公众舆论	-12671
公债水平	-12672
公共支持	-12673
公共观点	-12674
公共采购	-12675
公司部门	-12676
公平待遇	-12677
公开承认	-12678
公开表示	-12679
共同事业	-12680
共同利益	-12681
共和党和	-12682
共识中心	-12683
关于如何	-12684
关于美国	-12685
关系密切	-12686
其他物种	-12687
其他许多	-12688
其他部门	-12689
其他问题	-12690
其他领域	-12691
军事冲突	-12692
农业生产	-12693
农业部门	-12694
冰山一角	-12695
冷战结束	-12696
准确预测	-12697
减少排放	-12698
几个国家	-12699
几乎所有	-12700
出口增长	-12701
刚刚开始	-12702
利息成本	-12703
利率上升	-12704
利益集团	-12705
制定全球	-12706
加入其中	-12707
劳动力的	-12708
劳工组织	-12709
勿庸置疑	-12710
包容性的	-12711
包括美国	-12712
北京模式	-12713
北极冰层	-12714
北欧国家	-12715
北爱尔兰	-12716
医疗成本	-12717
医疗费用	-12718
十九世纪	-12719
半个世纪	-12720
单打独斗	-12721
南斯拉夫	-12722
卢旺达和	-12723
卫生服务	-12724
印度人民	-12725
印美关系	-12726
危机前的	-12727
原因在于	-12728
反之亦然	-12729
反复强调	-12730
发动战争	-12731
发展伙伴	-12732
发展方面	-12733
发挥作用	-12734
发现这些	-12735
取得胜利	-12736
取得进步	-12737
受过教育	-12738
受过良好	-12739
变得更为	-12740
变得更好	-12741
变成现实	-12742
叛乱分子	-12743
只有区区	-12744
可以作为	-12745
可以吸收	-12746
可以得到	-12747
可以接受	-12748
可以推动	-12749
可以根据	-12750
可以用来	-12751
可以确定	-12752
可以肯定	-12753
可以重新	-12754
可以降低	-12755
可持续地	-12756
可能不会	-12757
可能产生	-12758
可能会使	-12759
可能因此	-12760
可能无法	-12761
可能最终	-12762
可能有效	-12763
可能非常	-12764
可预见的	-12765
司空见惯	-12766
各国之间	-12767
各国提供	-12768
各国需要	-12769
各种各样	-12770
各行各业	-12771
合作计划	-12772
合作项目	-12773
合规成本	-12774
同时也是	-12775
同样重要	-12776
向全世界	-12777
向阿富汗	-12778
否则我们	-12779
吸引力的	-12780
和互联网	-12781
和其他人	-12782
和华盛顿	-12783
和投资者	-12784
和新技术	-12785
哈马斯和	-12786
响应措施	-12787
唾手可得	-12788
商业银行	-12789
商界领袖	-12790
因为他是	-12791
因为国际	-12792
因为过去	-12793
因为这会	-12794
困难重重	-12795
国内消费	-12796
国内经济	-12797
国家层面	-12798
国家应该	-12799
国家间的	-12800
国有银行	-12801
国民收入	-12802
国际主义	-12803
国际支持	-12804
国际收支	-12805
国际经济	-12806
国际货币	-12807
国际金融	-12808
土地使用	-12809
土地收购	-12810
土耳其和	-12811
在乌干达	-12812
在其著作	-12813
在华盛顿	-12814
在历史上	-12815
在政治上	-12816
在欧元区	-12817
在过去六	-12818
在马德里	-12819
地区冲突	-12820
地区安全	-12821
地面部队	-12822
埃伯斯塔	-12823
城市农夫	-12824
增加教育	-12825
增长前景	-12826
增长超过	-12827
增长路径	-12828
增长速度	-12829
墨西哥湾	-12830
外国投资	-12831
多元文化	-12832
多哈回合	-12833
多样性的	-12834
多长时间	-12835
大力支持	-12836
大国家党	-12837
大大减少	-12838
大学正在	-12839
大幅提高	-12840
大行其道	-12841
央行行长	-12842
失业人数	-12843
失速风险	-12844
奥巴桑乔	-12845
奥贡尼兰	-12846
女性总统	-12847
如何使用	-12848
如何处理	-12849
如何应对	-12850
如果美国	-12851
存在分歧	-12852
存在诸多	-12853
学院教授	-12854
安全威胁	-12855
安全空间	-12856
安全部门	-12857
安全问题	-12858
完全不同	-12859
完全没有	-12860
完成小学	-12861
完没了的	-12862
完美无缺	-12863
宗教领袖	-12864
官方政策	-12865
定性研究	-12866
实实在在	-12867
实现一个	-12868
实证研究	-12869
容易得多	-12870
富裕家庭	-12871
对俄关系	-12872
对欧元区	-12873
导弹防御	-12874
导致他们	-12875
将人民币	-12876
将他们的	-12877
将取决于	-12878
将在今年	-12879
就不可能	-12880
就业市场	-12881
就必然会	-12882
就是一个	-12883
就是这样	-12884
就能改善	-12885
尼古拉斯	-12886
尽管美国	-12887
层次腐败	-12888
层面上的	-12889
山共和国	-12890
工人正在	-12891
工作年龄	-12892
工作时间	-12893
工作的人	-12894
工资增长	-12895
左翼党派	-12896
已经变得	-12897
已经完全	-12898
已经导致	-12899
已经沦为	-12900
已经过去	-12901
已经过时	-12902
市场机会	-12903
市场经济	-12904
布什政府	-12905
帝国主义	-12906
帮助我们	-12907
干涉主义	-12908
平均体重	-12909
年的时间	-12910
年轻人口	-12911
年轻农民	-12912
年轻选民	-12913
并不在于	-12914
并不存在	-12915
并不总是	-12916
并不那么	-12917
并且没有	-12918
并提出了	-12919
应该利用	-12920
应该如何	-12921
开国元勋	-12922
异口同声	-12923
引人注目	-12924
引入新的	-12925
弱势群体	-12926
强劲增长	-12927
当今世界	-12928
形成妥协	-12929
征收关税	-12930
很可能会	-12931
很容易被	-12932
得到推广	-12933
微不足道	-12934
微乎其微	-12935
德累斯顿	-12936
必须成为	-12937
必须找到	-12938
必须改变	-12939
必须改善	-12940
必须通过	-12941
急剧下降	-12942
性的问题	-12943
总债务的	-12944
总统任期	-12945
总统职位	-12946
总统选举	-12947
恐怖份子	-12948
恐怖组织	-12949
恶性循环	-12950
想方设法	-12951
想象的要	-12952
意义上的	-12953
感到惊讶	-12954
感谢上帝	-12955
成立一个	-12956
我们如何	-12957
我们就能	-12958
我们希望	-12959
我们没有	-12960
我们自己	-12961
我们自身	-12962
我的预测	-12963
或许能够	-12964
战略武器	-12965
战略眼光	-12966
所出现的	-12967
所引发的	-12968
所引起的	-12969
所急需的	-12970
所提出的	-12971
才有可能	-12972
才能实现	-12973
扩大手术	-12974
承诺重新	-12975
技术创新	-12976
技术可以	-12977
技术改革	-12978
技术突破	-12979
技术转让	-12980
技能培训	-12981
投资增长	-12982
投资组合	-12983
投资计划	-12984
投资需求	-12985
抗议活动	-12986
拒绝接受	-12987
拥有共同	-12988
拯救生命	-12989
持久和平	-12990
持续下去	-12991
持续增长	-12992
持续性的	-12993
挑战方面	-12994
排除在外	-12995
控制全球	-12996
提供一个	-12997
提供免费	-12998
提供帮助	-12999
提供庇护	-13000
提供支持	-13001
收支平衡	-13002
改革后的	-13003
改革措施	-13004
改革补贴	-13005
政府可以	-13006
政府应当	-13007
政府支出	-13008
政府最近	-13009
政治事件	-13010
政治观念	-13011
政策协调	-13012
效而仿之	-13013
教育体系	-13014
教育投资	-13015
教育计划	-13016
数字技术	-13017
数量减少	-13018
整个社会	-13019
文化中心	-13020
斯里兰卡	-13021
新的问题	-13022
新闻媒体	-13023
方面发挥	-13024
无力承担	-13025
无处不在	-13026
无法承受	-13027
无论是从	-13028
日益增加	-13029
旨在通过	-13030
早期阶段	-13031
明确指出	-13032
是否愿意	-13033
是存在的	-13034
是有用的	-13035
是艾滋病	-13036
显著增长	-13037
晚些时候	-13038
更倾向于	-13039
更加关注	-13040
更加复杂	-13041
更加透明	-13042
更加重要	-13043
更广大的	-13044
曾经说过	-13045
最新研究	-13046
最有效的	-13047
最终可能	-13048
最终能够	-13049
最著名的	-13050
最贫困的	-13051
最近几年	-13052
月举行的	-13053
有多严重	-13054
有更好的	-13055
未能阻止	-13056
机会平等	-13057
机器人和	-13058
束手无策	-13059
来自底层	-13060
杯水车薪	-13061
极其困难	-13062
极端主义	-13063
某些地区	-13064
核心消费	-13065
格格不入	-13066
梦幻客机	-13067
森林采伐	-13068
欧洲人对	-13069
欧洲政治	-13070
欧盟成员	-13071
正在实现	-13072
正在导致	-13073
正在改变	-13074
正在遭受	-13075
正是如此	-13076
正统观念	-13077
正规部门	-13078
步履维艰	-13079
武装冲突	-13080
毁灭性的	-13081
每年增加	-13082
每年都有	-13083
民调显示	-13084
气候模型	-13085
水利设施	-13086
汇率弹性	-13087
没有任何	-13088
治理机构	-13089
治理模式	-13090
派基督教	-13091
流动性的	-13092
海洋保护	-13093
消极影响	-13094
消费模式	-13095
深思熟虑	-13096
混乱局面	-13097
游戏规则	-13098
潜在收益	-13099
激烈争论	-13100
激进分子	-13101
热带雨林	-13102
煤炭发电	-13103
物理学家	-13104
状况依然	-13105
独立国家	-13106
环境中的	-13107
环境以及	-13108
环境投资	-13109
现代化的	-13110
玻利维亚	-13111
理由认为	-13112
生产成本	-13113
用于制造	-13114
用于发电	-13115
由联合国	-13116
男同性恋	-13117
疫苗联盟	-13118
疾病控制	-13119
痴心妄想	-13120
癌症协会	-13121
癌症治疗	-13122
癌症诊断	-13123
的人来说	-13124
的信任和	-13125
的全球化	-13126
的全球性	-13127
的制造业	-13128
的反应是	-13129
的国家在	-13130
的增长率	-13131
的多样性	-13132
的所有者	-13133
的投票权	-13134
的报告中	-13135
的控制权	-13136
的支持率	-13137
的政治学	-13138
的政策和	-13139
的时候了	-13140
的欧洲人	-13141
的独裁者	-13142
的环境下	-13143
的经济学	-13144
的西班牙	-13145
的领导力	-13146
监管标准	-13147
监管框架	-13148
目前来看	-13149
直系亲属	-13150
相互关联	-13151
相关利益	-13152
相去甚远	-13153
眼看就要	-13154
短时间内	-13155
研究机构	-13156
研究项目	-13157
▁	-13158
的	-13159
,	-13160
。	-13161
国	-13162
在	-13163
一	-13164
是	-13165
和	-13166
人	-13167
不	-13168
这	-13169
有	-13170
—	-13171
了	-13172
为	-13173
0	-13174
年	-13175
大	-13176
们	-13177
中	-13178
以	-13179
能	-13180
会	-13181
经	-13182
政	-13183
来	-13184
对	-13185
美	-13186
家	-13187
要	-13188
、	-13189
可	-13190
洲	-13191
个	-13192
而	-13193
他	-13194
但	-13195
非	-13196
地	-13197
于	-13198
发	-13199
行	-13200
到	-13201
成	-13202
其	-13203
上	-13204
力	-13205
将	-13206
1	-13207
也	-13208
2	-13209
如	-13210
多	-13211
出	-13212
我	-13213
生	-13214
实	-13215
现	-13216
所	-13217
更	-13218
济	-13219
资	-13220
全	-13221
时	-13222
欧	-13223
业	-13224
方	-13225
些	-13226
主	-13227
性	-13228
最	-13229
利	-13230
自	-13231
过	-13232
(	-13233
)	-13234
化	-13235
就	-13236
重	-13237
之	-13238
法	-13239
得	-13240
者	-13241
因	-13242
新	-13243
长	-13244
动	-13245
民	-13246
本	-13247
并	-13248
作	-13249
机	-13250
此	-13251
“	-13252
加	-13253
”	-13254
用	-13255
世	-13256
同	-13257
增	-13258
前	-13259
与	-13260
持	-13261
制	-13262
定	-13263
都	-13264
当	-13265
问	-13266
进	-13267
e	-13268
分	-13269
事	-13270
学	-13271
斯	-13272
界	-13273
正	-13274
度	-13275
公	-13276
合	-13277
a	-13278
关	-13279
及	-13280
产	-13281
应	-13282
比	-13283
面	-13284
果	-13285
题	-13286
亚	-13287
部	-13288
下	-13289
高	-13290
样	-13291
体	-13292
需	-13293
提	-13294
相	-13295
治	-13296
后	-13297
球	-13298
理	-13299
导	-13300
无	-13301
入	-13302
尔	-13303
从	-13304
战	-13305
金	-13306
已	-13307
目	-13308
变	-13309
它	-13310
然	-13311
平	-13312
种	-13313
n	-13314
外	-13315
开	-13316
决	-13317
特	-13318
还	-13319
意	-13320
管	-13321
统	-13322
府	-13323
工	-13324
期	-13325
那	-13326
数	-13327
日	-13328
展	-13329
代	-13330
着	-13331
策	-13332
联	-13333
必	-13334
领	-13335
义	-13336
场	-13337
区	-13338
被	-13339
通	-13340
权	-13341
i	-13342
5	-13343
9	-13344
由	-13345
务	-13346
受	-13347
基	-13348
支	-13349
说	-13350
投	-13351
计	-13352
o	-13353
该	-13354
保	-13355
任	-13356
系	-13357
量	-13358
解	-13359
拉	-13360
总	-13361
许	-13362
r	-13363
率	-13364
反	-13365
明	-13366
%	-13367
元	-13368
达	-13369
际	-13370
让	-13371
没	-13372
改	-13373
内	-13374
共	-13375
去	-13376
或	-13377
起	-13378
间	-13379
议	-13380
使	-13381
市	-13382
t	-13383
社	-13384
取	-13385
助	-13386
强	-13387
结	-13388
克	-13389
造	-13390
信	-13391
选	-13392
向	-13393
教	-13394
等	-13395
认	-13396
须	-13397
盟	-13398
表	-13399
确	-13400
施	-13401
员	-13402
易	-13403
阿	-13404
只	-13405
点	-13406
3	-13407
今	-13408
未	-13409
·	-13410
巴	-13411
收	-13412
好	-13413
西	-13414
失	-13415
十	-13416
源	-13417
融	-13418
常	-13419
价	-13420
危	-13421
口	-13422
建	-13423
德	-13424
心	-13425
立	-13426
么	-13427
标	-13428
:	-13429
续	-13430
求	-13431
约	-13432
论	-13433
位	-13434
式	-13435
很	-13436
少	-13437
情	-13438
尼	-13439
至	-13440
何	-13441
争	-13442
里	-13443
程	-13444
创	-13445
安	-13446
供	-13447
够	-13448
划	-13449
普	-13450
构	-13451
两	-13452
低	-13453
设	-13454
气	-13455
银	-13456
组	-13457
活	-13458
子	-13459
科	-13460
规	-13461
4	-13462
l	-13463
术	-13464
8	-13465
农	-13466
各	-13467
预	-13468
几	-13469
且	-13470
尽	-13471
致	-13472
6	-13473
女	-13474
7	-13475
益	-13476
债	-13477
品	-13478
项	-13479
技	-13480
近	-13481
则	-13482
富	-13483
据	-13484
效	-13485
极	-13486
仅	-13487
;	-13488
马	-13489
s	-13490
影	-13491
候	-13492
亿	-13493
难	-13494
承	-13495
响	-13496
想	-13497
次	-13498
消	-13499
格	-13500
党	-13501
看	-13502
协	-13503
给	-13504
道	-13505
带	-13506
研	-13507
放	-13508
做	-13509
步	-13510
接	-13511
观	-13512
越	-13513
水	-13514
第	-13515
月	-13516
获	-13517
模	-13518
况	-13519
仍	-13520
包	-13521
D	-13522
值	-13523
服	-13524
朗	-13525
贸	-13526
革	-13527
究	-13528
身	-13529
别	-13530
即	-13531
转	-13532
始	-13533
推	-13534
直	-13535
财	-13536
色	-13537
天	-13538
.	-13539
伊	-13540
病	-13541
降	-13542
布	-13543
轻	-13544
万	-13545
小	-13546
令	-13547
育	-13548
险	-13549
交	-13550
维	-13551
识	-13552
俄	-13553
名	-13554
P	-13555
乎	-13556
势	-13557
商	-13558
类	-13559
境	-13560
引	-13561
织	-13562
足	-13563
原	-13564
手	-13565
指	-13566
显	-13567
根	-13568
罗	-13569
首	-13570
什	-13571
三	-13572
处	-13573
物	-13574
严	-13575
言	-13576
证	-13577
存	-13578
?	-13579
减	-13580
真	-13581
G	-13582
医	-13583
件	-13584
准	-13585
司	-13586
费	-13587
再	-13588
案	-13589
远	-13590
门	-13591
土	-13592
知	-13593
望	-13594
举	-13595
复	-13596
流	-13597
调	-13598
困	-13599
激	-13600
二	-13601
例	-13602
似	-13603
具	-13604
字	-13605
英	-13606
印	-13607
担	-13608
h	-13609
众	-13610
军	-13611
纳	-13612
企	-13613
己	-13614
断	-13615
兰	-13616
历	-13617
往	-13618
条	-13619
运	-13620
形	-13621
止	-13622
视	-13623
电	-13624
边	-13625
却	-13626
括	-13627
注	-13628
u	-13629
升	-13630
命	-13631
略	-13632
超	-13633
列	-13634
采	-13635
随	-13636
c	-13637
d	-13638
速	-13639
希	-13640
某	-13641
核	-13642
南	-13643
纪	-13644
税	-13645
m	-13646
把	-13647
责	-13648
缺	-13649
集	-13650
依	-13651
东	-13652
善	-13653
币	-13654
功	-13655
回	-13656
础	-13657
型	-13658
挑	-13659
疗	-13660
巨	-13661
林	-13662
每	-13663
限	-13664
T	-13665
整	-13666
话	-13667
风	-13668
环	-13669
击	-13670
否	-13671
报	-13672
文	-13673
参	-13674
贷	-13675
完	-13676
A	-13677
威	-13678
算	-13679
太	-13680
货	-13681
除	-13682
甚	-13683
示	-13684
派	-13685
移	-13686
绝	-13687
域	-13688
局	-13689
快	-13690
族	-13691
临	-13692
储	-13693
才	-13694
终	-13695
突	-13696
先	-13697
负	-13698
款	-13699
海	-13700
C	-13701
I	-13702
告	-13703
继	-13704
像	-13705
级	-13706
史	-13707
感	-13708
护	-13709
传	-13710
诺	-13711
判	-13712
排	-13713
备	-13714
官	-13715
恐	-13716
愿	-13717
贫	-13718
食	-13719
措	-13720
见	-13721
路	-13722
拥	-13723
打	-13724
压	-13725
M	-13726
g	-13727
深	-13728
紧	-13729
味	-13730
塞	-13731
谈	-13732
份	-13733
息	-13734
扩	-13735
劳	-13736
又	-13737
竞	-13738
素	-13739
双	-13740
奥	-13741
破	-13742
质	-13743
儿	-13744
态	-13745
暴	-13746
卫	-13747
思	-13748
冲	-13749
她	-13750
干	-13751
援	-13752
空	-13753
网	-13754
-	-13755
专	-13756
监	-13757
象	-13758
免	-13759
占	-13760
帮	-13761
充	-13762
容	-13763
称	-13764
考	-13765
私	-13766
委	-13767
害	-13768
退	-13769
控	-13770
衡	-13771
额	-13772
测	-13773
状	-13774
疑	-13775
卡	-13776
埃	-13777
稳	-13778
互	-13779
武	-13780
满	-13781
单	-13782
层	-13783
清	-13784
败	-13785
顿	-13786
切	-13787
哈	-13788
弱	-13789
便	-13790
验	-13791
S	-13792
邦	-13793
汗	-13794
艾	-13795
伯	-13796
图	-13797
独	-13798
营	-13799
士	-13800
《	-13801
》	-13802
兴	-13803
宣	-13804
广	-13805
迫	-13806
坦	-13807
短	-13808
石	-13809
密	-13810
滋	-13811
演	-13812
评	-13813
F	-13814
北	-13815
另	-13816
头	-13817
庭	-13818
波	-13819
离	-13820
键	-13821
优	-13822
虑	-13823
试	-13824
器	-13825
补	-13826
角	-13827
段	-13828
肯	-13829
靠	-13830
励	-13831
老	-13832
f	-13833
早	-13834
院	-13835
健	-13836
均	-13837
曾	-13838
班	-13839
赤	-13840
城	-13841
景	-13842
百	-13843
胁	-13844
针	-13845
错	-13846
y	-13847
促	-13848
坏	-13849
索	-13850
付	-13851
刺	-13852
四	-13853
端	-13854
怖	-13855
料	-13856
批	-13857
训	-13858
v	-13859
努	-13860
精	-13861
阻	-13862
障	-13863
估	-13864
择	-13865
碍	-13866
童	-13867
适	-13868
伴	-13869
央	-13870
油	-13871
群	-13872
萨	-13873
p	-13874
京	-13875
倍	-13876
塔	-13877
底	-13878
荣	-13879
停	-13880
康	-13881
繁	-13882
职	-13883
范	-13884
台	-13885
吸	-13886
束	-13887
团	-13888
温	-13889
穷	-13890
缓	-13891
苏	-13892
防	-13893
陷	-13894
著	-13895
半	-13896
夫	-13897
避	-13898
队	-13899
五	-13900
恶	-13901
潜	-13902
久	-13903
伦	-13904
妇	-13905
念	-13906
陆	-13907
你	-13908
声	-13909
症	-13910
线	-13911
述	-13912
b	-13913
伙	-13914
待	-13915
损	-13916
牙	-13917
走	-13918
遭	-13919
办	-13920
执	-13921
E	-13922
光	-13923
周	-13924
哥	-13925
禁	-13926
简	-13927
鼓	-13928
客	-13929
张	-13930
找	-13931
死	-13932
神	-13933
耳	-13934
剧	-13935
察	-13936
席	-13937
泛	-13938
缩	-13939
较	-13940
寻	-13941
疾	-13942
积	-13943
蓄	-13944
记	-13945
勒	-13946
借	-13947
刻	-13948
唯	-13949
居	-13950
急	-13951
米	-13952
讲	-13953
钱	-13954
住	-13955
胜	-13956
裁	-13957
初	-13958
宗	-13959
差	-13960
律	-13961
杂	-13962
瓦	-13963
误	-13964
趋	-13965
默	-13966
坚	-13967
配	-13968
B	-13969
乏	-13970
围	-13971
幸	-13972
查	-13973
灾	-13974
衰	-13975
讨	-13976
释	-13977
N	-13978
书	-13979
尤	-13980
汇	-13981
白	-13982
乌	-13983
刚	-13984
削	-13985
千	-13986
华	-13987
友	-13988
碳	-13989
车	-13990
习	-13991
幅	-13992
毕	-13993
烈	-13994
爱	-13995
疫	-13996
R	-13997
户	-13998
抵	-13999
杀	-14000
犯	-14001
警	-14002
房	-14003
智	-14004
献	-14005
署	-14006
虽	-14007
诊	-14008
k	-14009
奇	-14010
恰	-14011
染	-14012
留	-14013
罪	-14014
胀	-14015
脱	-14016
落	-14017
谓	-14018
买	-14019
毒	-14020
热	-14021
贝	-14022
连	-14023
卢	-14024
毫	-14025
爆	-14026
眼	-14027
节	-14028
诸	-14029
赖	-14030
听	-14031
序	-14032
良	-14033
w	-14034
伤	-14035
盖	-14036
票	-14037
竟	-14038
背	-14039
跨	-14040
追	-14041
逐	-14042
阶	-14043
青	-14044
室	-14045
签	-14046
赢	-14047
乱	-14048
亲	-14049
州	-14050
渐	-14051
游	-14052
福	-14053
置	-14054
鲁	-14055
沃	-14056
粮	-14057
黑	-14058
固	-14059
岁	-14060
异	-14061
救	-14062
架	-14063
燃	-14064
片	-14065
股	-14066
装	-14067
软	-14068
拿	-14069
穆	-14070
语	-14071
遇	-14072
乐	-14073
哪	-14074
盛	-14075
古	-14076
志	-14077
既	-14078
沙	-14079
药	-14080
购	-14081
假	-14082
启	-14083
山	-14084
征	-14085
灭	-14086
男	-14087
纽	-14088
访	-14089
养	-14090
延	-14091
洋	-14092
络	-14093
亡	-14094
归	-14095
拒	-14096
撒	-14097
敦	-14098
村	-14099
照	-14100
腐	-14101
叙	-14102
右	-14103
崛	-14104
弹	-14105
火	-14106
父	-14107
修	-14108
弃	-14109
欢	-14110
粹	-14111
裂	-14112
迪	-14113
遏	-14114
销	-14115
音	-14116
冷	-14117
含	-14118
微	-14119
斗	-14120
毁	-14121
H	-14122
侵	-14123
守	-14124
左	-14125
惊	-14126
换	-14127
森	-14128
缘	-14129
脑	-14130
覆	-14131
齐	-14132
余	-14133
媒	-14134
属	-14135
恢	-14136
托	-14137
抗	-14138
污	-14139
输	-14140
偿	-14141
号	-14142
孩	-14143
岗	-14144
峰	-14145
忽	-14146
散	-14147
朝	-14148
永	-14149
绿	-14150
花	-14151
贡	-14152
勃	-14153
售	-14154
怀	-14155
恋	-14156
患	-14157
授	-14158
摆	-14159
攻	-14160
析	-14161
母	-14162
莫	-14163
逊	-14164
阳	-14165
黎	-14166
/	-14167
典	-14168
奖	-14169
师	-14170
校	-14171
框	-14172
袭	-14173
姆	-14174
恩	-14175
捐	-14176
故	-14177
旨	-14178
累	-14179
觉	-14180
迎	-14181
露	-14182
龄	-14183
倒	-14184
允	-14185
忧	-14186
旺	-14187
残	-14188
登	-14189
茨	-14190
酒	-14191
鲜	-14192
O	-14193
尚	-14194
暖	-14195
歧	-14196
肥	-14197
腊	-14198
赞	-14199
雷	-14200
驱	-14201
倾	-14202
写	-14203
吗	-14204
培	-14205
映	-14206
替	-14207
袖	-14208
诉	-14209
迅	-14210
遍	-14211
佳	-14212
券	-14213
夺	-14214
怕	-14215
拖	-14216
浪	-14217
秘	-14218
苦	-14219
贬	-14220
帝	-14221
怒	-14222
煤	-14223
秩	-14224
贴	-14225
韩	-14226
饥	-14227
予	-14228
偏	-14229
六	-14230
呢	-14231
岛	-14232
崩	-14233
弗	-14234
怎	-14235
旧	-14236
涉	-14237
犹	-14238
站	-14239
艰	-14240
苗	-14241
零	-14242
婚	-14243
径	-14244
拜	-14245
迹	-14246
闻	-14247
J	-14248
呼	-14249
扮	-14250
振	-14251
账	-14252
迷	-14253
墨	-14254
宪	-14255
挥	-14256
昂	-14257
松	-14258
顾	-14259
享	-14260
尊	-14261
慢	-14262
板	-14263
植	-14264
洛	-14265
细	-14266
胡	-14267
邻	-14268
叶	-14269
彻	-14270
抑	-14271
折	-14272
按	-14273
敌	-14274
涨	-14275
混	-14276
督	-14277
脆	-14278
航	-14279
词	-14280
麦	-14281
伐	-14282
伟	-14283
博	-14284
悲	-14285
检	-14286
祖	-14287
答	-14288
途	-14289
丰	-14290
僚	-14291
季	-14292
掌	-14293
曼	-14294
桑	-14295
楚	-14296
焦	-14297
痛	-14298
癌	-14299
符	-14300
红	-14301
绪	-14302
荡	-14303
莱	-14304
迈	-14305
遗	-14306
丧	-14307
八	-14308
净	-14309
忍	-14310
愤	-14311
旱	-14312
滞	-14313
潘	-14314
糟	-14315
翻	-14316
舞	-14317
课	-14318
赛	-14319
距	-14320
辩	-14321
透	-14322
K	-14323
W	-14324
乔	-14325
厂	-14326
吉	-14327
喜	-14328
套	-14329
扎	-14330
旅	-14331
梦	-14332
概	-14333
笔	-14334
蒙	-14335
跌	-14336
雄	-14337
饮	-14338
L	-14339
块	-14340
惧	-14341
洁	-14342
誉	-14343
谁	-14344
句	-14345
孤	-14346
审	-14347
宽	-14348
怪	-14349
斥	-14350
木	-14351
梅	-14352
泽	-14353
溃	-14354
潮	-14355
般	-14356
诚	-14357
贵	-14358
逃	-14359
遵	-14360
铁	-14361
麻	-14362
劲	-14363
探	-14364
描	-14365
摇	-14366
氧	-14367
炭	-14368
纷	-14369
读	-14370
顶	-14371
丹	-14372
宏	-14373
廉	-14374
录	-14375
忆	-14376
惠	-14377
扰	-14378
拯	-14379
握	-14380
朋	-14381
末	-14382
沉	-14383
糕	-14384
纯	-14385
聚	-14386
逆	-14387
频	-14388
饿	-14389
鸦	-14390
z	-14391
仿	-14392
休	-14393
冒	-14394
冰	-14395
喀	-14396
园	-14397
圣	-14398
届	-14399
废	-14400
循	-14401
旦	-14402
暂	-14403
曲	-14404
材	-14405
汉	-14406
省	-14407
硬	-14408
礼	-14409
纠	-14410
翰	-14411
裕	-14412
趣	-14413
雇	-14414
七	-14415
佛	-14416
卷	-14417
吁	-14418
坛	-14419
妥	-14420
宝	-14421
射	-14422
库	-14423
座	-14424
彼	-14425
抓	-14426
树	-14427
汽	-14428
泉	-14429
漏	-14430
炸	-14431
甸	-14432
缅	-14433
翼	-14434
轮	-14435
鉴	-14436
链	-14437
震	-14438
颇	-14439
副	-14440
坎	-14441
庞	-14442
徒	-14443
捕	-14444
晰	-14445
暗	-14446
血	-14447
赋	-14448
镇	-14449
兑	-14450
卖	-14451
宜	-14452
捍	-14453
携	-14454
播	-14455
星	-14456
洪	-14457
润	-14458
灵	-14459
烟	-14460
牲	-14461
王	-14462
盈	-14463
筹	-14464
纵	-14465
菲	-14466
订	-14467
迟	-14468
隐	-14469
雅	-14470
九	-14471
凯	-14472
剥	-14473
召	-14474
御	-14475
抛	-14476
摩	-14477
春	-14478
泡	-14479
渴	-14480
熟	-14481
版	-14482
狂	-14483
瑞	-14484
艺	-14485
萧	-14486
虐	-14487
跟	-14488
雨	-14489
霍	-14490
顺	-14491
剂	-14492
契	-14493
愈	-14494
慎	-14495
掉	-14496
操	-14497
旗	-14498
柯	-14499
牺	-14500
疲	-14501
矛	-14502
练	-14503
膨	-14504
若	-14505
谋	-14506
违	-14507
阵	-14508
岸	-14509
惯	-14510
抱	-14511
招	-14512
揭	-14513
津	-14514
湾	-14515
滑	-14516
滥	-14517
疟	-14518
章	-14519
罚	-14520
蒂	-14521
裔	-14522
赶	-14523
迁	-14524
野	-14525
飞	-14526
催	-14527
叫	-14528
堂	-14529
孟	-14530
幻	-14531
戏	-14532
押	-14533
撤	-14534
柏	-14535
榜	-14536
歌	-14537
殖	-14538
河	-14539
渡	-14540
港	-14541
漫	-14542
盾	-14543
竭	-14544
萄	-14545
葡	-14546
触	-14547
讽	-14548
跃	-14549
V	-14550
叛	-14551
奉	-14552
婴	-14553
宰	-14554
巩	-14555
怨	-14556
惑	-14557
惩	-14558
扭	-14559
桥	-14560
烦	-14561
狱	-14562
胖	-14563
薪	-14564
藏	-14565
虚	-14566
请	-14567
醒	-14568
丁	-14569
仇	-14570
劣	-14571
坐	-14572
填	-14573
孙	-14574
封	-14575
屋	-14576
帕	-14577
截	-14578
杆	-14579
杰	-14580
殊	-14581
涌	-14582
渠	-14583
盘	-14584
绩	-14585
诱	-14586
轨	-14587
辑	-14588
闭	-14589
霸	-14590
韦	-14591
饱	-14592
U	-14593
j	-14594
刊	-14595
呈	-14596
垄	-14597
堪	-14598
夏	-14599
嫩	-14600
宫	-14601
履	-14602
庄	-14603
床	-14604
慑	-14605
欲	-14606
沫	-14607
沿	-14608
狭	-14609
田	-14610
综	-14611
肆	-14612
荒	-14613
街	-14614
践	-14615
辞	-14616
遥	-14617
馆	-14618
"	-14619
俗	-14620
倡	-14621
兵	-14622
刑	-14623
剑	-14624
厉	-14625
忘	-14626
戈	-14627
捷	-14628
撑	-14629
池	-14630
澳	-14631
皇	-14632
秀	-14633
耶	-14634
脚	-14635
荷	-14636
萎	-14637
辈	-14638
酷	-14639
阴	-14640
雪	-14641
驻	-14642
黄	-14643
x	-14644
乃	-14645
仰	-14646
伍	-14647
僵	-14648
兼	-14649
唐	-14650
堡	-14651
壤	-14652
尝	-14653
恨	-14654
掩	-14655
摧	-14656
敏	-14657
朴	-14658
杠	-14659
杯	-14660
泰	-14661
申	-14662
蔓	-14663
薄	-14664
谷	-14665
踪	-14666
剩	-14667
割	-14668
勾	-14669
吃	-14670
吹	-14671
垒	-14672
墙	-14673
宾	-14674
幕	-14675
弟	-14676
悖	-14677
扬	-14678
挫	-14679
敢	-14680
晚	-14681
泄	-14682
洞	-14683
涯	-14684
漠	-14685
牌	-14686
牛	-14687
甘	-14688
番	-14689
矿	-14690
篇	-14691
脏	-14692
董	-14693
讯	-14694
诞	-14695
谴	-14696
贩	-14697
赫	-14698
送	-14699
逻	-14700
锁	-14701
隘	-14702
靖	-14703
香	-14704
Y	-14705
’	-14706
丽	-14707
兹	-14708
匹	-14709
厌	-14710
厚	-14711
塑	-14712
壁	-14713
夜	-14714
宁	-14715
峻	-14716
庆	-14717
弥	-14718
慈	-14719
慨	-14720
扣	-14721
挠	-14722
欠	-14723
毛	-14724
沦	-14725
液	-14726
牢	-14727
牵	-14728
笑	-14729
筑	-14730
箭	-14731
耀	-14732
芬	-14733
草	-14734
谨	-14735
辜	-14736
辱	-14737
迄	-14738
酬	-14739
魔	-14740
伪	-14741
兄	-14742
冻	-14743
勇	-14744
吧	-14745
妙	-14746
寿	-14747
拨	-14748
欺	-14749
歉	-14750
沟	-14751
浮	-14752
玛	-14753
穿	-14754
篮	-14755
编	-14756
贯	-14757
返	-14758
附	-14759
静	-14760
颠	-14761
餐	-14762
骤	-14763
鱼	-14764
⁄	-14765
丑	-14766
乡	-14767
云	-14768
亦	-14769
亨	-14770
仔	-14771
刀	-14772
呆	-14773
坡	-14774
尘	-14775
屈	-14776
巧	-14777
店	-14778
弄	-14779
慷	-14780
披	-14781
晤	-14782
杜	-14783
枪	-14784
棘	-14785
灌	-14786
猜	-14787
珍	-14788
痴	-14789
砍	-14790
祸	-14791
虫	-14792
郎	-14793
隔	-14794
饭	-14795
~	-14796
刘	-14797
募	-14798
卓	-14799
奋	-14800
妻	-14801
廷	-14802
弈	-14803
弊	-14804
拼	-14805
挡	-14806
挣	-14807
挽	-14808
烧	-14809
瞩	-14810
碎	-14811
祝	-14812
耐	-14813
耗	-14814
舆	-14815
船	-14816
蓬	-14817
询	-14818
谢	-14819
辅	-14820
阁	-14821
陌	-14822
隆	-14823
丝	-14824
亮	-14825
介	-14826
凸	-14827
匮	-14828
卿	-14829
君	-14830
吞	-14831
吨	-14832
哀	-14833
奴	-14834
尖	-14835
惜	-14836
惨	-14837
拓	-14838
挤	-14839
擎	-14840
晋	-14841
晓	-14842
曝	-14843
横	-14844
欣	-14845
歇	-14846
沮	-14847
浅	-14848
浦	-14849
溉	-14850
煽	-14851
画	-14852
皮	-14853
稀	-14854
粉	-14855
粗	-14856
糊	-14857
糖	-14858
胆	-14859
菜	-14860
蛮	-14861
衣	-14862
衷	-14863
詹	-14864
讶	-14865
诈	-14866
豪	-14867
赚	-14868
跳	-14869
踏	-14870
载	-14871
辛	-14872
逮	-14873
钩	-14874
锡	-14875
!	-14876
Z	-14877
•	-14878
佩	-14879
侧	-14880
俱	-14881
儒	-14882
凭	-14883
坠	-14884
垫	-14885
夸	-14886
奏	-14887
妮	-14888
屠	-14889
庸	-14890
弘	-14891
忙	-14892
悔	-14893
慌	-14894
抽	-14895
拔	-14896
挂	-14897
挖	-14898
挺	-14899
捉	-14900
搞	-14901
撞	-14902
攀	-14903
敬	-14904
昆	-14905
枚	-14906
氛	-14907
泥	-14908
碰	-14909
禧	-14910
罕	-14911
耕	-14912
肃	-14913
腥	-14914
赏	-14915
逢	-14916
钻	-14917
铜	-14918
陈	-14919
靡	-14920
顽	-14921
饰	-14922
‘	-14923
丢	-14924
仪	-14925
侨	-14926
册	-14927
凡	-14928
劫	-14929
匈	-14930
囊	-14931
圈	-14932
坞	-14933
堆	-14934
奠	-14935
奢	-14936
妄	-14937
妨	-14938
嫌	-14939
寄	-14940
忠	-14941
悬	-14942
懈	-14943
戮	-14944
抬	-14945
撰	-14946
昭	-14947
枯	-14948
柱	-14949
氢	-14950
涵	-14951
溢	-14952
溯	-14953
玩	-14954
畅	-14955
疯	-14956
磨	-14957
籍	-14958
纸	-14959
绕	-14960
绘	-14961
缔	-14962
羞	-14963
聪	-14964
蚀	-14965
誓	-14966
详	-14967
豫	-14968
贿	-14969
赐	-14970
递	-14971
邀	-14972
邮	-14973
钟	-14974
铭	-14975
铺	-14976
阔	-14977
隶	-14978
雕	-14979
伏	-14980
伸	-14981
佣	-14982
侈	-14983
偶	-14984
傲	-14985
厅	-14986
咨	-14987
哲	-14988
囚	-14989
垮	-14990
堕	-14991
塌	-14992
奸	-14993
姻	-14994
娜	-14995
宅	-14996
屏	-14997
屿	-14998
崇	-14999
崭	-15000
庙	-15001
慧	-15002
慰	-15003
戒	-15004
扫	-15005
抢	-15006
拍	-15007
拢	-15008
掘	-15009
搜	-15010
摄	-15011
摸	-15012
撮	-15013
昔	-15014
曙	-15015
槿	-15016
沼	-15017
炼	-15018
爵	-15019
猛	-15020
玉	-15021
畴	-15022
皆	-15023
盲	-15024
睹	-15025
磁	-15026
祉	-15027
聆	-15028
肉	-15029
芝	-15030
莎	-15031
藉	-15032
蛋	-15033
裸	-15034
诗	-15035
谐	-15036
贪	-15037
贾	-15038
赂	-15039
赠	-15040
躁	-15041
辖	-15042
郁	-15043
钉	-15044
钦	-15045
锋	-15046
锐	-15047
阅	-15048
阱	-15049
鞋	-15050
颁	-15051
飓	-15052
飙	-15053
骗	-15054
龙	-15055
串	-15056
乘	-15057
冈	-15058
冬	-15059
勤	-15060
卜	-15061
县	-15062
咄	-15063
夕	-15064
奈	-15065
妈	-15066
娱	-15067
孔	-15068
孕	-15069
尾	-15070
彩	-15071
忌	-15072
忏	-15073
悄	-15074
悠	-15075
憾	-15076
戴	-15077
扯	-15078
扼	-15079
抨	-15080
拙	-15081
拟	-15082
拾	-15083
捞	-15084
斑	-15085
斜	-15086
斤	-15087
李	-15088
枢	-15089
柳	-15090
梁	-15091
氏	-15092
洗	-15093
浇	-15094
涛	-15095
淡	-15096
漂	-15097
狼	-15098
瑟	-15099
痕	-15100
痪	-15101
瘫	-15102
眉	-15103
睫	-15104
秋	-15105
笼	-15106
绑	-15107
绸	-15108
罩	-15109
翁	-15110
肤	-15111
胎	-15112
胞	-15113
腾	-15114
臣	-15115
臭	-15116
舍	-15117
苛	-15118
蜡	-15119
讳	-15120
诫	-15121
蹈	-15122
辙	-15123
邪	-15124
鄙	-15125
酋	-15126
酸	-15127
酿	-15128
闲	-15129
闹	-15130
霜	-15131
顷	-15132
驾	-15133
骑	-15134
魁	-15135
鸡	-15136
q	-15137
丈	-15138
乳	-15139
亏	-15140
仁	-15141
仗	-15142
侣	-15143
俑	-15144
俩	-15145
偷	-15146
冠	-15147
凝	-15148
凶	-15149
刃	-15150
勋	-15151
午	-15152
卸	-15153
厄	-15154
厢	-15155
吓	-15156
吕	-15157
吵	-15158
噩	-15159
坝	-15160
堵	-15161
夭	-15162
奔	-15163
奶	-15164
姿	-15165
娘	-15166
宿	-15167
寸	-15168
崖	-15169
巢	-15170
幽	-15171
彰	-15172
怜	-15173
惕	-15174
惮	-15175
抚	-15176
拘	-15177
挪	-15178
掀	-15179
掠	-15180
搭	-15181
敲	-15182
朱	-15183
栖	-15184
桌	-15185
档	-15186
楼	-15187
汲	-15188
汹	-15189
泊	-15190
涂	-15191
淀	-15192
滩	-15193
澜	-15194
猖	-15195
獗	-15196
琳	-15197
瓶	-15198
盆	-15199
盐	-15200
瞻	-15201
矩	-15202
稍	-15203
窃	-15204
窗	-15205
缚	-15206
罹	-15207
耻	-15208
聘	-15209
肘	-15210
肺	-15211
肾	-15212
舒	-15213
苹	-15214
茫	-15215
莽	-15216
蔽	-15217
衔	-15218
谍	-15219
谎	-15220
豁	-15221
貌	-15222
赴	-15223
躲	-15224
辍	-15225
辟	-15226
辨	-15227
逝	-15228
逼	-15229
遣	-15230
钞	-15231
钢	-15232
镑	-15233
闪	-15234
雾	-15235
飘	-15236
馈	-15237
驳	-15238
骄	-15239
骨	-15240
鬼	-15241
鼠	-15242
°	-15243
ε	-15244
乙	-15245
亩	-15246
仲	-15247
佐	-15248
冗	-15249
凌	-15250
劝	-15251
勿	-15252
卑	-15253
厦	-15254
咎	-15255
咒	-15256
咖	-15257
唤	-15258
唱	-15259
啡	-15260
喘	-15261
喝	-15262
喻	-15263
嘴	-15264
垂	-15265
壮	-15266
壳	-15267
姓	-15268
娩	-15269
嫁	-15270
寥	-15271
岌	-15272
巅	-15273
帐	-15274
庇	-15275
徊	-15276
徘	-15277
徙	-15278
悉	-15279
愚	-15280
慕	-15281
懂	-15282
戚	-15283
拱	-15284
掣	-15285
搁	-15286
摊	-15287
擅	-15288
敞	-15289
斐	-15290
旁	-15291
杉	-15292
栋	-15293
江	-15294
涅	-15295
添	-15296
渗	-15297
灯	-15298
烂	-15299
烛	-15300
牧	-15301
玷	-15302
琐	-15303
瓜	-15304
畜	-15305
疏	-15306
痹	-15307
睁	-15308
码	-15309
硅	-15310
秉	-15311
稼	-15312
窄	-15313
窘	-15314
窝	-15315
筋	-15316
箱	-15317
纲	-15318
纺	-15319
缠	-15320
罢	-15321
聊	-15322
脸	-15323
腹	-15324
芭	-15325
荐	-15326
菌	-15327
葬	-15328
蒸	-15329
蔬	-15330
薯	-15331
译	-15332
谅	-15333
谊	-15334
谬	-15335
谱	-15336
贺	-15337
踩	-15338
辆	-15339
辉	-15340
迭	-15341
逍	-15342
邓	-15343
醉	-15344
钵	-15345
锦	-15346
镜	-15347
隙	-15348
颈	-15349
颜	-15350
魂	-15351
魅	-15352
鸣	-15353
+	-15354
é	-15355
丘	-15356
井	-15357
亟	-15358
仓	-15359
伎	-15360
俘	-15361
兆	-15362
兜	-15363
凉	-15364
刷	-15365
刹	-15366
剔	-15367
匪	-15368
厘	-15369
叠	-15370
哦	-15371
哮	-15372
唾	-15373
啸	-15374
喊	-15375
喷	-15376
嘲	-15377
嚷	-15378
圆	-15379
圾	-15380
坑	-15381
垃	-15382
墉	-15383
妆	-15384
妹	-15385
姐	-15386
娃	-15387
婪	-15388
孚	-15389
宇	-15390
宠	-15391
寒	-15392
尺	-15393
尿	-15394
屡	-15395
岭	-15396
峙	-15397
川	-15398
巡	-15399
巫	-15400
幼	-15401
弯	-15402
彭	-15403
役	-15404
您	-15405
惶	-15406
愉	-15407
憧	-15408
憬	-15409
扑	-15410
扶	-15411
抹	-15412
挚	-15413
掷	-15414
揽	-15415
搬	-15416
擦	-15417
旬	-15418
旷	-15419
晦	-15420
梗	-15421
械	-15422
棒	-15423
棵	-15424
椎	-15425
槛	-15426
殃	-15427
殆	-15428
毙	-15429
汰	-15430
泪	-15431
浓	-15432
涸	-15433
淆	-15434
淘	-15435
淫	-15436
淹	-15437
湖	-15438
滚	-15439
滴	-15440
濒	-15441
灰	-15442
炎	-15443
炫	-15444
炮	-15445
焚	-15446
熄	-15447
熊	-15448
熙	-15449
熬	-15450
狐	-15451
猎	-15452
玫	-15453
玻	-15454
珀	-15455
瑰	-15456
甩	-15457
畸	-15458
瘠	-15459
盗	-15460
盼	-15461
睛	-15462
瞒	-15463
砥	-15464
碑	-15465
碗	-15466
磅	-15467
祭	-15468
租	-15469
窒	-15470
笃	-15471
筛	-15472
粒	-15473
绥	-15474
绳	-15475
缆	-15476
羽	-15477
肩	-15478
胸	-15479
脊	-15480
腿	-15481
舌	-15482
艳	-15483
芽	-15484
荼	-15485
莉	-15486
蕴	-15487
蜂	-15488
袋	-15489
裤	-15490
裨	-15491
裹	-15492
觊	-15493
觎	-15494
诅	-15495
赌	-15496
赔	-15497
跻	-15498
遴	-15499
邵	-15500
酝	-15501
铐	-15502
铰	-15503
闯	-15504
阐	-15505
霉	-15506
韧	-15507
饲	-15508
饶	-15509
驯	-15510
驰	-15511
鲍	-15512
鹰	-15513
黯	-15514
<	-15515
>	-15516
[	-15517
]	-15518
ü	-15519
–	-15520
―	-15521
‧	-15522
伞	-15523
佬	-15524
侦	-15525
侪	-15526
侮	-15527
俯	-15528
倘	-15529
倦	-15530
倪	-15531
傅	-15532
傍	-15533
兢	-15534
冉	-15535
剖	-15536
劾	-15537
勉	-15538
匆	-15539
卉	-15540
卒	-15541
厨	-15542
吊	-15543
吻	-15544
咋	-15545
啤	-15546
啻	-15547
喋	-15548
嘉	-15549
嘘	-15550
噤	-15551
嚣	-15552
埋	-15553
墅	-15554
奄	-15555
妊	-15556
姑	-15557
娠	-15558
婆	-15559
孜	-15560
孰	-15561
孱	-15562
孵	-15563
宙	-15564
宴	-15565
寡	-15566
尬	-15567
尴	-15568
尸	-15569
屑	-15570
嵌	-15571
帅	-15572
帖	-15573
帜	-15574
帷	-15575
弦	-15576
忡	-15577
恣	-15578
恭	-15579
恼	-15580
惟	-15581
惫	-15582
惹	-15583
憎	-15584
抉	-15585
拳	-15586
捆	-15587
掏	-15588
掺	-15589
插	-15590
搅	-15591
摒	-15592
摘	-15593
撕	-15594
攫	-15595
攸	-15596
敛	-15597
旋	-15598
昙	-15599
晨	-15600
晶	-15601
暮	-15602
杭	-15603
枝	-15604
枭	-15605
柄	-15606
柔	-15607
柴	-15608
栏	-15609
桃	-15610
梯	-15611
棉	-15612
棋	-15613
棍	-15614
楠	-15615
榄	-15616
橄	-15617
橙	-15618
歪	-15619
殴	-15620
毋	-15621
毗	-15622
氮	-15623
氯	-15624
汤	-15625
汪	-15626
沸	-15627
浑	-15628
浸	-15629
涡	-15630
涩	-15631
淖	-15632
渊	-15633
渺	-15634
溺	-15635
滤	-15636
潭	-15637
澄	-15638
炉	-15639
炒	-15640
烙	-15641
烬	-15642
焉	-15643
煎	-15644
熔	-15645
燎	-15646
燥	-15647
爽	-15648
牍	-15649
犬	-15650
狗	-15651
猫	-15652
珠	-15653
琉	-15654
瘤	-15655
瞬	-15656
砖	-15657
砸	-15658
硫	-15659
碌	-15660
禀	-15661
穴	-15662
窜	-15663
窟	-15664
竿	-15665
簿	-15666
粘	-15667
紊	-15668
綏	-15669
纱	-15670
绊	-15671
绌	-15672
绎	-15673
缄	-15674
罔	-15675
耿	-15676
肇	-15677
肓	-15678
肝	-15679
肠	-15680
肮	-15681
肿	-15682
脂	-15683
脉	-15684
腕	-15685
腰	-15686
膏	-15687
膝	-15688
膳	-15689
臂	-15690
艇	-15691
芜	-15692
茅	-15693
莹	-15694
萃	-15695
萌	-15696
蓝	-15697
蕾	-15698
蛇	-15699
蛊	-15700
蠢	-15701
衅	-15702
衍	-15703
衫	-15704
衬	-15705
裙	-15706
觑	-15707
讥	-15708
讧	-15709
讷	-15710
诲	-15711
诽	-15712
谜	-15713
谤	-15714
谶	-15715
豆	-15716
贼	-15717
赡	-15718
赦	-15719
趟	-15720
跑	-15721
跚	-15722
踌	-15723
踵	-15724
蹂	-15725
蹊	-15726
蹒	-15727
蹴	-15728
躇	-15729
躏	-15730
轩	-15731
轰	-15732
轴	-15733
辽	-15734
迥	-15735
逸	-15736
逾	-15737
遑	-15738
遮	-15739
郊	-15740
酗	-15741
酣	-15742
酪	-15743
醇	-15744
铝	-15745
铲	-15746
铸	-15747
锈	-15748
闷	-15749
阀	-15750
阈	-15751
陋	-15752
陶	-15753
隧	-15754
鞭	-15755
页	-15756
颂	-15757
颖	-15758
饼	-15759
驶	-15760
骂	-15761
骚	-15762
髓	-15763
鳄	-15764
鸟	-15765
鸿	-15766
鹿	-15767
黛	-15768
鼎	-15769
#	-15770
&	-15771
á	-15772
ç	-15773
è	-15774
ó	-15775
▪	-15776
丸	-15777
乍	-15778
乞	-15779
仙	-15780
伺	-15781
佯	-15782
侍	-15783
侯	-15784
俊	-15785
倭	-15786
偕	-15787
傀	-15788
僧	-15789
僻	-15790
儆	-15791
儡	-15792
兽	-15793
冀	-15794
冥	-15795
冯	-15796
凄	-15797
凑	-15798
函	-15799
凿	-15800
刨	-15801
匀	-15802
匙	-15803
匿	-15804
卧	-15805
卯	-15806
卵	-15807
厩	-15808
叉	-15809
叔	-15810
叩	-15811
叹	-15812
吝	-15813
吼	-15814
呃	-15815
呕	-15816
呛	-15817
咆	-15818
咫	-15819
咬	-15820
咳	-15821
哗	-15822
哨	-15823
哭	-15824
哺	-15825
唆	-15826
唇	-15827
唉	-15828
啊	-15829
喂	-15830
喇	-15831
喉	-15832
嘈	-15833
嘛	-15834
噪	-15835
噬	-15836
囤	-15837
囹	-15838
圄	-15839
圭	-15840
坟	-15841
坤	-15842
坷	-15843
垦	-15844
堤	-15845
墓	-15846
壑	-15847
壕	-15848
夷	-15849
夹	-15850
奎	-15851
奚	-15852
妒	-15853
妓	-15854
妖	-15855
姬	-15856
婉	-15857
媚	-15858
媲	-15859
媾	-15860
嫉	-15861
嫡	-15862
宛	-15863
寂	-15864
寅	-15865
寓	-15866
寞	-15867
寺	-15868
屎	-15869
岑	-15870
岖	-15871
岩	-15872
岿	-15873
崎	-15874
帚	-15875
帽	-15876
幺	-15877
弓	-15878
弛	-15879
弩	-15880
弭	-15881
彦	-15882
忾	-15883
怂	-15884
怠	-15885
怡	-15886
怼	-15887
恒	-15888
恙	-15889
恳	-15890
悍	-15891
悚	-15892
悟	-15893
悦	-15894
悯	-15895
惰	-15896
愧	-15897
懑	-15898
懒	-15899
戛	-15900
戾	-15901
扔	-15902
扪	-15903
扳	-15904
拈	-15905
拧	-15906
拭	-15907
拮	-15908
挞	-15909
挨	-15910
捏	-15911
捣	-15912
揪	-15913
撇	-15914
撼	-15915
攒	-15916
敝	-15917
斡	-15918
斧	-15919
昏	-15920
昨	-15921
晕	-15922
暑	-15923
朔	-15924
朵	-15925
朽	-15926
杏	-15927
杞	-15928
杨	-15929
枕	-15930
枞	-15931
枷	-15932
柿	-15933
株	-15934
桀	-15935
桩	-15936
桶	-15937
梢	-15938
梭	-15939
梳	-15940
棱	-15941
椭	-15942
榨	-15943
槽	-15944
橡	-15945
歹	-15946
毡	-15947
氓	-15948
氟	-15949
氦	-15950
汀	-15951
沈	-15952
沌	-15953
沽	-15954
沾	-15955
泌	-15956
泳	-15957
泵	-15958
泻	-15959
泾	-15960
洒	-15961
浏	-15962
浩	-15963
涎	-15964
涓	-15965
涝	-15966
淌	-15967
渔	-15968
渣	-15969
渥	-15970
渭	-15971
湃	-15972
湛	-15973
湿	-15974
溜	-15975
溶	-15976
滨	-15977
漆	-15978
漩	-15979
澎	-15980
灿	-15981
炙	-15982
烁	-15983
烤	-15984
烷	-15985
烹	-15986
焕	-15987
焰	-15988
煌	-15989
煞	-15990
熏	-15991
爪	-15992
爷	-15993
牒	-15994
牟	-15995
