<pad>	0
<s>	0
</s>	0
<unk>	0
▁t	-0
▁a	-1
in	-2
he	-3
re	-4
on	-5
▁the	-6
er	-7
at	-8
en	-9
▁c	-10
▁s	-11
an	-12
▁o	-13
es	-14
it	-15
▁w	-16
or	-17
al	-18
is	-19
▁p	-20
▁b	-21
▁in	-22
▁f	-23
ic	-24
nd	-25
ed	-26
ing	-27
▁to	-28
▁m	-29
ar	-30
ion	-31
▁of	-32
ro	-33
▁and	-34
▁d	-35
ou	-36
ent	-37
le	-38
▁th	-39
st	-40
▁e	-41
▁h	-42
▁re	-43
om	-44
il	-45
▁n	-46
ve	-47
as	-48
ly	-49
▁A	-50
▁l	-51
▁g	-52
▁be	-53
ct	-54
ut	-55
▁is	-56
ation	-57
ol	-58
▁T	-59
▁that	-60
im	-61
ce	-62
se	-63
ver	-64
▁for	-65
ra	-66
▁de	-67
ur	-68
ment	-69
ot	-70
ld	-71
ri	-72
▁I	-73
▁on	-74
id	-75
et	-76
ow	-77
ill	-78
nt	-79
▁st	-80
▁it	-81
ch	-82
ad	-83
▁pro	-84
ig	-85
▁u	-86
ir	-87
ate	-88
ul	-89
▁con	-90
ers	-91
op	-92
ore	-93
est	-94
▁as	-95
ith	-96
ity	-97
▁S	-98
▁B	-99
▁The	-100
▁–	-101
▁wh	-102
▁su	-103
▁cou	-104
ort	-105
▁are	-106
▁al	-107
her	-108
ess	-109
▁C	-110
▁ne	-111
th	-112
▁with	-113
ge	-114
ric	-115
ab	-116
ies	-117
▁E	-118
ay	-119
▁U	-120
ist	-121
▁ex	-122
▁an	-123
pe	-124
res	-125
ain	-126
con	-127
▁com	-128
am	-129
ter	-130
us	-131
ive	-132
▁we	-133
▁by	-134
▁ha	-135
▁not	-136
ci	-137
ke	-138
▁Af	-139
▁M	-140
em	-141
if	-142
and	-143
pp	-144
▁wor	-145
ust	-146
▁se	-147
▁will	-148
ac	-149
▁count	-150
▁W	-151
▁y	-152
▁have	-153
lo	-154
▁has	-155
▁le	-156
conom	-157
qu	-158
iv	-159
▁r	-160
ould	-161
um	-162
▁en	-163
▁v	-164
gh	-165
od	-166
▁he	-167
▁sh	-168
rom	-169
▁pol	-170
▁econom	-171
▁im	-172
▁ch	-173
iz	-174
▁F	-175
▁go	-176
un	-177
ap	-178
▁P	-179
ost	-180
▁at	-181
ia	-182
▁from	-183
▁more	-184
▁Afric	-185
ical	-186
ure	-187
ant	-188
art	-189
ome	-190
ries	-191
▁their	-192
▁2	-193
ans	-194
▁G	-195
▁or	-196
ions	-197
▁“	-198
os	-199
ast	-200
▁imp	-201
▁N	-202
▁countries	-203
mer	-204
ong	-205
el	-206
uro	-207
red	-208
ear	-209
ff	-210
▁inc	-211
vel	-212
row	-213
▁so	-214
▁can	-215
▁un	-216
▁res	-217
igh	-218
▁its	-219
▁int	-220
▁US	-221
▁ag	-222
end	-223
▁R	-224
▁But	-225
ther	-226
du	-227
▁In	-228
all	-229
▁20	-230
▁D	-231
▁was	-232
ak	-233
▁ad	-234
cial	-235
cc	-236
able	-237
ru	-238
ance	-239
▁cont	-240
▁ab	-241
ich	-242
ational	-243
▁than	-244
ect	-245
vern	-246
reat	-247
▁would	-248
▁year	-249
▁1	-250
▁world	-251
▁this	-252
ud	-253
▁O	-254
ult	-255
▁which	-256
▁j	-257
urope	-258
▁man	-259
bal	-260
rou	-261
▁govern	-262
ous	-263
oc	-264
ations	-265
▁Ch	-266
▁grow	-267
▁comp	-268
▁they	-269
ary	-270
pt	-271
▁Europe	-272
▁H	-273
out	-274
▁Africa	-275
▁pe	-276
ib	-277
ress	-278
▁all	-279
ign	-280
▁dis	-281
ven	-282
ard	-283
▁fin	-284
velop	-285
lobal	-286
ated	-287
ates	-288
▁Th	-289
▁whe	-290
▁rec	-291
lic	-292
▁fa	-293
ial	-294
▁part	-295
▁new	-296
▁tra	-297
▁economic	-298
ments	-299
og	-300
▁exp	-301
meric	-302
ie	-303
ip	-304
ms	-305
▁bec	-306
ry	-307
▁but	-308
ack	-309
ike	-310
▁inv	-311
for	-312
ren	-313
ark	-314
ide	-315
▁(	-316
▁do	-317
one	-318
▁polit	-319
▁J	-320
▁Chin	-321
▁Americ	-322
▁pl	-323
ub	-324
ence	-325
▁me	-326
▁out	-327
ag	-328
▁global	-329
ction	-330
▁lead	-331
age	-332
▁Un	-333
ors	-334
ople	-335
so	-336
▁other	-337
▁one	-338
▁comm	-339
▁need	-340
▁polic	-341
de	-342
▁who	-343
ight	-344
▁people	-345
▁cr	-346
ree	-347
▁develop	-348
▁reg	-349
▁been	-350
▁over	-351
▁K	-352
are	-353
▁inter	-354
▁L	-355
ank	-356
pport	-357
▁dec	-358
fic	-359
ces	-360
ime	-361
ire	-362
▁ma	-363
ition	-364
▁growth	-365
ll	-366
au	-367
our	-368
ile	-369
reas	-370
ens	-371
ities	-372
ility	-373
ern	-374
ine	-375
nder	-376
ue	-377
ower	-378
illion	-379
▁invest	-380
ose	-381
ord	-382
▁eff	-383
▁like	-384
ally	-385
▁also	-386
▁work	-387
▁China	-388
▁acc	-389
ght	-390
▁tr	-391
▁should	-392
▁most	-393
▁As	-394
▁po	-395
▁years	-396
ced	-397
ert	-398
▁must	-399
▁political	-400
ian	-401
alth	-402
▁per	-403
▁could	-404
ited	-405
ep	-406
ism	-407
▁only	-408
ident	-409
▁about	-410
ere	-411
ew	-412
▁under	-413
ob	-414
▁bet	-415
▁pre	-416
▁cons	-417
▁mark	-418
▁finan	-419
ublic	-420
▁many	-421
▁increas	-422
ise	-423
eral	-424
▁some	-425
▁ar	-426
▁rem	-427
ative	-428
ble	-429
very	-430
▁there	-431
▁government	-432
▁up	-433
▁Ind	-434
▁now	-435
▁you	-436
▁cl	-437
▁these	-438
av	-439
▁such	-440
amp	-441
▁chan	-442
▁It	-443
▁str	-444
▁even	-445
uch	-446
▁dem	-447
und	-448
▁em	-449
▁sp	-450
▁qu	-451
▁were	-452
ach	-453
▁his	-454
▁19	-455
▁long	-456
▁produ	-457
▁policy	-458
▁no	-459
▁contin	-460
low	-461
uc	-462
▁tw	-463
lect	-464
old	-465
▁te	-466
ause	-467
00	-468
▁ra	-469
▁market	-470
int	-471
form	-472
ious	-473
▁ind	-474
▁intern	-475
▁201	-476
erv	-477
▁ta	-478
▁sy	-479
▁And	-480
▁cap	-481
▁cur	-482
▁app	-483
ons	-484
ov	-485
▁far	-486
▁them	-487
cy	-488
ild	-489
ame	-490
▁co	-491
ace	-492
▁This	-493
▁country	-494
ital	-495
▁k	-496
▁St	-497
▁power	-498
vers	-499
▁may	-500
▁international	-501
ade	-502
ution	-503
▁African	-504
▁leaders	-505
we	-506
ish	-507
▁rel	-508
bt	-509
▁lar	-510
ating	-511
per	-512
arly	-513
stem	-514
resident	-515
▁support	-516
▁if	-517
▁financial	-518
gy	-519
▁cris	-520
▁into	-521
▁ac	-522
olog	-523
▁us	-524
▁what	-525
ng	-526
ory	-527
▁system	-528
▁any	-529
▁public	-530
cess	-531
▁inf	-532
▁just	-533
▁import	-534
ass	-535
▁ro	-536
ount	-537
act	-538
ful	-539
hip	-540
▁rep	-541
▁ow	-542
▁how	-543
▁ter	-544
▁when	-545
▁United	-546
▁ri	-547
▁att	-548
imate	-549
▁much	-550
▁America	-551
ks	-552
pect	-553
▁For	-554
▁time	-555
▁trans	-556
ization	-557
ics	-558
▁proble	-559
▁way	-560
▁economy	-561
ents	-562
▁two	-563
▁recent	-564
▁200	-565
▁health	-566
lp	-567
ough	-568
ind	-569
its	-570
▁prog	-571
▁ris	-572
▁help	-573
ber	-574
get	-575
ood	-576
▁act	-577
▁gen	-578
▁had	-579
ists	-580
▁pos	-581
▁am	-582
apan	-583
▁war	-584
ger	-585
lud	-586
▁prov	-587
hed	-588
ual	-589
ives	-590
ound	-591
rent	-592
ruct	-593
▁because	-594
rough	-595
▁Y	-596
read	-597
▁dif	-598
▁those	-599
▁trade	-600
▁crisis	-601
▁development	-602
ues	-603
uss	-604
▁fir	-605
.”	-606
urn	-607
ural	-608
▁Japan	-609
chn	-610
iss	-611
itt	-612
stit	-613
▁remain	-614
▁our	-615
▁fore	-616
ween	-617
▁less	-618
▁European	-619
ase	-620
ite	-621
ize	-622
▁well	-623
▁examp	-624
▁change	-625
▁bank	-626
▁$	-627
uring	-628
▁conf	-629
▁add	-630
lear	-631
▁mod	-632
allen	-633
▁great	-634
ific	-635
▁high	-636
▁between	-637
led	-638
now	-639
riv	-640
▁techn	-641
hen	-642
ond	-643
▁real	-644
ges	-645
ject	-646
orts	-647
▁cent	-648
▁again	-649
ump	-650
ible	-651
▁end	-652
▁fact	-653
▁good	-654
▁young	-655
oth	-656
▁billion	-657
▁example	-658
ove	-659
cing	-660
ok	-661
▁sol	-662
erest	-663
▁make	-664
▁EU	-665
▁own	-666
▁sec	-667
▁become	-668
ice	-669
▁fund	-670
▁On	-671
opul	-672
▁right	-673
▁current	-674
▁national	-675
ene	-676
min	-677
▁Is	-678
loy	-679
▁des	-680
▁cost	-681
ration	-682
eration	-683
▁wom	-684
ploy	-685
▁off	-686
round	-687
▁challen	-688
▁popul	-689
▁bo	-690
▁sur	-691
▁appro	-692
▁Al	-693
▁Wh	-694
ging	-695
iness	-696
ption	-697
▁debt	-698
▁commun	-699
ail	-700
ict	-701
man	-702
rib	-703
▁De	-704
▁ent	-705
▁requ	-706
ices	-707
ings	-708
▁while	-709
als	-710
ram	-711
▁ext	-712
▁sim	-713
▁investment	-714
▁adv	-715
cal	-716
sel	-717
▁ed	-718
▁sub	-719
▁important	-720
day	-721
ized	-722
utions	-723
▁where	-724
ential	-725
▁includ	-726
▁interest	-727
▁governments	-728
▁Tr	-729
▁large	-730
▁partic	-731
pl	-732
▁American	-733
xt	-734
▁ob	-735
ures	-736
ability	-737
arch	-738
▁redu	-739
▁resp	-740
vent	-741
▁Russ	-742
usiness	-743
▁technolog	-744
gest	-745
▁col	-746
▁last	-747
▁effect	-748
▁result	-749
ese	-750
ward	-751
aking	-752
▁both	-753
▁educ	-754
▁impro	-755
gan	-756
ink	-757
ater	-758
aw	-759
▁job	-760
▁sign	-761
ather	-762
▁region	-763
jor	-764
▁Se	-765
ince	-766
▁seem	-767
ici	-768
▁social	-769
ivers	-770
ready	-771
uture	-772
▁ref	-773
▁back	-774
▁pric	-775
▁today	-776
▁capital	-777
▁economies	-778
not	-779
▁serv	-780
▁indust	-781
▁through	-782
▁President	-783
fore	-784
fter	-785
ically	-786
▁ke	-787
▁pr	-788
ilit	-789
▁know	-790
▁first	-791
▁against	-792
iven	-793
over	-794
▁future	-795
own	-796
rat	-797
▁cor	-798
▁bene	-799
▁made	-800
▁already	-801
eed	-802
omm	-803
ran	-804
ergy	-805
ting	-806
▁est	-807
▁too	-808
▁dep	-809
ily	-810
ten	-811
▁ass	-812
▁set	-813
▁major	-814
ged	-815
▁If	-816
▁after	-817
▁women	-818
▁strong	-819
▁product	-820
▁business	-821
ctor	-822
▁use	-823
▁val	-824
ality	-825
▁climate	-826
uth	-827
▁To	-828
▁sa	-829
▁West	-830
▁conc	-831
li	-832
▁bu	-833
less	-834
▁mon	-835
▁state	-836
urity	-837
▁Trump	-838
▁every	-839
▁def	-840
▁That	-841
pportun	-842
stain	-843
pecial	-844
▁being	-845
▁child	-846
▁markets	-847
DP	-848
ral	-849
▁demand	-850
▁sustain	-851
ty	-852
les	-853
ared	-854
ning	-855
▁iss	-856
▁prom	-857
▁short	-858
▁States	-859
▁foreign	-860
▁lo	-861
▁does	-862
▁euro	-863
▁rese	-864
mental	-865
▁opportun	-866
abor	-867
▁Wor	-868
▁More	-869
▁cred	-870
ertain	-871
▁benef	-872
ract	-873
▁tax	-874
ron	-875
▁bas	-876
▁still	-877
,”	-878
rit	-879
iron	-880
rast	-881
▁equ	-882
▁see	-883
▁energy	-884
▁likely	-885
0%	-886
uman	-887
▁cre	-888
▁fail	-889
▁million	-890
ft	-891
ved	-892
▁We	-893
▁ev	-894
ants	-895
▁Bank	-896
▁strate	-897
▁3	-898
ays	-899
gin	-900
▁op	-901
▁sm	-902
ccess	-903
ingly	-904
▁emer	-905
▁level	-906
▁often	-907
▁es	-908
ined	-909
other	-910
▁main	-911
ending	-912
▁cannot	-913
▁instit	-914
▁take	-915
hing	-916
ieve	-917
ouse	-918
ivity	-919
▁Afgh	-920
ety	-921
▁dom	-922
▁pat	-923
▁ret	-924
▁dire	-925
▁disc	-926
▁problem	-927
▁ann	-928
▁diff	-929
▁prot	-930
▁same	-931
▁might	-932
▁stand	-933
▁Russia	-934
▁compan	-935
▁resour	-936
outh	-937
▁continent	-938
ars	-939
der	-940
ness	-941
ring	-942
▁inn	-943
▁call	-944
▁Afghan	-945
ts	-946
ered	-947
ever	-948
istan	-949
▁stud	-950
▁elect	-951
▁milit	-952
▁consum	-953
▁education	-954
ID	-955
ades	-956
term	-957
▁Ger	-958
▁aff	-959
▁arg	-960
▁mem	-961
▁neg	-962
▁food	-963
▁hist	-964
▁offic	-965
ployment	-966
ied	-967
▁Int	-968
ately	-969
viron	-970
▁priv	-971
▁rest	-972
▁agree	-973
▁defic	-974
▁particul	-975
eg	-976
ably	-977
▁few	-978
▁her	-979
▁leg	-980
▁pers	-981
▁soci	-982
▁World	-983
▁access	-984
▁success	-985
▁fam	-986
▁With	-987
▁next	-988
▁India	-989
▁creat	-990
ructure	-991
▁threat	-992
cond	-993
ually	-994
▁past	-995
ricult	-996
▁better	-997
),	-998
ck	-999
iew	-1000
▁sc	-1001
▁ins	-1002
▁med	-1003
▁put	-1004
ocrat	-1005
▁cour	-1006
▁efforts	-1007
ss	-1008
▁hig	-1009
ision	-1010
▁quest	-1011
ling	-1012
ving	-1013
▁lif	-1014
▁sci	-1015
▁states	-1016
▁5	-1017
hold	-1018
▁bel	-1019
▁move	-1020
▁At	-1021
ense	-1022
▁ens	-1023
▁imm	-1024
▁pot	-1025
inist	-1026
▁human	-1027
▁point	-1028
▁Indeed	-1029
▁without	-1030
▁military	-1031
here	-1032
oney	-1033
▁innov	-1034
▁German	-1035
rael	-1036
▁ach	-1037
▁needs	-1038
▁approach	-1039
▁including	-1040
▁el	-1041
▁ser	-1042
▁They	-1043
▁decl	-1044
▁land	-1045
▁turn	-1046
▁start	-1047
▁Israel	-1048
▁environ	-1049
▁progress	-1050
ah	-1051
ivid	-1052
▁three	-1053
▁decades	-1054
▁problems	-1055
▁research	-1056
▁security	-1057
).	-1058
com	-1059
▁my	-1060
ency	-1061
tern	-1062
▁supp	-1063
▁rates	-1064
idd	-1065
ror	-1066
ute	-1067
▁So	-1068
rial	-1069
▁did	-1070
▁ide	-1071
iscal	-1072
▁needed	-1073
ret	-1074
▁He	-1075
▁ap	-1076
ines	-1077
land	-1078
ocus	-1079
ross	-1080
lement	-1081
▁address	-1082
▁process	-1083
▁children	-1084
pr	-1085
▁GDP	-1086
▁ine	-1087
ollow	-1088
uclear	-1089
▁Union	-1090
▁money	-1091
▁since	-1092
▁around	-1093
▁account	-1094
▁services	-1095
ering	-1096
stand	-1097
▁gener	-1098
▁order	-1099
ogn	-1100
rop	-1101
ury	-1102
▁pay	-1103
▁pur	-1104
▁spe	-1105
izing	-1106
▁infl	-1107
ateral	-1108
▁focus	-1109
iti	-1110
ners	-1111
▁low	-1112
▁care	-1113
▁farm	-1114
▁prof	-1115
▁There	-1116
▁contro	-1117
▁credit	-1118
▁fiscal	-1119
ilateral	-1120
▁another	-1121
▁agricult	-1122
▁potential	-1123
▁challenges	-1124
aly	-1125
▁fac	-1126
▁hal	-1127
iving	-1128
▁then	-1129
▁president	-1130
rem	-1131
ves	-1132
▁lib	-1133
aving	-1134
▁pres	-1135
▁risk	-1136
itional	-1137
▁follow	-1138
▁private	-1139
▁resources	-1140
ner	-1141
imes	-1142
▁tar	-1143
uthor	-1144
▁trad	-1145
▁very	-1146
▁South	-1147
▁among	-1148
▁banks	-1149
▁peace	-1150
▁before	-1151
▁sector	-1152
pecially	-1153
▁Moreover	-1154
▁companies	-1155
abl	-1156
iet	-1157
oss	-1158
por	-1159
ued	-1160
▁Ab	-1161
self	-1162
▁East	-1163
▁plan	-1164
▁poss	-1165
▁suff	-1166
▁regul	-1167
▁Chinese	-1168
▁signific	-1169
ang	-1170
▁Re	-1171
▁mat	-1172
▁growing	-1173
▁improve	-1174
▁policies	-1175
▁Ob	-1176
come	-1177
▁old	-1178
▁crit	-1179
▁jobs	-1180
▁rate	-1181
▁labor	-1182
▁Intern	-1183
▁compet	-1184
ama	-1185
▁vi	-1186
most	-1187
▁sch	-1188
iddle	-1189
▁poor	-1190
▁course	-1191
▁increase	-1192
▁especially	-1193
▁UN	-1194
vere	-1195
▁199	-1196
▁One	-1197
itive	-1198
▁hard	-1199
▁play	-1200
▁costs	-1201
lection	-1202
▁higher	-1203
▁Develop	-1204
rastructure	-1205
▁significant	-1206
▁6	-1207
ick	-1208
chan	-1209
ides	-1210
road	-1211
▁clo	-1212
▁hop	-1213
▁loc	-1214
▁num	-1215
▁rev	-1216
akers	-1217
▁dist	-1218
▁prop	-1219
ficult	-1220
▁exper	-1221
▁remains	-1222
▁difficult	-1223
ix	-1224
acy	-1225
ata	-1226
ool	-1227
oti	-1228
ened	-1229
osed	-1230
reed	-1231
▁vot	-1232
▁case	-1233
▁pros	-1234
▁reas	-1235
▁const	-1236
▁expect	-1237
▁rather	-1238
▁nuclear	-1239
▁institutions	-1240
aps	-1241
ell	-1242
▁fe	-1243
ages	-1244
ases	-1245
▁key	-1246
▁opp	-1247
▁best	-1248
▁role	-1249
▁show	-1250
▁treat	-1251
ph	-1252
air	-1253
orm	-1254
▁ful	-1255
▁lim	-1256
▁tal	-1257
vious	-1258
▁find	-1259
▁clear	-1260
▁terror	-1261
▁continue	-1262
▁population	-1263
ex	-1264
cept	-1265
▁cle	-1266
▁don	-1267
anced	-1268
▁down	-1269
▁meas	-1270
makers	-1271
▁model	-1272
▁action	-1273
▁create	-1274
▁negoti	-1275
▁project	-1276
▁Afghanistan	-1277
▁infrastructure	-1278
arm	-1279
eren	-1280
ider	-1281
roup	-1282
▁get	-1283
▁form	-1284
▁simp	-1285
▁These	-1286
▁means	-1287
ibility	-1288
ird	-1289
lus	-1290
zone	-1291
▁free	-1292
▁half	-1293
▁view	-1294
▁author	-1295
ork	-1296
ted	-1297
▁car	-1298
ively	-1299
▁mult	-1300
▁ensure	-1301
▁prices	-1302
pid	-1303
rug	-1304
▁av	-1305
bers	-1306
pite	-1307
▁beh	-1308
▁law	-1309
▁non	-1310
▁Iran	-1311
▁When	-1312
▁come	-1313
ission	-1314
▁organ	-1315
▁concern	-1316
▁require	-1317
▁benefits	-1318
▁official	-1319
▁4	-1320
▁ur	-1321
reen	-1322
▁big	-1323
▁eng	-1324
▁she	-1325
ently	-1326
erent	-1327
estic	-1328
▁weak	-1329
ording	-1330
▁build	-1331
▁group	-1332
▁press	-1333
▁share	-1334
▁establ	-1335
▁others	-1336
▁reform	-1337
▁rights	-1338
▁Western	-1339
▁conflic	-1340
IDS	-1341
acc	-1342
oun	-1343
rate	-1344
▁appe	-1345
▁happ	-1346
▁home	-1347
▁inst	-1348
▁viol	-1349
ention	-1350
▁least	-1351
▁recogn	-1352
▁within	-1353
▁protect	-1354
▁respons	-1355
0,	-1356
ath	-1357
ban	-1358
▁run	-1359
ining	-1360
ished	-1361
▁Comm	-1362
▁cond	-1363
▁lack	-1364
itions	-1365
verage	-1366
▁integ	-1367
▁requi	-1368
▁experi	-1369
▁toward	-1370
▁greater	-1371
▁community	-1372
▁relations	-1373
up	-1374
▁V	-1375
ians	-1376
imin	-1377
▁data	-1378
urther	-1379
▁Obama	-1380
▁never	-1381
▁seems	-1382
▁systems	-1383
▁whether	-1384
▁question	-1385
ium	-1386
oll	-1387
▁bl	-1388
▁Dem	-1389
▁inde	-1390
▁small	-1391
▁control	-1392
▁industrial	-1393
▁Development	-1394
ug	-1395
akes	-1396
▁War	-1397
▁ago	-1398
▁par	-1399
▁rise	-1400
inister	-1401
▁almost	-1402
▁commit	-1403
▁productivity	-1404
rab	-1405
ush	-1406
▁gu	-1407
ends	-1408
▁dev	-1409
▁ric	-1410
▁meet	-1411
▁comple	-1412
▁Germany	-1413
▁different	-1414
wh	-1415
ned	-1416
▁ca	-1417
▁er	-1418
ased	-1419
ield	-1420
oint	-1421
▁bal	-1422
▁dri	-1423
▁yet	-1424
ising	-1425
▁coop	-1426
▁While	-1427
▁during	-1428
▁certain	-1429
▁provide	-1430
▁eurozone	-1431
▁developing	-1432
▁increasingly	-1433
▁gr	-1434
reng	-1435
▁Yet	-1436
▁cit	-1437
▁vis	-1438
▁why	-1439
▁char	-1440
idence	-1441
▁initi	-1442
uel	-1443
▁By	-1444
▁Fr	-1445
▁aid	-1446
▁ant	-1447
ening	-1448
forms	-1449
where	-1450
▁life	-1451
▁areas	-1452
▁local	-1453
▁direct	-1454
▁enough	-1455
▁central	-1456
▁contrib	-1457
20	-1458
cies	-1459
racy	-1460
tain	-1461
▁Pro	-1462
▁eas	-1463
ances	-1464
ittle	-1465
▁unem	-1466
minist	-1467
▁After	-1468
▁given	-1469
agement	-1470
issions	-1471
▁streng	-1472
▁however	-1473
▁strateg	-1474
▁workers	-1475
▁leadership	-1476
uf	-1477
ave	-1478
cent	-1479
onal	-1480
▁cut	-1481
▁sug	-1482
ators	-1483
▁Arab	-1484
▁pred	-1485
▁force	-1486
▁think	-1487
▁inform	-1488
▁target	-1489
▁society	-1490
▁domestic	-1491
yn	-1492
put	-1493
▁ph	-1494
ying	-1495
▁Put	-1496
▁Asia	-1497
▁Even	-1498
▁gain	-1499
▁hand	-1500
ession	-1501
▁bring	-1502
▁across	-1503
▁income	-1504
▁necess	-1505
▁univers	-1506
▁election	-1507
▁spending	-1508
▁technology	-1509
ON	-1510
▁An	-1511
anda	-1512
ards	-1513
ceed	-1514
duct	-1515
verty	-1516
▁Brit	-1517
▁deep	-1518
▁used	-1519
▁longer	-1520
▁poverty	-1521
▁serious	-1522
▁emerging	-1523
▁politics	-1524
▁increased	-1525
▁sustainable	-1526
▁particularly	-1527
▁la	-1528
▁sk	-1529
▁Rep	-1530
▁Tur	-1531
▁ren	-1532
▁say	-1533
▁tri	-1534
order	-1535
▁slow	-1536
▁step	-1537
▁citiz	-1538
▁found	-1539
▁common	-1540
▁little	-1541
▁return	-1542
▁Nations	-1543
▁achieve	-1544
▁partners	-1545
▁challenge	-1546
▁policymakers	-1547
▁fl	-1548
ivil	-1549
orth	-1550
▁net	-1551
▁pri	-1552
ufact	-1553
▁camp	-1554
▁dest	-1555
▁face	-1556
▁mean	-1557
icient	-1558
▁allow	-1559
▁simil	-1560
▁water	-1561
▁levels	-1562
▁modern	-1563
▁reason	-1564
▁second	-1565
▁liberal	-1566
▁administ	-1567
▁opportunities	-1568
ead	-1569
ins	-1570
yond	-1571
▁Con	-1572
▁enc	-1573
▁led	-1574
▁tot	-1575
etary	-1576
▁rapid	-1577
▁value	-1578
ression	-1579
▁France	-1580
▁issues	-1581
▁reduce	-1582
▁school	-1583
▁suggest	-1584
▁regional	-1585
▁understand	-1586
▁opportunity	-1587
000	-1588
eria	-1589
haps	-1590
sequ	-1591
▁tru	-1592
▁Putin	-1593
▁house	-1594
ocratic	-1595
olution	-1596
▁attack	-1597
▁extrem	-1598
▁rising	-1599
▁wealth	-1600
▁manufact	-1601
hes	-1602
oura	-1603
rams	-1604
reak	-1605
▁occ	-1606
▁oil	-1607
▁top	-1608
ither	-1609
▁coll	-1610
▁hold	-1611
gether	-1612
selves	-1613
though	-1614
illions	-1615
vention	-1616
▁Global	-1617
▁histor	-1618
▁itself	-1619
▁report	-1620
▁further	-1621
▁reflect	-1622
▁recently	-1623
▁together	-1624
▁generation	-1625
ai	-1626
ash	-1627
ier	-1628
ior	-1629
set	-1630
▁Sp	-1631
ills	-1632
▁him	-1633
▁comb	-1634
▁ever	-1635
▁lear	-1636
atives	-1637
▁7	-1638
iod	-1639
ler	-1640
ised	-1641
king	-1642
▁Nig	-1643
▁rul	-1644
udget	-1645
▁fuel	-1646
▁mass	-1647
▁oper	-1648
▁civil	-1649
▁price	-1650
▁deficit	-1651
▁individ	-1652
▁reforms	-1653
▁working	-1654
ims	-1655
uge	-1656
▁wr	-1657
aign	-1658
atic	-1659
▁New	-1660
▁air	-1661
▁che	-1662
▁tem	-1663
aster	-1664
▁AIDS	-1665
▁caus	-1666
▁ways	-1667
▁broad	-1668
▁fight	-1669
▁month	-1670
▁number	-1671
▁provid	-1672
▁largest	-1673
▁maintain	-1674
▁agreement	-1675
▁implement	-1676
▁investments	-1677
az	-1678
ee	-1679
enda	-1680
lain	-1681
▁gra	-1682
anger	-1683
ences	-1684
▁begin	-1685
▁reach	-1686
▁terms	-1687
▁total	-1688
▁repres	-1689
▁though	-1690
▁campaign	-1691
▁citizens	-1692
▁programs	-1693
▁governance	-1694
▁technologies	-1695
te	-1696
▁8	-1697
ake	-1698
▁Acc	-1699
ature	-1700
ortun	-1701
▁look	-1702
▁thus	-1703
▁lives	-1704
▁budget	-1705
▁Africans	-1706
▁individual	-1707
▁unemployment	-1708
▁environmental	-1709
gn	-1710
io	-1711
mm	-1712
▁sl	-1713
▁All	-1714
▁bor	-1715
▁mar	-1716
rency	-1717
▁Part	-1718
▁What	-1719
▁each	-1720
▁hope	-1721
▁sour	-1722
▁alone	-1723
▁early	-1724
▁former	-1725
▁century	-1726
▁developed	-1727
oh	-1728
ys	-1729
key	-1730
raq	-1731
▁$1	-1732
then	-1733
▁met	-1734
acity	-1735
ought	-1736
▁Iraq	-1737
▁Kore	-1738
▁deal	-1739
▁left	-1740
▁rich	-1741
ocracy	-1742
uation	-1743
▁scient	-1744
▁simply	-1745
▁finance	-1746
ortunately	-1747
▁International	-1748
.5	-1749
ton	-1750
way	-1751
▁Be	-1752
▁Go	-1753
ways	-1754
▁dou	-1755
▁min	-1756
▁mob	-1757
▁unc	-1758
ledge	-1759
▁2008	-1760
▁cult	-1761
▁fall	-1762
▁five	-1763
▁open	-1764
▁deter	-1765
▁pract	-1766
ilities	-1767
▁Turkey	-1768
▁entire	-1769
▁struct	-1770
▁encoura	-1771
▁program	-1772
▁Republic	-1773
▁possible	-1774
▁strategy	-1775
▁investors	-1776
▁innovation	-1777
any	-1778
lam	-1779
ched	-1780
wide	-1781
▁Ken	-1782
▁abs	-1783
▁tre	-1784
▁Some	-1785
▁able	-1786
▁dise	-1787
▁post	-1788
▁rece	-1789
ederal	-1790
erence	-1791
reedom	-1792
▁prior	-1793
▁called	-1794
▁impact	-1795
▁believe	-1796
▁created	-1797
▁similar	-1798
▁conflict	-1799
▁production	-1800
▁strengthen	-1801
bon	-1802
ili	-1803
pro	-1804
▁Cl	-1805
irst	-1806
ming	-1807
rime	-1808
ront	-1809
▁ess	-1810
force	-1811
veral	-1812
▁Cong	-1813
▁fear	-1814
▁shif	-1815
▁stat	-1816
▁want	-1817
▁goods	-1818
▁issue	-1819
▁lower	-1820
▁place	-1821
▁expand	-1822
▁promot	-1823
▁effects	-1824
▁history	-1825
▁members	-1826
▁Japanese	-1827
▁communities	-1828
▁consumption	-1829
lf	-1830
rag	-1831
port	-1832
▁198	-1833
arent	-1834
aring	-1835
ctors	-1836
▁coal	-1837
▁head	-1838
▁Islam	-1839
▁funda	-1840
▁invol	-1841
▁leading	-1842
▁consider	-1843
▁violence	-1844
▁cooperation	-1845
▁Sy	-1846
like	-1847
onse	-1848
▁Fin	-1849
▁age	-1850
▁deb	-1851
▁saf	-1852
iting	-1853
▁adop	-1854
▁full	-1855
▁vict	-1856
icians	-1857
▁green	-1858
ruction	-1859
▁annual	-1860
▁effort	-1861
▁family	-1862
▁living	-1863
▁making	-1864
▁period	-1865
▁regard	-1866
▁saving	-1867
▁Minister	-1868
▁advanced	-1869
▁measures	-1870
▁requires	-1871
▁establish	-1872
▁themselves	-1873
rid	-1874
ris	-1875
ntil	-1876
▁Eth	-1877
▁aut	-1878
▁fav	-1879
▁mor	-1880
based	-1881
itted	-1882
▁else	-1883
▁four	-1884
▁based	-1885
▁whose	-1886
conomic	-1887
▁danger	-1888
▁values	-1889
igration	-1890
▁consequ	-1891
▁prevent	-1892
▁prosper	-1893
▁increasing	-1894
▁manufacturing	-1895
iop	-1896
ock	-1897
iagn	-1898
lows	-1899
▁Pol	-1900
▁Sec	-1901
▁cho	-1902
▁emb	-1903
▁ten	-1904
atory	-1905
oment	-1906
▁sure	-1907
▁boost	-1908
▁cause	-1909
▁funds	-1910
▁super	-1911
▁beyond	-1912
▁corpor	-1913
▁depend	-1914
▁Nigeria	-1915
▁average	-1916
▁science	-1917
▁expected	-1918
▁relative	-1919
▁response	-1920
▁effective	-1921
▁household	-1922
▁inflation	-1923
▁interests	-1924
▁transform	-1925
▁agriculture	-1926
0’	-1927
▁9	-1928
ean	-1929
iqu	-1930
the	-1931
▁NE	-1932
▁Of	-1933
▁ty	-1934
care	-1935
omet	-1936
▁vul	-1937
aging	-1938
alest	-1939
ients	-1940
▁Cent	-1941
▁fert	-1942
▁keep	-1943
▁prim	-1944
▁test	-1945
▁assum	-1946
▁estim	-1947
▁inequ	-1948
▁times	-1949
▁youth	-1950
iveness	-1951
▁Ethiop	-1952
▁incent	-1953
▁balance	-1954
▁despite	-1955
▁farmers	-1956
▁freedom	-1957
▁several	-1958
▁capacity	-1959
▁According	-1960
▁Americans	-1961
▁attention	-1962
▁emissions	-1963
▁administration	-1964
0.	-1965
lev	-1966
urd	-1967
▁ru	-1968
,000	-1969
imul	-1970
▁del	-1971
▁ear	-1972
▁exc	-1973
ified	-1974
ories	-1975
rought	-1976
▁accept	-1977
▁always	-1978
▁ability	-1979
▁predict	-1980
▁evidence	-1981
▁particip	-1982
▁knowledge	-1983
▁solutions	-1984
▁employment	-1985
▁successful	-1986
▁agricultural	-1987
ify	-1988
raw	-1989
sid	-1990
▁Ag	-1991
cale	-1992
cipl	-1993
onst	-1994
ream	-1995
▁cla	-1996
▁sit	-1997
ordin	-1998
▁Fund	-1999
▁done	-2000
▁dram	-2001
▁fram	-2002
▁said	-2003
▁becom	-2004
▁corru	-2005
▁party	-2006
▁Middle	-2007
▁moment	-2008
▁stimul	-2009
▁willing	-2010
▁projects	-2011
▁essential	-2012
▁standards	-2013
▁particular	-2014
▁Sh	-2015
aged	-2016
ived	-2017
nect	-2018
▁Res	-2019
▁2014	-2020
▁Such	-2021
▁Korea	-2022
▁avail	-2023
▁belie	-2024
▁break	-2025
▁oppos	-2026
▁Palest	-2027
▁agenda	-2028
▁powerful	-2029
▁previous	-2030
▁financing	-2031
▁necessary	-2032
▁uncertain	-2033
oz	-2034
ya	-2035
ale	-2036
equ	-2037
osp	-2038
pan	-2039
▁jo	-2040
ahar	-2041
erve	-2042
ored	-2043
▁mov	-2044
arian	-2045
rated	-2046
rench	-2047
▁doll	-2048
▁link	-2049
▁lost	-2050
▁stop	-2051
▁close	-2052
▁influ	-2053
▁sense	-2054
▁groups	-2055
▁vulner	-2056
▁demonst	-2057
▁funding	-2058
▁largely	-2059
▁perform	-2060
▁perhaps	-2061
▁produce	-2062
▁environment	-2063
ls	-2064
edi	-2065
ets	-2066
reg	-2067
olar	-2068
wise	-2069
▁NEW	-2070
▁nor	-2071
ensus	-2072
▁Syri	-2073
▁anti	-2074
▁disp	-2075
▁laun	-2076
▁live	-2077
▁prin	-2078
▁purs	-2079
▁term	-2080
▁true	-2081
▁clean	-2082
▁firms	-2083
▁makes	-2084
▁risks	-2085
▁trend	-2086
▁affect	-2087
▁borrow	-2088
▁export	-2089
▁forces	-2090
▁skills	-2091
▁sovere	-2092
iversity	-2093
▁changes	-2094
ification	-2095
▁deficits	-2096
▁pressure	-2097
▁relationship	-2098
go	-2099
urs	-2100
▁ce	-2101
line	-2102
rodu	-2103
▁Bar	-2104
▁blo	-2105
▁dam	-2106
▁emp	-2107
▁nar	-2108
ender	-2109
▁deli	-2110
▁huge	-2111
▁weap	-2112
▁decis	-2113
▁domin	-2114
▁media	-2115
▁subst	-2116
utional	-2117
▁French	-2118
▁decade	-2119
▁unlike	-2120
izations	-2121
▁exports	-2122
▁extreme	-2123
▁popular	-2124
▁Congress	-2125
▁trillion	-2126
▁commitment	-2127
▁conditions	-2128
▁information	-2129
1,	-2130
▁Z	-2131
ape	-2132
igr	-2133
▁1.	-2134
▁AI	-2135
▁Ad	-2136
emic	-2137
oday	-2138
pend	-2139
side	-2140
ember	-2141
▁conv	-2142
▁drug	-2143
▁word	-2144
ensive	-2145
ressed	-2146
▁Alger	-2147
▁favor	-2148
▁legit	-2149
▁third	-2150
▁framew	-2151
▁taking	-2152
▁complex	-2153
▁constit	-2154
▁respect	-2155
▁Ethiopia	-2156
▁monetary	-2157
▁position	-2158
▁represent	-2159
OR	-2160
by	-2161
ari	-2162
cul	-2163
lom	-2164
▁Le	-2165
▁Or	-2166
▁br	-2167
ises	-2168
ourn	-2169
rain	-2170
▁How	-2171
▁agg	-2172
▁day	-2173
▁dig	-2174
▁ill	-2175
▁und	-2176
verse	-2177
▁Cons	-2178
▁Gree	-2179
▁kind	-2180
▁once	-2181
change	-2182
ctions	-2183
retary	-2184
▁Today	-2185
▁owing	-2186
▁reven	-2187
▁rules	-2188
▁coming	-2189
▁nearly	-2190
▁severe	-2191
▁banking	-2192
▁introdu	-2193
▁currency	-2194
▁decision	-2195
▁industry	-2196
▁bilateral	-2197
▁democracy	-2198
▁strategic	-2199
▁terrorism	-2200
▁fundamental	-2201
▁traditional	-2202
lt	-2203
dom	-2204
els	-2205
oid	-2206
rep	-2207
▁Ar	-2208
▁cy	-2209
ired	-2210
pped	-2211
▁197	-2212
▁cat	-2213
▁opt	-2214
alled	-2215
arily	-2216
arter	-2217
overy	-2218
while	-2219
▁2015	-2220
▁argu	-2221
▁mind	-2222
itable	-2223
ocrats	-2224
▁Italy	-2225
▁somet	-2226
▁design	-2227
▁member	-2228
▁middle	-2229
▁regime	-2230
▁benefit	-2231
▁positive	-2232
▁stronger	-2233
▁elections	-2234
ze	-2235
han	-2236
icy	-2237
omb	-2238
udi	-2239
aken	-2240
ighb	-2241
vest	-2242
▁Mon	-2243
▁fri	-2244
cific	-2245
comes	-2246
▁2000	-2247
▁clos	-2248
▁news	-2249
▁prep	-2250
▁prob	-2251
lation	-2252
▁Prime	-2253
▁achie	-2254
▁activ	-2255
▁began	-2256
▁ident	-2257
▁quick	-2258
▁behind	-2259
▁things	-2260
▁voters	-2261
▁explain	-2262
▁massive	-2263
▁nothing	-2264
▁quality	-2265
▁weapons	-2266
▁millions	-2267
▁outcomes	-2268
▁solution	-2269
▁students	-2270
▁currently	-2271
▁prosperity	-2272
▁integration	-2273
cl	-2274
imed	-2275
ison	-2276
ured	-2277
▁bad	-2278
▁suc	-2279
▁win	-2280
▁sett	-2281
ustain	-2282
▁death	-2283
▁ideas	-2284
▁indic	-2285
▁older	-2286
▁study	-2287
▁twent	-2288
▁urban	-2289
imately	-2290
▁altern	-2291
▁expert	-2292
▁matter	-2293
▁supply	-2294
▁collect	-2295
▁succeed	-2296
▁Although	-2297
▁Palestin	-2298
▁movement	-2299
▁officials	-2300
▁stability	-2301
▁experience	-2302
▁management	-2303
▁politicians	-2304
▁multilateral	-2305
▁organizations	-2306
CD	-2307
DB	-2308
be	-2309
of	-2310
to	-2311
cip	-2312
oks	-2313
▁EC	-2314
iter	-2315
just	-2316
ogra	-2317
▁Now	-2318
▁ask	-2319
▁ori	-2320
ended	-2321
istic	-2322
onald	-2323
▁2017	-2324
▁rule	-2325
▁soon	-2326
▁wide	-2327
▁surpr	-2328
▁truth	-2329
▁wrong	-2330
▁Indian	-2331
▁afford	-2332
▁amount	-2333
▁leader	-2334
▁really	-2335
▁societ	-2336
▁constra	-2337
▁obvious	-2338
▁sectors	-2339
▁compared	-2340
▁improved	-2341
▁additional	-2342
▁structural	-2343
ik	-2344
mb	-2345
erb	-2346
use	-2347
▁Ge	-2348
alib	-2349
ange	-2350
empt	-2351
hers	-2352
ival	-2353
mark	-2354
soci	-2355
ynam	-2356
▁Sim	-2357
▁bar	-2358
▁nat	-2359
▁rat	-2360
▁vol	-2361
Sahar	-2362
ented	-2363
▁Many	-2364
▁fast	-2365
▁loss	-2366
▁name	-2367
▁sing	-2368
▁stri	-2369
ipolar	-2370
▁First	-2371
▁North	-2372
▁above	-2373
▁class	-2374
▁comes	-2375
▁drive	-2376
▁exist	-2377
Saharan	-2378
▁highly	-2379
▁subsid	-2380
▁decline	-2381
▁disorder	-2382
▁products	-2383
▁recession	-2384
▁authorities	-2385
▁consequences	-2386
▁responsibility	-2387
ox	-2388
cil	-2389
rad	-2390
▁Rw	-2391
down	-2392
rely	-2393
▁May	-2394
▁eth	-2395
▁lat	-2396
iplom	-2397
▁bord	-2398
▁city	-2399
▁goal	-2400
▁mess	-2401
ograph	-2402
ortion	-2403
▁Spain	-2404
▁along	-2405
▁analy	-2406
▁divid	-2407
▁dynam	-2408
▁journ	-2409
▁poore	-2410
istance	-2411
▁Second	-2412
▁failed	-2413
▁neighb	-2414
▁attract	-2415
▁counter	-2416
▁discuss	-2417
▁special	-2418
▁creation	-2419
▁Secretary	-2420
▁worldwide	-2421
fortunately	-2422
ev	-2423
agn	-2424
▁Sw	-2425
▁hy	-2426
cise	-2427
know	-2428
▁Mus	-2429
▁amb	-2430
▁art	-2431
▁cru	-2432
▁ign	-2433
▁obs	-2434
▁san	-2435
▁ult	-2436
light	-2437
oviet	-2438
owers	-2439
▁boom	-2440
▁repl	-2441
▁self	-2442
aliban	-2443
income	-2444
ounced	-2445
▁Syria	-2446
▁argue	-2447
▁doing	-2448
▁relig	-2449
▁resol	-2450
▁until	-2451
▁Rwanda	-2452
▁argued	-2453
▁crises	-2454
▁debate	-2455
▁output	-2456
▁Russian	-2457
▁Taliban	-2458
▁Internet	-2459
▁electric	-2460
▁majority	-2461
▁substant	-2462
▁agreements	-2463
▁inequality	-2464
▁transition	-2465
▁negotiations	-2466
TO	-2467
sw	-2468
cer	-2469
fer	-2470
ony	-2471
ott	-2472
ozy	-2473
val	-2474
▁sw	-2475
aced	-2476
head	-2477
hood	-2478
osov	-2479
requ	-2480
rict	-2481
▁Ham	-2482
▁Per	-2483
▁mut	-2484
ially	-2485
lying	-2486
rying	-2487
▁Mean	-2488
▁held	-2489
▁path	-2490
▁rein	-2491
▁vacc	-2492
arkozy	-2493
making	-2494
ternal	-2495
▁Kosov	-2496
▁event	-2497
▁goals	-2498
▁grand	-2499
▁imper	-2500
▁solar	-2501
▁woman	-2502
ptember	-2503
▁carbon	-2504
▁critic	-2505
▁donors	-2506
▁indeed	-2507
▁source	-2508
▁British	-2509
▁warming	-2510
▁competit	-2511
▁experien	-2512
▁Democrats	-2513
▁Meanwhile	-2514
▁Commission	-2515
▁incentives	-2516
▁industries	-2517
▁initiative	-2518
▁performance	-2519
%,	-2520
IN	-2521
ma	-2522
ne	-2523
-20	-2524
cut	-2525
elt	-2526
lia	-2527
ols	-2528
ots	-2529
rel	-2530
ung	-2531
▁15	-2532
▁18	-2533
▁NA	-2534
▁Ug	-2535
crib	-2536
exic	-2537
gypt	-2538
hest	-2539
lies	-2540
rade	-2541
rugg	-2542
▁Abe	-2543
▁Can	-2544
▁Des	-2545
▁Sub	-2546
▁adm	-2547
▁deg	-2548
▁fem	-2549
▁mis	-2550
▁red	-2551
▁Bush	-2552
▁Like	-2553
▁acad	-2554
▁feel	-2555
▁give	-2556
▁mort	-2557
▁opin	-2558
▁pass	-2559
▁poll	-2560
▁surv	-2561
▁trou	-2562
called	-2563
eneral	-2564
ension	-2565
lusion	-2566
▁Egypt	-2567
▁extra	-2568
▁gains	-2569
▁later	-2570
▁renew	-2571
▁taken	-2572
account	-2573
▁Soviet	-2574
▁immedi	-2575
▁object	-2576
▁origin	-2577
▁powers	-2578
▁strugg	-2579
▁Britain	-2580
▁Sarkozy	-2581
▁attacks	-2582
▁disease	-2583
▁include	-2584
▁parties	-2585
▁results	-2586
ustainable	-2587
▁Europeans	-2588
▁September	-2589
▁direction	-2590
▁elsewhere	-2591
▁framework	-2592
▁situation	-2593
▁societies	-2594
▁sovereign	-2595
▁corruption	-2596
▁Unfortunately	-2597
CA	-2598
ORK	-2599
aid	-2600
att	-2601
auc	-2602
het	-2603
hib	-2604
iff	-2605
leg	-2606
lin	-2607
ody	-2608
▁$2	-2609
▁No	-2610
▁ve	-2611
erty	-2612
itud	-2613
osis	-2614
part	-2615
rust	-2616
ters	-2617
work	-2618
▁ECB	-2619
▁Lib	-2620
▁Par	-2621
▁den	-2622
▁fix	-2623
erate	-2624
ously	-2625
▁King	-2626
▁Musl	-2627
▁YORK	-2628
▁miss	-2629
▁seen	-2630
▁House	-2631
▁Mexic	-2632
▁Other	-2633
▁cheap	-2634
▁field	-2635
▁words	-2636
ception	-2637
itarian	-2638
▁diplom	-2639
▁having	-2640
▁single	-2641
▁Algeria	-2642
▁borders	-2643
▁clearly	-2644
▁failure	-2645
▁helping	-2646
▁reality	-2647
▁regions	-2648
▁respond	-2649
▁contrast	-2650
▁exchange	-2651
▁prospect	-2652
▁reducing	-2653
▁certainly	-2654
▁continues	-2655
▁businesses	-2656
▁partnership	-2657
oy	-2658
app	-2659
enn	-2660
fin	-2661
▁En	-2662
▁ut	-2663
ator	-2664
fall	-2665
ites	-2666
omen	-2667
rist	-2668
uing	-2669
▁Fed	-2670
▁Net	-2671
▁Pak	-2672
▁era	-2673
▁gir	-2674
▁men	-2675
▁mot	-2676
▁pan	-2677
▁six	-2678
▁urg	-2679
celer	-2680
right	-2681
unger	-2682
ustom	-2683
▁Only	-2684
▁answ	-2685
▁bond	-2686
▁cand	-2687
▁hous	-2688
▁kill	-2689
▁mand	-2690
▁mist	-2691
▁save	-2692
▁seek	-2693
Americ	-2694
ashing	-2695
▁behav	-2696
▁cases	-2697
▁diagn	-2698
▁enter	-2699
▁imbal	-2700
▁loans	-2701
▁purch	-2702
▁rural	-2703
▁shift	-2704
▁sound	-2705
▁whole	-2706
▁worse	-2707
igrants	-2708
▁Barack	-2709
▁advant	-2710
▁chance	-2711
▁employ	-2712
▁events	-2713
▁excess	-2714
▁forced	-2715
▁ground	-2716
▁helped	-2717
▁coordin	-2718
▁deliver	-2719
▁federal	-2720
▁legitim	-2721
▁limited	-2722
▁natural	-2723
▁primary	-2724
▁seeking	-2725
▁Pakistan	-2726
▁patients	-2727
▁probably	-2728
▁stimulus	-2729
▁available	-2730
▁beginning	-2731
▁increases	-2732
▁economists	-2733
▁significantly	-2734
hem	-2735
umm	-2736
▁Am	-2737
▁Ma	-2738
▁di	-2739
airs	-2740
▁196	-2741
▁fig	-2742
▁flo	-2743
▁gas	-2744
▁let	-2745
▁mer	-2746
▁won	-2747
ilies	-2748
thing	-2749
▁Most	-2750
▁harm	-2751
▁inev	-2752
▁list	-2753
▁repe	-2754
▁seed	-2755
▁Party	-2756
▁basis	-2757
▁flows	-2758
▁insur	-2759
▁moral	-2760
▁parts	-2761
▁shows	-2762
▁sides	-2763
erences	-2764
liament	-2765
unction	-2766
▁Donald	-2767
▁Kosovo	-2768
▁Uganda	-2769
▁candid	-2770
▁vision	-2771
atically	-2772
ological	-2773
▁Central	-2774
▁Despite	-2775
▁bipolar	-2776
▁protest	-2777
▁becoming	-2778
▁concerns	-2779
▁determin	-2780
▁families	-2781
▁independ	-2782
▁thinking	-2783
▁according	-2784
▁committed	-2785
▁questions	-2786
▁regulatory	-2787
▁vulnerable	-2788
▁globalization	-2789
3,	-2790
IV	-2791
sh	-2792
gor	-2793
hel	-2794
ohn	-2795
pol	-2796
▁$3	-2797
▁II	-2798
hens	-2799
ided	-2800
mber	-2801
▁Com	-2802
▁Med	-2803
▁sav	-2804
▁typ	-2805
▁wee	-2806
osing	-2807
▁Coun	-2808
▁Geor	-2809
▁John	-2810
▁away	-2811
▁frag	-2812
▁late	-2813
▁norm	-2814
▁prev	-2815
istics	-2816
rative	-2817
▁Since	-2818
▁avoid	-2819
▁basic	-2820
▁below	-2821
▁doubt	-2822
▁enorm	-2823
▁frequ	-2824
▁mobil	-2825
▁rough	-2826
▁story	-2827
▁thing	-2828
▁vital	-2829
ressive	-2830
▁Commun	-2831
▁either	-2832
▁gender	-2833
▁recomm	-2834
▁record	-2835
fficient	-2836
▁compens	-2837
▁connect	-2838
▁digital	-2839
▁drought	-2840
▁factors	-2841
▁forward	-2842
▁meaning	-2843
▁thought	-2844
abilities	-2845
▁Economic	-2846
▁behavior	-2847
▁collabor	-2848
▁cultural	-2849
▁unlikely	-2850
▁authority	-2851
▁corporate	-2852
▁fertility	-2853
▁transport	-2854
▁treatment	-2855
▁everywhere	-2856
▁historical	-2857
▁opposition	-2858
▁scientific	-2859
▁electricity	-2860
▁initiatives	-2861
▁technological	-2862
MF	-2863
bi	-2864
ask	-2865
ees	-2866
ina	-2867
off	-2868
rew	-2869
ubl	-2870
umb	-2871
▁My	-2872
▁Tw	-2873
lier	-2874
phas	-2875
rene	-2876
used	-2877
▁IMF	-2878
▁Not	-2879
▁arm	-2880
▁div	-2881
▁pus	-2882
▁rad	-2883
▁uns	-2884
lling	-2885
oring	-2886
▁2016	-2887
▁From	-2888
▁heav	-2889
▁line	-2890
▁pain	-2891
▁side	-2892
▁summ	-2893
arents	-2894
istent	-2895
lusive	-2896
▁Given	-2897
▁Great	-2898
▁Simil	-2899
▁State	-2900
▁going	-2901
▁heart	-2902
▁known	-2903
▁mater	-2904
▁occur	-2905
▁scale	-2906
▁Greece	-2907
▁became	-2908
▁emphas	-2909
▁mechan	-2910
▁person	-2911
▁secure	-2912
▁seemed	-2913
▁Council	-2914
▁Kingdom	-2915
▁appears	-2916
▁crucial	-2917
▁distrib	-2918
▁general	-2919
▁quickly	-2920
▁receive	-2921
▁reduced	-2922
▁enormous	-2923
▁greatest	-2924
▁recovery	-2925
▁training	-2926
▁continued	-2927
▁contribut	-2928
▁decisions	-2929
▁practices	-2930
▁recognize	-2931
▁Democratic	-2932
▁democratic	-2933
▁revolution	-2934
▁established	-2935
-2	-2936
2,	-2937
6%	-2938
7,	-2939
9,	-2940
DG	-2941
den	-2942
ext	-2943
orn	-2944
sis	-2945
xim	-2946
▁$5	-2947
▁Ex	-2948
▁aw	-2949
▁ge	-2950
ried	-2951
▁HIV	-2952
▁Mal	-2953
▁cir	-2954
▁mal	-2955
▁mid	-2956
▁ste	-2957
▁unp	-2958
ached	-2959
ights	-2960
iring	-2961
third	-2962
▁batt	-2963
▁fair	-2964
▁idea	-2965
▁publ	-2966
aching	-2967
sector	-2968
▁Asian	-2969
▁Organ	-2970
▁emerg	-2971
▁offer	-2972
▁relev	-2973
▁talks	-2974
ination	-2975
reprene	-2976
▁accord	-2977
▁associ	-2978
▁custom	-2979
▁damage	-2980
▁imposs	-2981
▁larger	-2982
▁months	-2983
▁mutual	-2984
▁planet	-2985
▁police	-2986
▁prohib	-2987
▁spread	-2988
▁territ	-2989
▁widely	-2990
▁acceler	-2991
▁conserv	-2992
▁focused	-2993
▁rapidly	-2994
▁actually	-2995
▁building	-2996
▁critical	-2997
▁external	-2998
▁material	-2999
▁required	-3000
▁influence	-3001
▁households	-3002
▁introduced	-3003
▁ultimately	-3004
▁alternative	-3005
1%	-3006
sp	-3007
irt	-3008
ope	-3009
pet	-3010
▁($	-3011
▁Sa	-3012
▁ir	-3013
ints	-3014
plus	-3015
rest	-3016
▁Mar	-3017
▁cal	-3018
▁rob	-3019
▁wat	-3020
acter	-3021
rimin	-3022
uster	-3023
▁Ghan	-3024
▁easy	-3025
▁enab	-3026
▁insp	-3027
▁took	-3028
▁advoc	-3029
▁black	-3030
▁explo	-3031
▁limit	-3032
▁liter	-3033
▁plans	-3034
▁solid	-3035
▁surve	-3036
▁union	-3037
▁using	-3038
▁yield	-3039
▁Christ	-3040
▁caused	-3041
▁commod	-3042
▁hunger	-3043
▁lesson	-3044
▁resili	-3045
▁simple	-3046
▁status	-3047
▁biggest	-3048
▁comprom	-3049
▁discipl	-3050
▁imports	-3051
▁meeting	-3052
▁poorest	-3053
▁promise	-3054
▁studies	-3055
▁surplus	-3056
▁consumer	-3057
▁creating	-3058
▁personal	-3059
▁entreprene	-3060
▁effectively	-3061
5,	-3062
DGs	-3063
car	-3064
cle	-3065
abil	-3066
aria	-3067
grow	-3068
lled	-3069
vert	-3070
year	-3071
▁Ber	-3072
▁Jew	-3073
▁log	-3074
▁var	-3075
ailed	-3076
antic	-3077
ellig	-3078
▁1990	-3079
▁Conf	-3080
▁NATO	-3081
▁acqu	-3082
▁bomb	-3083
▁burd	-3084
▁lose	-3085
▁mach	-3086
▁pack	-3087
▁reve	-3088
▁soft	-3089
▁tend	-3090
▁wast	-3091
encies	-3092
gorith	-3093
illenn	-3094
onents	-3095
rehens	-3096
▁Ghana	-3097
▁Kenya	-3098
▁adequ	-3099
▁ahead	-3100
▁equal	-3101
▁flood	-3102
▁immun	-3103
▁joint	-3104
▁legal	-3105
▁raise	-3106
▁serve	-3107
▁visit	-3108
ication	-3109
ospital	-3110
▁Health	-3111
▁Mexico	-3112
▁agreed	-3113
▁cancer	-3114
▁expans	-3115
▁forest	-3116
▁moving	-3117
▁nation	-3118
▁partly	-3119
▁shared	-3120
usterity	-3121
▁attempt	-3122
▁company	-3123
▁describ	-3124
▁justice	-3125
▁opinion	-3126
▁returns	-3127
▁roughly	-3128
▁targets	-3129
▁victory	-3130
▁everyone	-3131
▁generate	-3132
▁priority	-3133
▁resource	-3134
▁revenues	-3135
▁supposed	-3136
▁undermin	-3137
▁character	-3138
▁consumers	-3139
▁discrimin	-3140
▁estimated	-3141
▁improving	-3142
▁providing	-3143
▁collective	-3144
▁impossible	-3145
▁legitimacy	-3146
▁profession	-3147
▁strategies	-3148
▁Palestinian	-3149
▁Organization	-3150
▁construction	-3151
▁dramatically	-3152
▁presidential	-3153
▁competitiveness	-3154
AC	-3155
aj	-3156
fe	-3157
uk	-3158
.5%	-3159
aff	-3160
arc	-3161
leb	-3162
▁Su	-3163
aled	-3164
ique	-3165
izes	-3166
rary	-3167
▁203	-3168
▁Bra	-3169
▁Dep	-3170
▁His	-3171
▁Jun	-3172
▁bro	-3173
arant	-3174
fully	-3175
ottom	-3176
▁Last	-3177
▁book	-3178
▁join	-3179
▁push	-3180
▁read	-3181
ancing	-3182
ellect	-3183
▁Their	-3184
▁chain	-3185
▁deval	-3186
▁gradu	-3187
▁learn	-3188
▁legis	-3189
▁meant	-3190
▁recon	-3191
▁seven	-3192
▁choice	-3193
▁engine	-3194
▁factor	-3195
▁faster	-3196
▁margin	-3197
▁models	-3198
▁points	-3199
▁transp	-3200
ographic	-3201
▁Finally	-3202
▁Islamic	-3203
▁adopted	-3204
▁contain	-3205
▁dynamic	-3206
▁friends	-3207
▁guarant	-3208
▁matters	-3209
▁directly	-3210
▁followed	-3211
▁profound	-3212
▁suggests	-3213
▁advantage	-3214
▁conflicts	-3215
▁consensus	-3216
▁economics	-3217
▁encourage	-3218
▁expansion	-3219
▁following	-3220
▁pollution	-3221
▁something	-3222
▁therefore	-3223
▁University	-3224
▁protection	-3225
▁uncertainty	-3226
▁universities	-3227
▁liberalization	-3228
2%	-3229
ax	-3230
ny	-3231
arp	-3232
bed	-3233
ief	-3234
irm	-3235
lex	-3236
loc	-3237
ops	-3238
▁25	-3239
▁30	-3240
▁CA	-3241
▁Uk	-3242
ania	-3243
ient	-3244
ieth	-3245
mine	-3246
orks	-3247
sets	-3248
▁50%	-3249
▁tro	-3250
aries	-3251
house	-3252
itter	-3253
ondon	-3254
range	-3255
thern	-3256
▁crop	-3257
▁game	-3258
▁host	-3259
▁race	-3260
▁safe	-3261
▁spur	-3262
▁upon	-3263
▁vote	-3264
market	-3265
porary	-3266
riving	-3267
▁Found	-3268
▁Trade	-3269
▁aimed	-3270
▁celeb	-3271
▁debts	-3272
▁ended	-3273
▁fully	-3274
▁light	-3275
▁minim	-3276
▁minor	-3277
▁opium	-3278
▁parad	-3279
▁persu	-3280
▁steps	-3281
▁taxes	-3282
▁trust	-3283
▁wants	-3284
conduct	-3285
outhern	-3286
▁London	-3287
▁allies	-3288
▁answer	-3289
▁assess	-3290
▁center	-3291
▁comput	-3292
▁crimin	-3293
▁enable	-3294
▁happen	-3295
▁latest	-3296
▁merely	-3297
▁propos	-3298
▁remark	-3299
▁reserv	-3300
▁temper	-3301
▁treaty	-3302
▁useful	-3303
▁Without	-3304
▁arrange	-3305
▁dollars	-3306
▁lessons	-3307
▁neither	-3308
ashington	-3309
rehensive	-3310
▁analysis	-3311
▁confront	-3312
▁hospital	-3313
▁launched	-3314
▁minister	-3315
▁provided	-3316
▁relevant	-3317
▁announced	-3318
▁austerity	-3319
▁intellect	-3320
▁migration	-3321
▁promoting	-3322
▁religious	-3323
▁sustained	-3324
▁undermine	-3325
▁importance	-3326
▁Republicans	-3327
▁responsible	-3328
▁developments	-3329
-1	-3330
3%	-3331
4,	-3332
AR	-3333
EN	-3334
ER	-3335
mp	-3336
RID	-3337
ero	-3338
ilt	-3339
inc	-3340
lif	-3341
pri	-3342
zil	-3343
▁2.	-3344
▁Ac	-3345
▁Ke	-3346
▁ep	-3347
-201	-3348
angu	-3349
arth	-3350
aves	-3351
inet	-3352
olid	-3353
▁Bur	-3354
▁Our	-3355
▁Sch	-3356
▁ban	-3357
▁det	-3358
▁jud	-3359
asion	-3360
minbi	-3361
olars	-3362
ology	-3363
ronic	-3364
▁came	-3365
▁draw	-3366
▁sens	-3367
▁talk	-3368
▁vast	-3369
▁vers	-3370
▁whom	-3371
▁autom	-3372
▁claim	-3373
▁forms	-3374
▁incom	-3375
▁maxim	-3376
▁sharp	-3377
▁space	-3378
▁tools	-3379
through	-3380
▁Govern	-3381
▁belief	-3382
▁cities	-3383
▁dollar	-3384
▁facing	-3385
▁proper	-3386
▁summit	-3387
▁travel	-3388
economic	-3389
▁General	-3390
▁demands	-3391
▁facilit	-3392
▁housing	-3393
▁leaving	-3394
▁measure	-3395
▁offered	-3396
▁outside	-3397
▁overall	-3398
▁precise	-3399
▁princip	-3400
▁radical	-3401
▁reached	-3402
▁reasons	-3403
▁turning	-3404
▁Monetary	-3405
▁algorith	-3406
▁diseases	-3407
▁intellig	-3408
▁reflects	-3409
▁Similarly	-3410
▁estimates	-3411
▁immediate	-3412
▁suffering	-3413
▁technical	-3414
▁confidence	-3415
▁engagement	-3416
▁eventually	-3417
▁inevitable	-3418
▁throughout	-3419
▁university	-3420
▁individuals	-3421
▁institutional	-3422
▁participation	-3423
▁transformation	-3424
4%	-3425
Af	-3426
ING	-3427
TON	-3428
apt	-3429
eng	-3430
ira	-3431
lan	-3432
pay	-3433
ray	-3434
unt	-3435
▁10	-3436
▁Pe	-3437
aces	-3438
aval	-3439
back	-3440
cape	-3441
comm	-3442
cont	-3443
edly	-3444
fect	-3445
iles	-3446
lder	-3447
look	-3448
rect	-3449
rupt	-3450
with	-3451
▁exe	-3452
▁reb	-3453
▁sea	-3454
▁sex	-3455
▁sil	-3456
aught	-3457
iance	-3458
iment	-3459
level	-3460
ossil	-3461
reens	-3462
uries	-3463
▁Prog	-3464
▁Summ	-3465
▁area	-3466
▁cuts	-3467
▁obst	-3468
▁road	-3469
▁told	-3470
▁vill	-3471
▁virt	-3472
action	-3473
atures	-3474
herent	-3475
ishing	-3476
ousand	-3477
policy	-3478
▁Treat	-3479
▁eight	-3480
▁embra	-3481
▁hopes	-3482
▁mortg	-3483
▁prime	-3484
▁solve	-3485
▁worst	-3486
iciency	-3487
▁Brazil	-3488
▁Econom	-3489
▁George	-3490
▁Invest	-3491
▁border	-3492
▁convin	-3493
▁devast	-3494
▁giving	-3495
▁launch	-3496
▁Climate	-3497
▁Federal	-3498
▁Reserve	-3499
▁actions	-3500
▁appoint	-3501
▁critics	-3502
▁getting	-3503
▁highest	-3504
▁lending	-3505
▁present	-3506
▁promote	-3507
▁running	-3508
▁service	-3509
▁sources	-3510
▁changing	-3511
▁overcome	-3512
▁provides	-3513
▁remained	-3514
▁renminbi	-3515
▁prospects	-3516
▁sanctions	-3517
▁supported	-3518
▁twentieth	-3519
▁universal	-3520
▁Foundation	-3521
▁assistance	-3522
▁productive	-3523
▁sufficient	-3524
▁terrorists	-3525
▁Fortunately	-3526
▁competition	-3527
▁superconduct	-3528
▁accountability	-3529
▁discrimination	-3530
ada	-3531
ded	-3532
gic	-3533
men	-3534
oph	-3535
sec	-3536
war	-3537
▁Co	-3538
ager	-3539
ague	-3540
apse	-3541
enth	-3542
hern	-3543
icip	-3544
more	-3545
whel	-3546
ynes	-3547
▁193	-3548
▁Cam	-3549
▁Gul	-3550
▁Har	-3551
▁Ire	-3552
▁Jan	-3553
▁Mel	-3554
▁hit	-3555
count	-3556
illed	-3557
ittee	-3558
lands	-3559
rence	-3560
▁Cold	-3561
▁Dece	-3562
▁Inst	-3563
▁Serb	-3564
▁bure	-3565
▁core	-3566
▁phys	-3567
▁purp	-3568
▁rain	-3569
▁tack	-3570
▁trip	-3571
▁writ	-3572
ancial	-3573
ciples	-3574
itical	-3575
lantic	-3576
undred	-3577
▁Alban	-3578
▁barri	-3579
▁board	-3580
▁colle	-3581
▁spend	-3582
▁track	-3583
▁withd	-3584
▁works	-3585
holders	-3586
nership	-3587
▁Greens	-3588
▁Treaty	-3589
▁anyone	-3590
▁bottom	-3591
▁divers	-3592
▁engage	-3593
▁extent	-3594
▁minist	-3595
▁plants	-3596
▁talent	-3597
▁tariff	-3598
▁theory	-3599
ications	-3600
standing	-3601
▁Ireland	-3602
▁advance	-3603
▁equally	-3604
▁experts	-3605
▁finally	-3606
▁himself	-3607
▁instead	-3608
▁outcome	-3609
▁weather	-3610
ventional	-3611
▁National	-3612
▁academic	-3613
▁addition	-3614
▁argument	-3615
▁designed	-3616
▁dramatic	-3617
▁existing	-3618
▁negative	-3619
▁overwhel	-3620
▁repeated	-3621
▁restrict	-3622
▁thousand	-3623
▁vaccines	-3624
▁commodity	-3625
▁insurance	-3626
▁reduction	-3627
▁tradition	-3628
▁Washington	-3629
▁associated	-3630
▁difference	-3631
▁greenhouse	-3632
▁relatively	-3633
▁scientists	-3634
▁destruction	-3635
▁immigration	-3636
▁independent	-3637
▁recognition	-3638
▁sustainability	-3639
7%	-3640
AS	-3641
ES	-3642
GE	-3643
▁z	-3644
DON	-3645
kes	-3646
lig	-3647
och	-3648
oiz	-3649
ull	-3650
umi	-3651
unn	-3652
▁Bl	-3653
▁Bo	-3654
▁Ju	-3655
▁UK	-3656
▁gl	-3657
▁vo	-3658
AIDS	-3659
ctob	-3660
ethe	-3661
isms	-3662
kept	-3663
onom	-3664
opol	-3665
uine	-3666
▁194	-3667
▁205	-3668
▁Bal	-3669
▁Kar	-3670
▁LDP	-3671
▁LON	-3672
▁Non	-3673
▁Rob	-3674
▁alt	-3675
▁buy	-3676
▁gap	-3677
▁har	-3678
▁hum	-3679
▁lab	-3680
▁nut	-3681
▁sum	-3682
ament	-3683
inary	-3684
risis	-3685
▁2006	-3686
▁Anot	-3687
▁High	-3688
▁Koiz	-3689
▁cash	-3690
▁defe	-3691
▁plat	-3692
▁pled	-3693
▁port	-3694
▁sent	-3695
▁shap	-3696
▁teac	-3697
▁ties	-3698
▁your	-3699
Europe	-3700
coming	-3701
ctober	-3702
idered	-3703
illing	-3704
itious	-3705
rating	-3706
ulated	-3707
▁1990’	-3708
▁2014,	-3709
▁Goals	-3710
▁Trans	-3711
▁accur	-3712
▁adopt	-3713
▁calls	-3714
▁cyber	-3715
▁deals	-3716
▁faced	-3717
▁girls	-3718
▁lines	-3719
▁motiv	-3720
▁shape	-3721
▁stock	-3722
century	-3723
orthern	-3724
related	-3725
▁Keynes	-3726
▁LONDON	-3727
▁causes	-3728
▁commer	-3729
▁deaths	-3730
▁disput	-3731
▁father	-3732
▁limits	-3733
▁manage	-3734
▁nature	-3735
▁normal	-3736
▁office	-3737
▁proved	-3738
▁safety	-3739
▁unless	-3740
▁Another	-3741
▁Instead	-3742
▁Israeli	-3743
▁Koizumi	-3744
▁Millenn	-3745
▁October	-3746
▁Perhaps	-3747
▁changed	-3748
▁conduct	-3749
▁earlier	-3750
▁heavily	-3751
▁pattern	-3752
▁related	-3753
▁replace	-3754
▁thereby	-3755
▁trading	-3756
▁Likewise	-3757
▁activity	-3758
▁appropri	-3759
▁complain	-3760
▁complete	-3761
▁contrary	-3762
▁declared	-3763
▁internal	-3764
▁learning	-3765
▁prepared	-3766
▁scholars	-3767
▁struggle	-3768
▁Communist	-3769
▁Greenspan	-3770
▁ambitious	-3771
▁dangerous	-3772
▁temporary	-3773
▁terrorist	-3774
▁typically	-3775
▁considered	-3776
▁innovative	-3777
▁principles	-3778
▁threatened	-3779
▁Sustainable	-3780
▁experienced	-3781
▁generations	-3782
▁intervention	-3783
▁organization	-3784
▁entrepreneurs	-3785
CO	-3786
EL	-3787
TI	-3788
eb	-3789
ef	-3790
gun	-3791
hic	-3792
ita	-3793
ken	-3794
los	-3795
nic	-3796
oke	-3797
ola	-3798
uni	-3799
▁11	-3800
▁bi	-3801
acro	-3802
ails	-3803
ames	-3804
appe	-3805
atin	-3806
ches	-3807
ctic	-3808
icro	-3809
iliz	-3810
imer	-3811
irth	-3812
lied	-3813
ones	-3814
uild	-3815
▁Add	-3816
▁Ang	-3817
▁Ant	-3818
▁Eng	-3819
▁NCD	-3820
▁Sen	-3821
▁Whe	-3822
▁dow	-3823
▁hom	-3824
▁ord	-3825
▁ran	-3826
▁wel	-3827
▁wit	-3828
adequ	-3829
aling	-3830
diagn	-3831
idesp	-3832
inton	-3833
luded	-3834
raine	-3835
▁Euro	-3836
▁Fore	-3837
▁MDGs	-3838
▁Port	-3839
▁arms	-3840
▁days	-3841
▁dict	-3842
▁feed	-3843
▁imag	-3844
▁liqu	-3845
▁near	-3846
▁paid	-3847
▁perm	-3848
▁rank	-3849
▁size	-3850
▁stem	-3851
▁week	-3852
astrop	-3853
forest	-3854
ground	-3855
itting	-3856
▁Paris	-3857
▁Saudi	-3858
▁Under	-3859
▁block	-3860
▁built	-3861
▁dream	-3862
▁final	-3863
▁front	-3864
▁frust	-3865
▁fuels	-3866
▁grown	-3867
▁hands	-3868
▁leave	-3869
▁macro	-3870
▁mount	-3871
▁occup	-3872
▁prove	-3873
▁range	-3874
▁stagn	-3875
▁takes	-3876
▁volat	-3877
anguage	-3878
ructive	-3879
ustrial	-3880
▁Canada	-3881
▁Muslim	-3882
▁Robert	-3883
▁Though	-3884
▁adjust	-3885
▁appear	-3886
▁assets	-3887
▁defeat	-3888
▁degree	-3889
▁double	-3890
▁driven	-3891
▁easier	-3892
▁elimin	-3893
▁exceed	-3894
▁formal	-3895
▁fossil	-3896
▁implic	-3897
▁medium	-3898
▁narrow	-3899
▁offers	-3900
▁perman	-3901
▁troops	-3902
▁widesp	-3903
▁worked	-3904
American	-3905
etheless	-3906
▁However	-3907
▁Ukraine	-3908
▁allowed	-3909
▁bankers	-3910
▁brought	-3911
▁bureauc	-3912
▁depends	-3913
▁involve	-3914
▁learned	-3915
▁message	-3916
▁nations	-3917
▁options	-3918
▁parents	-3919
▁quarter	-3920
▁schools	-3921
▁subject	-3922
▁younger	-3923
▁collapse	-3924
▁disaster	-3925
▁equality	-3926
▁expanded	-3927
▁happened	-3928
▁reaching	-3929
▁southern	-3930
▁standard	-3931
▁withdraw	-3932
▁criticism	-3933
▁highlight	-3934
▁investing	-3935
▁neighbors	-3936
▁precisely	-3937
▁resulting	-3938
▁subsidies	-3939
▁workforce	-3940
▁Millennium	-3941
▁compromise	-3942
▁contribute	-3943
▁parliament	-3944
▁previously	-3945
▁recognized	-3946
▁regulation	-3947
▁statistics	-3948
▁supporters	-3949
▁widespread	-3950
▁Partnership	-3951
▁differences	-3952
▁breakthrough	-3953
▁corporations	-3954
▁distribution	-3955
3.	-3956
40	-3957
5.	-3958
8%	-3959
PJ	-3960
ij	-3961
sy	-3962
▁Q	-3963
▁X	-3964
ECD	-3965
PAC	-3966
ane	-3967
ats	-3968
ech	-3969
hod	-3970
isp	-3971
ode	-3972
par	-3973
urb	-3974
yle	-3975
▁0.	-3976
▁5%	-3977
▁60	-3978
▁DC	-3979
▁Ha	-3980
▁Ky	-3981
▁ec	-3982
amed	-3983
inks	-3984
oral	-3985
oric	-3986
ping	-3987
raft	-3988
uary	-3989
ular	-3990
▁10%	-3991
▁Bas	-3992
▁Bec	-3993
▁DPJ	-3994
▁Rev	-3995
▁Yas	-3996
▁alc	-3997
aches	-3998
cient	-3999
esity	-4000
going	-4001
iding	-4002
idity	-4003
itude	-4004
power	-4005
rived	-4006
scale	-4007
state	-4008
▁AfDB	-4009
▁June	-4010
▁Just	-4011
▁Thus	-4012
▁brut	-4013
▁flag	-4014
▁goes	-4015
▁laws	-4016
▁lend	-4017
▁lies	-4018
▁sold	-4019
▁task	-4020
▁trig	-4021
▁went	-4022
carbon	-4023
health	-4024
heimer	-4025
mented	-4026
▁AIPAC	-4027
▁Latin	-4028
▁Medic	-4029
▁asset	-4030
▁bound	-4031
▁doesn	-4032
▁reass	-4033
▁revol	-4034
▁stead	-4035
▁tests	-4036
▁tight	-4037
▁troub	-4038
itation	-4039
lements	-4040
stitute	-4041
▁During	-4042
▁Portug	-4043
▁abroad	-4044
▁acknow	-4045
▁actors	-4046
▁battle	-4047
▁capita	-4048
▁deeply	-4049
▁execut	-4050
▁online	-4051
▁presid	-4052
▁raised	-4053
▁reject	-4054
▁remind	-4055
▁revers	-4056
▁robust	-4057
▁secret	-4058
▁signed	-4059
▁stabil	-4060
▁stands	-4061
▁survey	-4062
▁transl	-4063
▁trends	-4064
reaching	-4065
▁Because	-4066
▁Clinton	-4067
▁becomes	-4068
▁broader	-4069
▁chronic	-4070
▁defined	-4071
▁hundred	-4072
▁putting	-4073
▁savings	-4074
▁December	-4075
▁achieved	-4076
▁adequate	-4077
▁bringing	-4078
▁ensuring	-4079
▁journals	-4080
▁marginal	-4081
▁perspect	-4082
▁promises	-4083
▁reserves	-4084
▁starters	-4085
▁supports	-4086
▁catastrop	-4087
▁emergence	-4088
▁recommend	-4089
▁activities	-4090
▁addressing	-4091
▁discipline	-4092
▁represents	-4093
▁appropriate	-4094
▁competitive	-4095
▁constraints	-4096
▁demographic	-4097
▁innovations	-4098
▁intellectual	-4099
▁intelligence	-4100
▁partnerships	-4101
▁comprehensive	-4102
1.	-4103
MB	-4104
mo	-4105
su	-4106
TIP	-4107
che	-4108
mon	-4109
ote	-4110
ple	-4111
▁Do	-4112
▁Hu	-4113
▁Im	-4114
▁Mc	-4115
▁Te	-4116
arsh	-4117
bank	-4118
cers	-4119
eneg	-4120
enty	-4121
ibly	-4122
ille	-4123
mosp	-4124
ogue	-4125
ohol	-4126
oler	-4127
omal	-4128
omin	-4129
oses	-4130
rich	-4131
wing	-4132
▁30%	-4133
▁Alz	-4134
▁asp	-4135
▁enh	-4136
▁enj	-4137
▁fra	-4138
▁sup	-4139
Afric	-4140
arity	-4141
cious	-4142
ffect	-4143
first	-4144
ilton	-4145
known	-4146
under	-4147
▁2009	-4148
▁Aust	-4149
▁Fran	-4150
▁OECD	-4151
▁Over	-4152
▁Shia	-4153
▁body	-4154
▁bold	-4155
▁circ	-4156
▁clin	-4157
▁dead	-4158
▁dism	-4159
▁flow	-4160
▁hour	-4161
▁init	-4162
▁isol	-4163
▁scen	-4164
▁stre	-4165
▁team	-4166
avalny	-4167
commun	-4168
ployed	-4169
umping	-4170
▁2000,	-4171
▁Green	-4172
▁Meles	-4173
▁Those	-4174
▁Until	-4175
▁accom	-4176
▁colon	-4177
▁crops	-4178
▁elder	-4179
▁faces	-4180
▁lands	-4181
▁speak	-4182
▁spent	-4183
▁stage	-4184
▁toler	-4185
▁views	-4186
archers	-4187
centage	-4188
connect	-4189
ulation	-4190
▁Policy	-4191
▁arrest	-4192
▁burden	-4193
▁career	-4194
▁claims	-4195
▁condem	-4196
▁elites	-4197
▁losses	-4198
▁played	-4199
▁prison	-4200
▁pursue	-4201
▁resist	-4202
▁showed	-4203
▁speech	-4204
▁stable	-4205
▁twenty	-4206
▁unable	-4207
▁viewed	-4208
▁Navalny	-4209
▁alcohol	-4210
▁capable	-4211
▁context	-4212
▁correct	-4213
▁defense	-4214
▁enforce	-4215
▁farming	-4216
▁happens	-4217
▁healthy	-4218
▁holding	-4219
▁inadequ	-4220
▁medical	-4221
▁profess	-4222
▁reinfor	-4223
▁sharing	-4224
▁started	-4225
▁tariffs	-4226
▁various	-4227
▁victims	-4228
▁witness	-4229
▁Consider	-4230
▁agencies	-4231
▁barriers	-4232
▁combined	-4233
▁educated	-4234
▁fertiliz	-4235
▁fighting	-4236
▁function	-4237
▁peaceful	-4238
▁protests	-4239
▁strength	-4240
▁Alzheimer	-4241
▁Consensus	-4242
▁condition	-4243
▁efficient	-4244
▁exception	-4245
▁imbalance	-4246
▁inclusive	-4247
▁movements	-4248
▁objective	-4249
▁sometimes	-4250
▁structure	-4251
▁thousands	-4252
▁Investment	-4253
▁Republican	-4254
▁conference	-4255
▁presidency	-4256
▁remarkable	-4257
▁commitments	-4258
▁educational	-4259
▁implemented	-4260
▁legislation	-4261
▁politically	-4262
▁researchers	-4263
▁establishing	-4264
▁immunization	-4265
▁substantially	-4266
.)	-4267
CT	-4268
me	-4269
rs	-4270
▁€	-4271
aba	-4272
ahu	-4273
anz	-4274
aul	-4275
avi	-4276
aza	-4277
imb	-4278
iny	-4279
lar	-4280
orb	-4281
urt	-4282
zai	-4283
▁12	-4284
▁35	-4285
▁50	-4286
-200	-4287
ario	-4288
cast	-4289
cons	-4290
fers	-4291
inct	-4292
rage	-4293
uted	-4294
utes	-4295
vard	-4296
ware	-4297
▁195	-4298
▁Aff	-4299
▁Any	-4300
▁Bre	-4301
▁IDB	-4302
▁due	-4303
▁lot	-4304
▁mix	-4305
▁ple	-4306
▁pun	-4307
▁sen	-4308
▁try	-4309
▁unw	-4310
▁ver	-4311
▁wis	-4312
ching	-4313
eenth	-4314
igate	-4315
ional	-4316
irect	-4317
legal	-4318
orial	-4319
reced	-4320
rific	-4321
ukuni	-4322
▁2010	-4323
▁Both	-4324
▁Gavi	-4325
▁TTIP	-4326
▁army	-4327
▁bear	-4328
▁cast	-4329
▁enem	-4330
▁fell	-4331
▁wave	-4332
▁zero	-4333
anyahu	-4334
apital	-4335
stream	-4336
▁2010,	-4337
▁2013,	-4338
▁Burma	-4339
▁Human	-4340
▁Keral	-4341
▁Somal	-4342
▁Still	-4343
▁Treas	-4344
▁begun	-4345
▁delay	-4346
▁displ	-4347
▁donor	-4348
▁fears	-4349
▁round	-4350
▁stake	-4351
▁worth	-4352
appoint	-4353
country	-4354
ductive	-4355
ensions	-4356
ialogue	-4357
rations	-4358
uations	-4359
▁Karzai	-4360
▁atmosp	-4361
▁compar	-4362
▁deeper	-4363
▁destro	-4364
▁ethnic	-4365
▁female	-4366
▁hardly	-4367
▁ignore	-4368
▁intens	-4369
▁mobile	-4370
▁obstac	-4371
▁offset	-4372
▁owners	-4373
▁perpet	-4374
▁reward	-4375
▁sought	-4376
▁suffer	-4377
▁turned	-4378
security	-4379
▁Albania	-4380
▁Austral	-4381
▁Foreign	-4382
▁Harvard	-4383
▁closely	-4384
▁decided	-4385
▁disappe	-4386
▁empower	-4387
▁failing	-4388
▁genuine	-4389
▁implies	-4390
▁partner	-4391
▁perfect	-4392
▁purpose	-4393
▁resolve	-4394
▁species	-4395
▁transpa	-4396
▁Yasukuni	-4397
▁consolid	-4398
▁coverage	-4399
▁criminal	-4400
▁entirely	-4401
▁includes	-4402
▁language	-4403
▁offering	-4404
▁ordinary	-4405
▁planning	-4406
▁property	-4407
▁received	-4408
▁scenario	-4409
▁specific	-4410
▁suffered	-4411
▁transfer	-4412
▁Financial	-4413
▁Netanyahu	-4414
▁achieving	-4415
▁addressed	-4416
▁borrowing	-4417
▁candidate	-4418
▁dependent	-4419
▁negotiate	-4420
▁producers	-4421
▁promising	-4422
▁published	-4423
▁atmosphere	-4424
▁commercial	-4425
▁frequently	-4426
▁mechanisms	-4427
▁percentage	-4428
▁priorities	-4429
▁repeatedly	-4430
▁settlement	-4431
▁structures	-4432
▁underlying	-4433
▁necessarily	-4434
▁substantial	-4435
▁arrangements	-4436
▁considerable	-4437
▁constitutional	-4438
8,	-4439
AN	-4440
IB	-4441
ih	-4442
ns	-4443
ASH	-4444
asc	-4445
gen	-4446
ket	-4447
nam	-4448
oor	-4449
spe	-4450
udd	-4451
ula	-4452
▁4.	-4453
▁fo	-4454
▁wa	-4455
agan	-4456
ancy	-4457
ares	-4458
azon	-4459
fire	-4460
fort	-4461
mony	-4462
obel	-4463
oted	-4464
reci	-4465
▁80%	-4466
▁Act	-4467
▁God	-4468
▁Nor	-4469
▁Why	-4470
▁aim	-4471
▁hon	-4472
▁hyp	-4473
▁pen	-4474
▁unt	-4475
0,000	-4476
MBRID	-4477
ables	-4478
acerb	-4479
agers	-4480
anted	-4481
class	-4482
emics	-4483
erend	-4484
iable	-4485
itten	-4486
nturn	-4487
ommod	-4488
place	-4489
riend	-4490
usion	-4491
▁2012	-4492
▁Comp	-4493
▁Four	-4494
▁July	-4495
▁Murd	-4496
▁Park	-4497
▁Prot	-4498
▁Then	-4499
▁WASH	-4500
▁audi	-4501
▁capt	-4502
▁grew	-4503
▁male	-4504
▁rele	-4505
▁resc	-4506
▁stay	-4507
▁vari	-4508
▁wars	-4509
▁wind	-4510
INGTON	-4511
estate	-4512
inking	-4513
luding	-4514
minent	-4515
racies	-4516
rained	-4517
▁Earth	-4518
▁Libya	-4519
▁March	-4520
▁Nobel	-4521
▁Youth	-4522
▁absol	-4523
▁adapt	-4524
▁alloc	-4525
▁birth	-4526
▁blame	-4527
▁brain	-4528
▁carry	-4529
▁champ	-4530
▁cross	-4531
▁equip	-4532
▁fewer	-4533
▁micro	-4534
▁numer	-4535
▁oblig	-4536
▁quant	-4537
▁separ	-4538
▁shown	-4539
▁spect	-4540
▁wages	-4541
▁white	-4542
MBRIDGE	-4543
hetoric	-4544
itative	-4545
ivalent	-4546
▁Berlin	-4547
▁Center	-4548
▁Jewish	-4549
▁Kerala	-4550
▁Rights	-4551
▁Spring	-4552
▁Summit	-4553
▁curric	-4554
▁easily	-4555
▁famous	-4556
▁fields	-4557
▁figure	-4558
▁instru	-4559
▁interp	-4560
▁multip	-4561
▁placed	-4562
▁pushed	-4563
▁refuge	-4564
▁select	-4565
▁trying	-4566
▁unique	-4567
▁January	-4568
▁Murdoch	-4569
▁absence	-4570
▁affairs	-4571
▁anticip	-4572
▁complic	-4573
▁corrupt	-4574
▁creates	-4575
▁culture	-4576
▁emerged	-4577
▁enterpr	-4578
▁exacerb	-4579
▁journal	-4580
▁numbers	-4581
▁obesity	-4582
▁paradox	-4583
▁raising	-4584
▁revenue	-4585
▁trouble	-4586
▁usually	-4587
▁welcome	-4588
▁Security	-4589
▁Treasury	-4590
▁accommod	-4591
▁although	-4592
▁annivers	-4593
▁billions	-4594
▁credible	-4595
▁downturn	-4596
▁informal	-4597
▁involved	-4598
▁migrants	-4599
▁minority	-4600
▁occurred	-4601
▁produced	-4602
▁promised	-4603
▁proposed	-4604
▁referend	-4605
▁unpreced	-4606
liferation	-4607
▁CAMBRIDGE	-4608
▁Committee	-4609
▁coalition	-4610
▁declining	-4611
▁deflation	-4612
▁dominated	-4613
▁narrative	-4614
▁otherwise	-4615
▁processes	-4616
▁remaining	-4617
▁shortfall	-4618
▁WASHINGTON	-4619
▁algorithms	-4620
▁approaches	-4621
▁capitalism	-4622
▁determined	-4623
▁diplomatic	-4624
▁efficiency	-4625
▁everything	-4626
▁imbalances	-4627
▁immigrants	-4628
▁imperative	-4629
▁integrated	-4630
▁credibility	-4631
▁devaluation	-4632
▁devastating	-4633
▁potentially	-4634
▁conservative	-4635
▁experiencing	-4636
▁successfully	-4637
▁transparency	-4638
▁unprecedented	-4639
9.	-4640
Ch	-4641
GB	-4642
▁-	-4643
GDP	-4644
cri	-4645
ery	-4646
let	-4647
ook	-4648
sen	-4649
uns	-4650
xit	-4651
▁40	-4652
▁Cy	-4653
▁Ne	-4654
▁il	-4655
ESCO	-4656
araj	-4657
dden	-4658
ding	-4659
ebru	-4660
eter	-4661
iant	-4662
indu	-4663
ires	-4664
odox	-4665
ores	-4666
pass	-4667
uses	-4668
what	-4669
▁100	-4670
▁60%	-4671
▁70%	-4672
▁Ass	-4673
▁Edu	-4674
▁Its	-4675
▁Man	-4676
▁bra	-4677
▁bub	-4678
▁bul	-4679
▁dro	-4680
▁tow	-4681
antly	-4682
banon	-4683
break	-4684
erted	-4685
gical	-4686
ridge	-4687
using	-4688
works	-4689
▁2004	-4690
▁2020	-4691
▁Here	-4692
▁Ital	-4693
▁Sunn	-4694
▁Tanz	-4695
▁York	-4696
▁cere	-4697
▁epid	-4698
▁evol	-4699
▁fire	-4700
▁gave	-4701
▁magn	-4702
▁phen	-4703
▁pool	-4704
▁qual	-4705
▁rely	-4706
▁soil	-4707
▁tele	-4708
▁tour	-4709
acific	-4710
crisis	-4711
enegal	-4712
holder	-4713
ifying	-4714
overed	-4715
▁Crime	-4716
▁Febru	-4717
▁Gates	-4718
▁Greek	-4719
▁aband	-4720
▁acute	-4721
▁aging	-4722
▁bonds	-4723
▁faith	-4724
▁looks	-4725
▁ninet	-4726
▁optim	-4727
▁posed	-4728
▁ratio	-4729
▁recru	-4730
▁tried	-4731
aration	-4732
finance	-4733
rencies	-4734
ruption	-4735
uilding	-4736
▁Beyond	-4737
▁People	-4738
▁Reagan	-4739
▁Serbia	-4740
▁UNESCO	-4741
▁assume	-4742
▁attrib	-4743
▁buying	-4744
▁calcul	-4745
▁closed	-4746
▁closer	-4747
▁emerge	-4748
▁fallen	-4749
▁impose	-4750
▁linked	-4751
▁mainly	-4752
▁mandar	-4753
▁memory	-4754
▁notion	-4755
▁rating	-4756
▁remitt	-4757
▁retain	-4758
▁search	-4759
▁served	-4760
▁stress	-4761
▁superv	-4762
▁surely	-4763
▁undert	-4764
▁warned	-4765
irmative	-4766
veraging	-4767
▁Eastern	-4768
▁Further	-4769
▁Lebanon	-4770
▁Muslims	-4771
▁Program	-4772
▁Senegal	-4773
▁Somalia	-4774
▁causing	-4775
▁centers	-4776
▁divided	-4777
▁driving	-4778
▁elected	-4779
▁falling	-4780
▁feature	-4781
▁figures	-4782
▁incomes	-4783
▁mistake	-4784
▁network	-4785
▁notably	-4786
▁pushing	-4787
▁realize	-4788
▁survive	-4789
▁threats	-4790
▁traject	-4791
▁whereas	-4792
intensive	-4793
▁Agricult	-4794
▁February	-4795
▁Hamilton	-4796
▁Portugal	-4797
▁Tanzania	-4798
▁accounts	-4799
▁affected	-4800
▁allowing	-4801
▁apparent	-4802
▁believed	-4803
▁controls	-4804
▁enabling	-4805
▁forecast	-4806
▁mobilize	-4807
▁momentum	-4808
▁phenomen	-4809
▁presence	-4810
▁properly	-4811
▁rhetoric	-4812
▁severely	-4813
▁slowdown	-4814
▁starting	-4815
▁supplies	-4816
▁weakness	-4817
▁convinced	-4818
▁cooperate	-4819
▁diplomacy	-4820
▁excessive	-4821
▁expensive	-4822
▁expertise	-4823
▁incentive	-4824
▁materials	-4825
▁ministers	-4826
▁permanent	-4827
▁principle	-4828
▁transfers	-4829
▁Industrial	-4830
▁accelerate	-4831
▁currencies	-4832
▁encouraged	-4833
▁facilitate	-4834
▁generating	-4835
▁inadequate	-4836
▁nineteenth	-4837
▁operations	-4838
▁proportion	-4839
▁resistance	-4840
▁surprising	-4841
▁unilateral	-4842
▁essentially	-4843
▁populations	-4844
▁prohibition	-4845
▁threatening	-4846
▁Palestinians	-4847
▁availability	-4848
▁contribution	-4849
▁professional	-4850
▁collaboration	-4851
▁establishment	-4852
11	-4853
5%	-4854
70	-4855
9%	-4856
DA	-4857
EM	-4858
hi	-4859
ka	-4860
la	-4861
aiw	-4862
ali	-4863
amb	-4864
cap	-4865
imm	-4866
ios	-4867
mat	-4868
nty	-4869
occ	-4870
osn	-4871
pin	-4872
ugg	-4873
ugh	-4874
▁13	-4875
▁2%	-4876
▁3.	-4877
▁CO	-4878
▁dr	-4879
▁li	-4880
aily	-4881
ault	-4882
cked	-4883
debt	-4884
iers	-4885
ingu	-4886
ocks	-4887
olas	-4888
oned	-4889
oubt	-4890
oyal	-4891
priv	-4892
room	-4893
semb	-4894
sent	-4895
size	-4896
▁Col	-4897
▁awa	-4898
▁bri	-4899
▁dau	-4900
▁doz	-4901
▁eru	-4902
▁ice	-4903
▁sac	-4904
▁squ	-4905
▁wed	-4906
▁wid	-4907
aiwan	-4908
anish	-4909
aucas	-4910
being	-4911
equal	-4912
ether	-4913
ignty	-4914
lfare	-4915
lines	-4916
party	-4917
pping	-4918
uable	-4919
ugust	-4920
ulate	-4921
which	-4922
▁AIIB	-4923
▁Balk	-4924
▁Bang	-4925
▁Educ	-4926
▁Gaza	-4927
▁Swed	-4928
▁Will	-4929
▁base	-4930
▁chem	-4931
▁exce	-4932
▁exer	-4933
▁firm	-4934
▁flex	-4935
▁foot	-4936
▁fost	-4937
▁gone	-4938
▁hege	-4939
▁here	-4940
▁hero	-4941
▁insu	-4942
▁iron	-4943
▁mere	-4944
▁pace	-4945
▁phil	-4946
▁prem	-4947
▁rose	-4948
▁rout	-4949
▁scar	-4950
▁sell	-4951
▁susp	-4952
▁text	-4953
▁wish	-4954
▁wond	-4955
atever	-4956
contro	-4957
ervers	-4958
ervice	-4959
govern	-4960
iction	-4961
inding	-4962
itudes	-4963
lihood	-4964
resent	-4965
▁2001,	-4966
▁Count	-4967
▁Forum	-4968
▁Franc	-4969
▁Haiti	-4970
▁Hamas	-4971
▁Royal	-4972
▁Sunni	-4973
▁Third	-4974
▁Women	-4975
▁anger	-4976
▁artic	-4977
▁asked	-4978
▁books	-4979
▁cease	-4980
▁delib	-4981
▁drugs	-4982
▁femin	-4983
▁gases	-4984
▁hours	-4985
▁input	-4986
▁leads	-4987
▁quite	-4988
▁seeds	-4989
▁skept	-4990
▁tough	-4991
▁truly	-4992
▁unity	-4993
▁utter	-4994
▁waste	-4995
▁write	-4996
▁Agenda	-4997
▁Amazon	-4998
▁Arabia	-4999
▁Social	-5000
▁Taiwan	-5001
▁acting	-5002
▁aggreg	-5003
▁allows	-5004
▁basket	-5005
▁broken	-5006
▁chains	-5007
▁charge	-5008
▁choose	-5009
▁combat	-5010
▁costly	-5011
▁defend	-5012
▁depart	-5013
▁desire	-5014
▁desper	-5015
▁divide	-5016
▁empire	-5017
▁estate	-5018
▁extend	-5019
▁friend	-5020
▁insist	-5021
▁legacy	-5022
▁method	-5023
▁observ	-5024
▁option	-5025
▁places	-5026
▁preced	-5027
▁slight	-5028
▁sudden	-5029
▁urgent	-5030
atlantic	-5031
ffective	-5032
iciently	-5033
▁Italian	-5034
▁Project	-5035
▁assumed	-5036
▁autonom	-5037
▁benefic	-5038
▁concent	-5039
▁disprop	-5040
▁doctors	-5041
▁elderly	-5042
▁fastest	-5043
▁imposed	-5044
▁liberty	-5045
▁malaria	-5046
▁mention	-5047
▁payment	-5048
▁pension	-5049
▁playing	-5050
▁pointed	-5051
▁smaller	-5052
▁welfare	-5053
▁absolute	-5054
▁accurate	-5055
▁balanced	-5056
▁champion	-5057
▁computer	-5058
▁decisive	-5059
▁delivery	-5060
▁disputes	-5061
▁examples	-5062
▁findings	-5063
▁hundreds	-5064
▁included	-5065
▁original	-5066
▁populist	-5067
▁pursuing	-5068
▁reported	-5069
▁revealed	-5070
▁sacrific	-5071
▁shifting	-5072
▁somewhat	-5073
▁surgical	-5074
▁surprise	-5075
▁survival	-5076
▁teachers	-5077
▁urgently	-5078
▁valuable	-5079
▁accounted	-5080
▁activists	-5081
▁demanding	-5082
▁diagnosis	-5083
▁expressed	-5084
▁extremely	-5085
▁mandarins	-5086
▁observers	-5087
▁opponents	-5088
▁overwhelm	-5089
▁providers	-5090
▁purchases	-5091
▁reformers	-5092
▁resilient	-5093
▁seriously	-5094
▁candidates	-5095
▁controvers	-5096
▁equivalent	-5097
▁innovators	-5098
▁maintained	-5099
▁negotiated	-5100
▁reductions	-5101
▁referendum	-5102
▁resilience	-5103
▁volatility	-5104
▁constrained	-5105
▁demonstrate	-5106
▁regulations	-5107
▁modification	-5108
▁policymaking	-5109
▁requirements	-5110
▁temperatures	-5111
▁contributions	-5112
▁disproportion	-5113
▁relationships	-5114
▁strengthening	-5115
▁understanding	-5116
▁unsustainable	-5117
▁implementation	-5118
▁transportation	-5119
7.	-5120
EO	-5121
gu	-5122
ux	-5123
▁"	-5124
cif	-5125
cks	-5126
hag	-5127
ipe	-5128
ley	-5129
nel	-5130
oes	-5131
oly	-5132
rig	-5133
run	-5134
son	-5135
ums	-5136
▁Os	-5137
▁Pr	-5138
▁ST	-5139
aded	-5140
bedo	-5141
efli	-5142
gent	-5143
ifth	-5144
lish	-5145
open	-5146
resh	-5147
time	-5148
unis	-5149
uous	-5150
▁40%	-5151
▁Dav	-5152
▁Mad	-5153
▁Nak	-5154
▁Naz	-5155
▁Pri	-5156
▁Rom	-5157
▁She	-5158
▁Ter	-5159
▁anx	-5160
▁bod	-5161
▁der	-5162
▁fil	-5163
▁got	-5164
▁mit	-5165
▁pla	-5166
▁shr	-5167
▁sun	-5168
▁unf	-5169
acted	-5170
ading	-5171
ecess	-5172
endit	-5173
eting	-5174
etric	-5175
oning	-5176
oples	-5177
orrow	-5178
rable	-5179
rates	-5180
riven	-5181
sight	-5182
▁Bosn	-5183
▁Bout	-5184
▁Deal	-5185
▁Food	-5186
▁Nove	-5187
▁Once	-5188
▁Plan	-5189
▁aims	-5190
▁arch	-5191
▁bill	-5192
▁exam	-5193
▁orth	-5194
▁says	-5195
▁spir	-5196
▁type	-5197
00,000	-5198
accept	-5199
ailing	-5200
arctic	-5201
eflika	-5202
establ	-5203
iances	-5204
ietnam	-5205
ispens	-5206
sembly	-5207
▁2011,	-5208
▁2012,	-5209
▁2015,	-5210
▁Ababa	-5211
▁Addis	-5212
▁Every	-5213
▁Niger	-5214
▁Tunis	-5215
▁abund	-5216
▁alarm	-5217
▁apply	-5218
▁aside	-5219
▁bombs	-5220
▁compe	-5221
▁daily	-5222
▁democ	-5223
▁enjoy	-5224
▁erupt	-5225
▁forth	-5226
▁guide	-5227
▁heard	-5228
▁ideal	-5229
▁manip	-5230
▁merit	-5231
▁moved	-5232
▁norms	-5233
▁patri	-5234
▁refer	-5235
▁remov	-5236
▁shock	-5237
▁smart	-5238
▁speed	-5239
▁tempt	-5240
▁turns	-5241
aucasus	-5242
cession	-5243
growing	-5244
ogether	-5245
private	-5246
▁Across	-5247
▁August	-5248
▁Brexit	-5249
▁Crimea	-5250
▁Poland	-5251
▁Senate	-5252
▁adding	-5253
▁conven	-5254
▁crimes	-5255
▁deploy	-5256
▁disarm	-5257
▁easing	-5258
▁gather	-5259
▁geopol	-5260
▁infect	-5261
▁mostly	-5262
▁mother	-5263
▁prefer	-5264
▁rarely	-5265
▁resort	-5266
▁retire	-5267
▁sexual	-5268
▁slowly	-5269
▁summer	-5270
▁unders	-5271
▁wanted	-5272
▁yields	-5273
European	-5274
iliation	-5275
▁Spanish	-5276
▁Twitter	-5277
▁adverse	-5278
▁choices	-5279
▁cutting	-5280
▁dispute	-5281
▁embrace	-5282
▁expense	-5283
▁illegal	-5284
▁inflows	-5285
▁keeping	-5286
▁lasting	-5287
▁looking	-5288
▁mandate	-5289
▁ongoing	-5290
▁peoples	-5291
▁players	-5292
▁profits	-5293
▁refused	-5294
▁restore	-5295
▁reverse	-5296
▁routine	-5297
▁selling	-5298
▁setting	-5299
▁towards	-5300
▁village	-5301
diagnosis	-5302
ibilities	-5303
stitution	-5304
▁Caucasus	-5305
▁November	-5306
▁annually	-5307
▁anything	-5308
▁approved	-5309
▁audience	-5310
▁contract	-5311
▁dialogue	-5312
▁expendit	-5313
▁identity	-5314
▁invested	-5315
▁meetings	-5316
▁multiple	-5317
▁networks	-5318
▁northern	-5319
▁opposite	-5320
▁orthodox	-5321
▁payments	-5322
▁platform	-5323
▁possibly	-5324
▁practice	-5325
▁slightly	-5326
▁software	-5327
▁taxation	-5328
ispensable	-5329
▁Antarctic	-5330
▁Australia	-5331
▁Christian	-5332
▁Institute	-5333
▁acknowled	-5334
▁described	-5335
▁discovery	-5336
▁fundament	-5337
▁generally	-5338
▁inclusion	-5339
▁interpret	-5340
▁liquidity	-5341
▁mechanism	-5342
▁mortgages	-5343
▁predecess	-5344
▁primarily	-5345
▁professor	-5346
▁reinforce	-5347
▁renewable	-5348
▁secondary	-5349
▁similarly	-5350
▁translate	-5351
▁unwilling	-5352
▁virtually	-5353
▁Bouteflika	-5354
▁Revolution	-5355
▁assessment	-5356
▁background	-5357
▁commission	-5358
▁concerning	-5359
▁consistent	-5360
▁deterrence	-5361
▁disappoint	-5362
▁discussion	-5363
▁facilities	-5364
▁fertilizer	-5365
▁legitimate	-5366
▁processing	-5367
▁regardless	-5368
▁withdrawal	-5369
▁Furthermore	-5370
▁anniversary	-5371
▁coordinated	-5372
▁democracies	-5373
▁encouraging	-5374
▁importantly	-5375
▁improvement	-5376
▁instability	-5377
▁negotiating	-5378
▁perspective	-5379
▁possibility	-5380
▁remittances	-5381
▁sovereignty	-5382
▁undermining	-5383
▁willingness	-5384
▁compensation	-5385
▁conventional	-5386
▁coordination	-5387
▁improvements	-5388
▁insufficient	-5389
▁strengthened	-5390
▁macroeconomic	-5391
▁recommendations	-5392
25	-5393
AG	-5394
DR	-5395
IS	-5396
IT	-5397
NP	-5398
US	-5399
af	-5400
ky	-5401
na	-5402
alt	-5403
aws	-5404
bas	-5405
eda	-5406
erg	-5407
hab	-5408
mar	-5409
olf	-5410
rip	-5411
see	-5412
uck	-5413
uty	-5414
yan	-5415
▁1%	-5416
▁3%	-5417
▁Gu	-5418
▁Me	-5419
▁Mu	-5420
▁Ro	-5421
▁Xi	-5422
▁ey	-5423
abwe	-5424
adow	-5425
alin	-5426
bles	-5427
ccer	-5428
hand	-5429
isan	-5430
lict	-5431
llor	-5432
nedy	-5433
need	-5434
olly	-5435
resp	-5436
sych	-5437
ulum	-5438
umst	-5439
view	-5440
▁Adv	-5441
▁BER	-5442
▁CEO	-5443
▁Car	-5444
▁Day	-5445
▁Far	-5446
▁Imm	-5447
▁Mer	-5448
▁Mor	-5449
▁Sin	-5450
▁Sud	-5451
▁bol	-5452
▁fel	-5453
▁hor	-5454
▁hyd	-5455
▁lob	-5456
▁obt	-5457
▁sus	-5458
▁tom	-5459
▁tur	-5460
▁twe	-5461
China	-5462
abled	-5463
added	-5464
agues	-5465
ashed	-5466
asing	-5467
asive	-5468
asone	-5469
ffick	-5470
ghter	-5471
hetic	-5472
ician	-5473
icism	-5474
ifies	-5475
ijing	-5476
inded	-5477
ipped	-5478
itect	-5479
lades	-5480
onent	-5481
urers	-5482
▁1980	-5483
▁2018	-5484
▁Grow	-5485
▁Hill	-5486
▁Jews	-5487
▁Zimb	-5488
▁agro	-5489
▁aver	-5490
▁born	-5491
▁dark	-5492
▁drop	-5493
▁emot	-5494
▁hike	-5495
▁melt	-5496
▁ones	-5497
▁pact	-5498
▁rail	-5499
▁room	-5500
▁shut	-5501
▁sort	-5502
▁subs	-5503
▁tell	-5504
▁trem	-5505
▁warm	-5506
Africa	-5507
angers	-5508
arters	-5509
elling	-5510
icated	-5511
icious	-5512
isions	-5513
itably	-5514
ivered	-5515
reness	-5516
rition	-5517
ultane	-5518
urally	-5519
▁2007,	-5520
▁2008,	-5521
▁Basel	-5522
▁Polit	-5523
▁added	-5524
▁alike	-5525
▁altru	-5526
▁aspir	-5527
▁cover	-5528
▁crime	-5529
▁exact	-5530
▁fails	-5531
▁inher	-5532
▁intra	-5533
▁knows	-5534
▁links	-5535
▁lived	-5536
▁marri	-5537
▁medic	-5538
▁monet	-5539
▁overh	-5540
▁plant	-5541
▁ready	-5542
▁repay	-5543
▁scand	-5544
▁schem	-5545
▁scope	-5546
▁seeks	-5547
▁seize	-5548
▁stall	-5549
▁table	-5550
▁weeks	-5551
rategic	-5552
reaking	-5553
ressing	-5554
▁Angola	-5555
▁Master	-5556
▁Recent	-5557
▁Swaraj	-5558
▁Sweden	-5559
▁Terror	-5560
▁UNAIDS	-5561
▁absent	-5562
▁advert	-5563
▁albedo	-5564
▁appeal	-5565
▁aspect	-5566
▁assert	-5567
▁assist	-5568
▁brutal	-5569
▁bubble	-5570
▁conver	-5571
▁equity	-5572
▁escape	-5573
▁except	-5574
▁fourth	-5575
▁fueled	-5576
▁harder	-5577
▁leaves	-5578
▁obtain	-5579
▁opened	-5580
▁panels	-5581
▁plenty	-5582
▁resent	-5583
▁saying	-5584
▁senior	-5585
▁series	-5586
▁soccer	-5587
▁taught	-5588
▁taxpay	-5589
▁volunt	-5590
▁weight	-5591
function	-5592
lessness	-5593
oubtedly	-5594
▁Affairs	-5595
▁English	-5596
▁Kennedy	-5597
▁Nuclear	-5598
▁Vietnam	-5599
▁applied	-5600
▁artific	-5601
▁budgets	-5602
▁charged	-5603
▁cleaner	-5604
▁comfort	-5605
▁consist	-5606
▁decreas	-5607
▁destroy	-5608
▁enhance	-5609
▁exploit	-5610
▁greatly	-5611
▁harvest	-5612
▁ignored	-5613
▁impover	-5614
▁linking	-5615
▁machine	-5616
▁managed	-5617
▁mission	-5618
▁operate	-5619
▁opposed	-5620
▁package	-5621
▁persist	-5622
▁possess	-5623
▁proceed	-5624
▁regimes	-5625
▁renewed	-5626
▁shaping	-5627
▁streets	-5628
▁subsequ	-5629
▁trigger	-5630
▁undersc	-5631
▁unequal	-5632
▁version	-5633
▁visible	-5634
connected	-5635
▁Business	-5636
▁Nakasone	-5637
▁Zimbabwe	-5638
▁approval	-5639
▁autonomy	-5640
▁circumst	-5641
▁colonial	-5642
▁financed	-5643
▁globally	-5644
▁historic	-5645
▁humanity	-5646
▁identify	-5647
▁involves	-5648
▁managing	-5649
▁numerous	-5650
▁outbreak	-5651
▁patterns	-5652
▁pressing	-5653
▁proposal	-5654
▁purchase	-5655
▁rational	-5656
▁shortage	-5657
▁standing	-5658
▁targeted	-5659
▁threaten	-5660
▁Banglades	-5661
▁Education	-5662
▁aggregate	-5663
▁architect	-5664
▁customers	-5665
▁delivered	-5666
▁economist	-5667
▁equipment	-5668
▁explained	-5669
▁favorable	-5670
▁isolation	-5671
▁mortality	-5672
▁orthodoxy	-5673
▁ourselves	-5674
▁producing	-5675
▁prominent	-5676
▁regarding	-5677
▁statement	-5678
▁threatens	-5679
▁Depression	-5680
▁Parliament	-5681
▁beneficial	-5682
▁compensate	-5683
▁components	-5684
▁extraordin	-5685
▁fragmented	-5686
▁impressive	-5687
▁indicators	-5688
▁interested	-5689
▁mainstream	-5690
▁membership	-5691
▁objectives	-5692
▁perception	-5693
▁presidents	-5694
▁reflecting	-5695
▁resolution	-5696
▁supporting	-5697
▁trajectory	-5698
▁unemployed	-5699
governmental	-5700
▁Nonetheless	-5701
▁commissions	-5702
▁contributed	-5703
▁frustration	-5704
▁immediately	-5705
▁institution	-5706
▁participate	-5707
▁territorial	-5708
▁demonstrated	-5709
▁impoverished	-5710
▁authoritarian	-5711
▁effectiveness	-5712
-3	-5713
6.	-5714
60	-5715
AD	-5716
CE	-5717
OS	-5718
zb	-5719
The	-5720
dec	-5721
isc	-5722
itz	-5723
rog	-5724
tax	-5725
uct	-5726
uit	-5727
ume	-5728
ymm	-5729
▁14	-5730
▁6%	-5731
▁Br	-5732
▁kn	-5733
aden	-5734
aeda	-5735
alle	-5736
cogn	-5737
coni	-5738
empl	-5739
enry	-5740
face	-5741
free	-5742
iece	-5743
ihad	-5744
irac	-5745
itor	-5746
lock	-5747
mans	-5748
mbol	-5749
ocal	-5750
ocol	-5751
offs	-5752
otic	-5753
ourt	-5754
ques	-5755
real	-5756
well	-5757
xide	-5758
zech	-5759
▁$10	-5760
▁Abd	-5761
▁Ban	-5762
▁Bet	-5763
▁Big	-5764
▁Def	-5765
▁Equ	-5766
▁Her	-5767
▁Hol	-5768
▁Kyi	-5769
▁Lar	-5770
▁Let	-5771
▁Nic	-5772
▁Off	-5773
▁Red	-5774
▁Rel	-5775
▁Sci	-5776
▁Sup	-5777
▁Suu	-5778
▁Two	-5779
▁bon	-5780
▁bur	-5781
▁cop	-5782
▁ded	-5783
▁fan	-5784
▁gay	-5785
▁hot	-5786
▁los	-5787
▁mur	-5788
▁nav	-5789
▁pet	-5790
▁quo	-5791
▁raw	-5792
▁sat	-5793
▁swe	-5794
acing	-5795
elect	-5796
eless	-5797
enced	-5798
enses	-5799
epend	-5800
ernal	-5801
hemat	-5802
idden	-5803
licit	-5804
ocent	-5805
ollah	-5806
opoly	-5807
ounce	-5808
ource	-5809
ourse	-5810
prime	-5811
vered	-5812
▁1960	-5813
▁2002	-5814
▁2011	-5815
▁Clos	-5816
▁Cont	-5817
▁Farm	-5818
▁Free	-5819
▁Gulf	-5820
▁Rudd	-5821
▁STEM	-5822
▁Sein	-5823
▁ball	-5824
▁cate	-5825
▁cogn	-5826
▁cong	-5827
▁didn	-5828
▁died	-5829
▁earn	-5830
▁expl	-5831
▁fate	-5832
▁fulf	-5833
▁gold	-5834
▁hurt	-5835
▁nets	-5836
▁pipe	-5837
▁pose	-5838
▁root	-5839
▁sets	-5840
▁sole	-5841
▁stor	-5842
▁symp	-5843
▁tact	-5844
▁tool	-5845
▁unus	-5846
▁uses	-5847
ceived	-5848
depend	-5849
driven	-5850
ection	-5851
endous	-5852
energy	-5853
eville	-5854
irical	-5855
lessly	-5856
minded	-5857
needed	-5858
ounded	-5859
▁2002,	-5860
▁2014.	-5861
▁2017,	-5862
▁2017.	-5863
▁2050,	-5864
▁Abbas	-5865
▁Again	-5866
▁Czech	-5867
▁Never	-5868
▁Sudan	-5869
▁Thein	-5870
▁White	-5871
▁abuse	-5872
▁align	-5873
▁armed	-5874
▁asymm	-5875
▁blood	-5876
▁bolst	-5877
▁drawn	-5878
▁foods	-5879
▁fresh	-5880
▁gives	-5881
▁helps	-5882
▁irrig	-5883
▁minds	-5884
▁night	-5885
▁polls	-5886
▁risky	-5887
▁south	-5888
▁spill	-5889
▁twice	-5890
▁vehic	-5891
General	-5892
develop	-5893
dumping	-5894
erately	-5895
ishment	-5896
isingly	-5897
lihoods	-5898
overing	-5899
parents	-5900
quality	-5901
termine	-5902
theless	-5903
zbollah	-5904
▁Chance	-5905
▁Depart	-5906
▁Public	-5907
▁Rather	-5908
▁School	-5909
▁absorb	-5910
▁advice	-5911
▁applic	-5912
▁bright	-5913
▁brings	-5914
▁define	-5915
▁illust	-5916
▁incumb	-5917
▁injust	-5918
▁insurg	-5919
▁issued	-5920
▁killed	-5921
▁losing	-5922
▁marked	-5923
▁missed	-5924
▁modest	-5925
▁namely	-5926
▁openly	-5927
▁oppose	-5928
▁paying	-5929
▁poison	-5930
▁poorer	-5931
▁profit	-5932
▁scarce	-5933
▁sheets	-5934
▁viable	-5935
▁waters	-5936
▁wonder	-5937
national	-5938
specific	-5939
▁Beijing	-5940
▁Capital	-5941
▁Environ	-5942
▁Whether	-5943
▁amounts	-5944
▁broadly	-5945
▁collaps	-5946
▁consult	-5947
▁element	-5948
▁enemies	-5949
▁fragile	-5950
▁intense	-5951
▁lenders	-5952
▁prepare	-5953
▁privile	-5954
▁ranging	-5955
▁ratings	-5956
▁sharply	-5957
▁student	-5958
▁talking	-5959
▁tourism	-5960
▁trained	-5961
▁underst	-5962
▁written	-5963
▁Islamist	-5964
▁accompan	-5965
▁admitted	-5966
▁advances	-5967
▁boosting	-5968
▁convince	-5969
▁declined	-5970
▁distinct	-5971
▁entering	-5972
▁epidemic	-5973
▁exercise	-5974
▁extended	-5975
▁focusing	-5976
▁generous	-5977
▁imperial	-5978
▁informed	-5979
▁inherent	-5980
▁interven	-5981
▁limiting	-5982
▁lowering	-5983
▁managers	-5984
▁maximize	-5985
▁populism	-5986
▁publicly	-5987
▁realized	-5988
▁religion	-5989
▁returned	-5990
▁steadily	-5991
▁tackling	-5992
▁tendency	-5993
▁tensions	-5994
▁tomorrow	-5995
▁traffick	-5996
▁troubled	-5997
▁unaccept	-5998
productive	-5999
▁Countries	-6000
▁affecting	-6001
▁alliances	-6002
▁attitudes	-6003
▁awareness	-6004
▁ceasefire	-6005
▁centuries	-6006
▁concerned	-6007
▁concerted	-6008
▁determine	-6009
▁disappear	-6010
▁diversity	-6011
▁emergency	-6012
▁employees	-6013
▁guarantee	-6014
▁hospitals	-6015
▁involving	-6016
▁landscape	-6017
▁lawmakers	-6018
▁motivated	-6019
▁obstacles	-6020
▁operating	-6021
▁positions	-6022
▁pressures	-6023
▁prevailed	-6024
▁provision	-6025
▁responses	-6026
▁simultane	-6027
▁taxpayers	-6028
▁territory	-6029
forestation	-6030
▁Conference	-6031
▁accounting	-6032
▁affordable	-6033
▁bureaucrat	-6034
▁colleagues	-6035
▁criticized	-6036
▁dependence	-6037
▁depression	-6038
▁frameworks	-6039
▁liberation	-6040
▁preventing	-6041
▁regulators	-6042
▁repression	-6043
▁sanitation	-6044
▁solidarity	-6045
▁tremendous	-6046
▁accordingly	-6047
▁accountable	-6048
▁catastrophe	-6049
▁centralized	-6050
▁disarmament	-6051
▁ideological	-6052
▁inefficient	-6053
▁nationalist	-6054
▁neighboring	-6055
▁temperature	-6056
▁undoubtedly	-6057
▁alternatives	-6058
▁constitution	-6059
▁grandparents	-6060
▁implementing	-6061
▁implications	-6062
▁restrictions	-6063
▁sufficiently	-6064
▁breakthroughs	-6065
▁circumstances	-6066
▁communication	-6067
▁extraordinary	-6068
▁professionals	-6069
▁vulnerability	-6070
..	-6071
4.	-6072
80	-6073
ET	-6074
HI	-6075
HO	-6076
UN	-6077
We	-6078
va	-6079
vo	-6080
/11	-6081
aby	-6082
ads	-6083
ala	-6084
alf	-6085
ami	-6086
eff	-6087
emb	-6088
gia	-6089
ham	-6090
ift	-6091
isf	-6092
lad	-6093
oud	-6094
ped	-6095
rud	-6096
sey	-6097
sts	-6098
xic	-6099
▁El	-6100
▁Em	-6101
▁IT	-6102
▁PR	-6103
▁Sc	-6104
▁od	-6105
amin	-6106
band	-6107
born	-6108
card	-6109
fare	-6110
gery	-6111
hery	-6112
hips	-6113
iest	-6114
iled	-6115
imir	-6116
ione	-6117
long	-6118
lude	-6119
made	-6120
ocqu	-6121
oles	-6122
ords	-6123
pora	-6124
pple	-6125
pril	-6126
rans	-6127
reme	-6128
urch	-6129
▁$40	-6130
▁ACA	-6131
▁Age	-6132
▁Arm	-6133
▁Bro	-6134
▁CAP	-6135
▁Cup	-6136
▁Dec	-6137
▁ICT	-6138
▁Ice	-6139
▁Mod	-6140
▁SDR	-6141
▁Sea	-6142
▁Sil	-6143
▁Tam	-6144
▁You	-6145
▁ang	-6146
▁bea	-6147
▁bid	-6148
▁dys	-6149
▁fle	-6150
▁fru	-6151
▁inj	-6152
▁lux	-6153
▁mus	-6154
▁rid	-6155
▁tim	-6156
▁upd	-6157
▁upg	-6158
adays	-6159
aired	-6160
archy	-6161
arely	-6162
craft	-6163
hagen	-6164
icate	-6165
iling	-6166
liers	-6167
ophob	-6168
orpor	-6169
ounds	-6170
point	-6171
ronts	-6172
style	-6173
ungry	-6174
unity	-6175
uting	-6176
▁$100	-6177
▁1970	-6178
▁1989	-6179
▁2005	-6180
▁Acad	-6181
▁Coop	-6182
▁Iron	-6183
▁Land	-6184
▁Lead	-6185
▁Marx	-6186
▁Much	-6187
▁NCDs	-6188
▁Vlad	-6189
▁Wall	-6190
▁Wang	-6191
▁Year	-6192
▁ampl	-6193
▁bail	-6194
▁cart	-6195
▁code	-6196
▁curb	-6197
▁date	-6198
▁dele	-6199
▁drag	-6200
▁ease	-6201
▁erad	-6202
▁grav	-6203
▁hear	-6204
▁kept	-6205
▁medi	-6206
▁none	-6207
▁outd	-6208
▁pick	-6209
▁prag	-6210
▁quot	-6211
▁reap	-6212
▁roof	-6213
▁runs	-6214
▁seat	-6215
▁sect	-6216
▁spot	-6217
▁stif	-6218
▁sums	-6219
▁wage	-6220
▁wake	-6221
ashion	-6222
aspora	-6223
estern	-6224
growth	-6225
igrant	-6226
ioxide	-6227
orious	-6228
redict	-6229
rights	-6230
thirds	-6231
uggish	-6232
urance	-6233
ureate	-6234
▁1980’	-6235
▁2004,	-6236
▁2009,	-6237
▁2015.	-6238
▁2016,	-6239
▁2030,	-6240
▁April	-6241
▁Chair	-6242
▁Copen	-6243
▁Court	-6244
▁Impro	-6245
▁Prize	-6246
▁Tocqu	-6247
▁Worse	-6248
▁accum	-6249
▁badly	-6250
▁categ	-6251
▁chair	-6252
▁coast	-6253
▁compr	-6254
▁deleg	-6255
▁embod	-6256
▁holds	-6257
▁hydro	-6258
▁lacks	-6259
▁logic	-6260
▁multi	-6261
▁novel	-6262
▁perip	-6263
▁psych	-6264
▁risen	-6265
▁ruled	-6266
▁simpl	-6267
▁staff	-6268
▁teach	-6269
▁voice	-6270
▁wider	-6271
gentina	-6272
lusconi	-6273
ortions	-6274
raction	-6275
ultural	-6276
▁Change	-6277
▁Chirac	-6278
▁Korean	-6279
▁Morocc	-6280
▁Nether	-6281
▁attend	-6282
▁bigger	-6283
▁cataly	-6284
▁consid	-6285
▁decide	-6286
▁denied	-6287
▁disast	-6288
▁ending	-6289
▁excell	-6290
▁fixing	-6291
▁floods	-6292
▁forget	-6293
▁houses	-6294
▁joined	-6295
▁latter	-6296
▁multin	-6297
▁pestic	-6298
▁proven	-6299
▁raises	-6300
▁relief	-6301
▁relies	-6302
▁rescue	-6303
▁retail	-6304
▁shares	-6305
▁specul	-6306
▁spring	-6307
▁symbol	-6308
▁tackle	-6309
▁underw	-6310
▁unions	-6311
▁united	-6312
▁uphold	-6313
▁upward	-6314
▁voices	-6315
▁voting	-6316
▁weaker	-6317
cription	-6318
levision	-6319
▁Against	-6320
▁Germans	-6321
▁Hillary	-6322
▁Indians	-6323
▁Nicolas	-6324
▁Tunisia	-6325
▁appreci	-6326
▁arguing	-6327
▁calling	-6328
▁cheaper	-6329
▁declare	-6330
▁details	-6331
▁ethical	-6332
▁exposed	-6333
▁finding	-6334
▁focuses	-6335
▁imagine	-6336
▁islands	-6337
▁joining	-6338
▁mindset	-6339
▁minimum	-6340
▁neglect	-6341
▁partial	-6342
▁pledged	-6343
▁pursuit	-6344
▁secular	-6345
▁someone	-6346
▁spectac	-6347
▁statist	-6348
▁treated	-6349
▁unknown	-6350
▁violent	-6351
▁wealthy	-6352
▁worried	-6353
Americans	-6354
▁Medicaid	-6355
▁Vladimir	-6356
▁accepted	-6357
▁actively	-6358
▁chemical	-6359
▁coherent	-6360
▁dominate	-6361
▁elements	-6362
▁enduring	-6363
▁explicit	-6364
▁failures	-6365
▁feminism	-6366
▁finances	-6367
▁flooding	-6368
▁frequent	-6369
▁incident	-6370
▁indicate	-6371
▁innocent	-6372
▁laureate	-6373
▁leverage	-6374
▁literacy	-6375
▁memories	-6376
▁mitigate	-6377
▁mobility	-6378
▁moderate	-6379
▁monopoly	-6380
▁mortgage	-6381
▁released	-6382
▁sluggish	-6383
▁soldiers	-6384
▁teaching	-6385
▁underest	-6386
▁underpin	-6387
▁Argentina	-6388
▁Hezbollah	-6389
▁Political	-6390
▁Represent	-6391
▁civilians	-6392
▁cognitive	-6393
▁concluded	-6394
▁construct	-6395
▁depressed	-6396
▁diagnosed	-6397
▁diversify	-6398
▁dividends	-6399
▁emphasize	-6400
▁empirical	-6401
▁exclusive	-6402
▁expanding	-6403
▁exporters	-6404
▁happening	-6405
▁healthier	-6406
▁initially	-6407
▁integrate	-6408
▁organized	-6409
▁oversight	-6410
▁ownership	-6411
▁populists	-6412
▁practical	-6413
▁processed	-6414
▁projected	-6415
▁reflected	-6416
▁sentiment	-6417
▁stabilize	-6418
▁succeeded	-6419
▁Bangladesh	-6420
▁Berlusconi	-6421
▁Convention	-6422
▁Copenhagen	-6423
▁Developing	-6424
▁Mastercard	-6425
▁aggressive	-6426
▁apparently	-6427
▁artificial	-6428
▁asymmetric	-6429
▁curriculum	-6430
▁delivering	-6431
▁disruption	-6432
▁exacerbate	-6433
▁executives	-6434
▁extremists	-6435
▁foundation	-6436
▁identified	-6437
▁irrigation	-6438
▁meaningful	-6439
▁phenomenon	-6440
▁stagnation	-6441
▁telecommun	-6442
▁undermined	-6443
▁understood	-6444
▁violations	-6445
▁Netherlands	-6446
▁Tocqueville	-6447
▁accompanied	-6448
▁affirmative	-6449
▁combination	-6450
▁destructive	-6451
▁dysfunction	-6452
▁enterprises	-6453
▁influential	-6454
▁liabilities	-6455
▁livelihoods	-6456
▁nationalism	-6457
▁architecture	-6458
▁historically	-6459
▁independence	-6460
▁characterized	-6461
▁collaborative	-6462
▁determination	-6463
▁indispensable	-6464
▁multinational	-6465
▁proliferation	-6466
▁administrative	-6467
▁industrialized	-6468
▁representation	-6469
EP	-6470
EY	-6471
Sh	-6472
Th	-6473
ey	-6474
iu	-6475
sm	-6476
zh	-6477
KEL	-6478
abe	-6479
arn	-6480
bur	-6481
cla	-6482
ein	-6483
eth	-6484
hev	-6485
ife	-6486
iro	-6487
kel	-6488
map	-6489
mpt	-6490
ocu	-6491
ori	-6492
rif	-6493
rue	-6494
sch	-6495
▁$8	-6496
▁(1	-6497
▁16	-6498
▁5.	-6499
▁6.	-6500
▁Ir	-6501
▁Us	-6502
adly	-6503
alog	-6504
aper	-6505
athy	-6506
awed	-6507
bond	-6508
book	-6509
case	-6510
eled	-6511
emen	-6512
emia	-6513
enom	-6514
eron	-6515
etic	-6516
feld	-6517
fund	-6518
gain	-6519
igor	-6520
ikes	-6521
ilty	-6522
inst	-6523
kish	-6524
math	-6525
moil	-6526
oked	-6527
pert	-6528
prus	-6529
rase	-6530
rete	-6531
rong	-6532
rown	-6533
ruck	-6534
soft	-6535
uber	-6536
ught	-6537
ults	-6538
unch	-6539
wood	-6540
▁$20	-6541
▁11,	-6542
▁20%	-6543
▁25%	-6544
▁Ann	-6545
▁Are	-6546
▁Cal	-6547
▁Cle	-6548
▁Cur	-6549
▁Dar	-6550
▁Dis	-6551
▁Don	-6552
▁Inc	-6553
▁Job	-6554
▁Liu	-6555
▁MAD	-6556
▁Mat	-6557
▁Out	-6558
▁Reg	-6559
▁San	-6560
▁Sol	-6561
▁Spe	-6562
▁Too	-6563
▁Who	-6564
▁Yes	-6565
▁ben	-6566
▁bes	-6567
▁cab	-6568
▁die	-6569
▁fal	-6570
▁hub	-6571
▁lag	-6572
▁mel	-6573
▁saw	-6574
▁unb	-6575
Japan	-6576
KELEY	-6577
agger	-6578
earch	-6579
ected	-6580
ested	-6581
ifest	-6582
lande	-6583
mptom	-6584
okest	-6585
olera	-6586
oston	-6587
osure	-6588
otics	-6589
stems	-6590
▁1930	-6591
▁1945	-6592
▁Fail	-6593
▁Good	-6594
▁Hong	-6595
▁Kong	-6596
▁Mand	-6597
▁Next	-6598
▁Paul	-6599
▁Road	-6600
▁Sino	-6601
▁True	-6602
▁alle	-6603
▁biod	-6604
▁bust	-6605
▁cool	-6606
▁dign	-6607
▁east	-6608
▁ends	-6609
▁forg	-6610
▁fort	-6611
▁gaps	-6612
▁gets	-6613
▁grim	-6614
▁heat	-6615
▁hier	-6616
▁irre	-6617
▁kick	-6618
▁lock	-6619
▁loom	-6620
▁ment	-6621
▁myth	-6622
▁nine	-6623
▁outl	-6624
▁pref	-6625
▁reck	-6626
▁roll	-6627
▁sake	-6628
▁scal	-6629
▁sons	-6630
▁tons	-6631
▁trap	-6632
▁wild	-6633
ewater	-6634
ieties	-6635
ildren	-6636
istrib	-6637
itated	-6638
mitted	-6639
mother	-6640
nesses	-6641
onesia	-6642
pected	-6643
rading	-6644
rators	-6645
recogn	-6646
tering	-6647
undera	-6648
urbing	-6649
▁2005,	-6650
▁Among	-6651
▁Armen	-6652
▁Congo	-6653
▁David	-6654
▁Elect	-6655
▁Inter	-6656
▁Major	-6657
▁Three	-6658
▁Water	-6659
▁annex	-6660
▁check	-6661
▁chief	-6662
▁cycle	-6663
▁defin	-6664
▁dimin	-6665
▁eager	-6666
▁enlar	-6667
▁escal	-6668
▁flour	-6669
▁giant	-6670
▁harsh	-6671
▁heavy	-6672
▁imped	-6673
▁kinds	-6674
▁moves	-6675
▁overn	-6676
▁plays	-6677
▁quiet	-6678
▁rebal	-6679
▁secur	-6680
▁sheet	-6681
▁signs	-6682
▁spoke	-6683
▁surge	-6684
▁thres	-6685
▁trees	-6686
▁usual	-6687
Pacific	-6688
comings	-6689
enomics	-6690
ervices	-6691
igating	-6692
induced	-6693
istence	-6694
mission	-6695
ologist	-6696
riendly	-6697
service	-6698
society	-6699
▁Bosnia	-6700
▁Boston	-6701
▁Cyprus	-6702
▁Malays	-6703
▁Merkel	-6704
▁Others	-6705
▁Prince	-6706
▁Syrian	-6707
▁approx	-6708
▁argues	-6709
▁attain	-6710
▁backed	-6711
▁bloody	-6712
▁circle	-6713
▁cooper	-6714
▁courts	-6715
▁decent	-6716
▁dispos	-6717
▁exchan	-6718
▁flight	-6719
▁gained	-6720
▁guilty	-6721
▁hiring	-6722
▁impris	-6723
▁inputs	-6724
▁legisl	-6725
▁letter	-6726
▁lifest	-6727
▁listen	-6728
▁looked	-6729
▁manner	-6730
▁metric	-6731
▁occurs	-6732
▁philos	-6733
▁presum	-6734
▁prompt	-6735
▁refuse	-6736
▁relent	-6737
▁remote	-6738
▁satisf	-6739
▁silent	-6740
▁slowed	-6741
▁spirit	-6742
▁strict	-6743
▁thanks	-6744
▁traged	-6745
▁tragic	-6746
▁wishes	-6747
▁writer	-6748
chnology	-6749
okestack	-6750
olerance	-6751
ollywood	-6752
quarters	-6753
▁Defense	-6754
▁Kundera	-6755
▁Malaria	-6756
▁Morocco	-6757
▁Supreme	-6758
▁Through	-6759
▁Turkish	-6760
▁Whereas	-6761
▁ancient	-6762
▁backing	-6763
▁binding	-6764
▁capture	-6765
▁claimed	-6766
▁college	-6767
▁compact	-6768
▁concept	-6769
▁content	-6770
▁courage	-6771
▁disrupt	-6772
▁dissent	-6773
▁diverse	-6774
▁engaged	-6775
▁exactly	-6776
▁hostile	-6777
▁immense	-6778
▁inherit	-6779
▁initial	-6780
▁inspire	-6781
▁install	-6782
▁intract	-6783
▁killing	-6784
▁missing	-6785
▁outlook	-6786
▁planned	-6787
▁regular	-6788
▁removed	-6789
▁reports	-6790
▁reserve	-6791
▁restric	-6792
▁scandal	-6793
▁serving	-6794
▁symptom	-6795
▁turmoil	-6796
▁utility	-6797
▁variety	-6798
▁waiting	-6799
▁wedding	-6800
cifically	-6801
ederation	-6802
including	-6803
ressional	-6804
▁Assembly	-6805
▁BERKELEY	-6806
▁Hollande	-6807
▁Northern	-6808
▁adopting	-6809
▁anywhere	-6810
▁appeared	-6811
▁attempts	-6812
▁believes	-6813
▁concrete	-6814
▁creative	-6815
▁damaging	-6816
▁director	-6817
▁discoura	-6818
▁distingu	-6819
▁dividend	-6820
▁dominant	-6821
▁droughts	-6822
▁emphasis	-6823
▁exposure	-6824
▁extremes	-6825
▁features	-6826
▁imposing	-6827
▁instance	-6828
▁intended	-6829
▁invasion	-6830
▁mathemat	-6831
▁mounting	-6832
▁neighbor	-6833
▁nowadays	-6834
▁observed	-6835
▁occasion	-6836
▁opinions	-6837
▁overlook	-6838
▁preserve	-6839
▁produces	-6840
▁reaction	-6841
▁regarded	-6842
▁replaced	-6843
▁resident	-6844
▁resulted	-6845
▁reversed	-6846
▁separate	-6847
▁strongly	-6848
▁systemic	-6849
▁treaties	-6850
▁underway	-6851
▁visiting	-6852
▁whatever	-6853
▁worrying	-6854
▁Democracy	-6855
▁Economics	-6856
▁Indonesia	-6857
▁Palestine	-6858
▁aftermath	-6859
▁algorithm	-6860
▁arguments	-6861
▁attracted	-6862
▁borrowers	-6863
▁combating	-6864
▁component	-6865
▁describes	-6866
▁dictators	-6867
▁directors	-6868
▁discourse	-6869
▁electoral	-6870
▁equitable	-6871
▁exclusion	-6872
▁generated	-6873
▁inability	-6874
▁initiated	-6875
▁injustice	-6876
▁intention	-6877
▁medicines	-6878
▁nutrition	-6879
▁overnight	-6880
▁platforms	-6881
▁proposals	-6882
▁redistrib	-6883
▁successes	-6884
▁suggested	-6885
▁surpluses	-6886
▁threshold	-6887
▁trillions	-6888
▁workplace	-6889
▁Chancellor	-6890
▁Department	-6891
▁Protection	-6892
▁accessible	-6893
▁aggression	-6894
▁assumption	-6895
▁compelling	-6896
▁expectancy	-6897
▁inevitably	-6898
▁infectious	-6899
▁insecurity	-6900
▁mobilizing	-6901
▁persistent	-6902
▁reasonable	-6903
▁reassuring	-6904
▁reinforced	-6905
▁resentment	-6906
▁suggesting	-6907
withstanding	-6908
▁Agriculture	-6909
▁Cooperation	-6910
▁arrangement	-6911
▁aspirations	-6912
▁competitors	-6913
▁consequence	-6914
▁enforcement	-6915
▁flexibility	-6916
▁grandmother	-6917
▁interdepend	-6918
▁involvement	-6919
▁journalists	-6920
▁maintaining	-6921
▁nonetheless	-6922
▁operational	-6923
▁predictable	-6924
▁revolutions	-6925
▁statistical	-6926
▁transformed	-6927
▁underscores	-6928
▁Constitution	-6929
▁biodiversity	-6930
▁capabilities	-6931
▁deleveraging	-6932
▁devaluations	-6933
▁economically	-6934
▁expectations	-6935
▁fundamentals	-6936
▁generational	-6937
▁geopolitical	-6938
▁humanitarian	-6939
▁instrumental	-6940
▁overwhelming	-6941
▁predecessors	-6942
▁shortcomings	-6943
▁surprisingly	-6944
▁unacceptable	-6945
▁urbanization	-6946
▁approximately	-6947
▁deforestation	-6948
▁dysfunctional	-6949
▁revolutionary	-6950
▁traditionally	-6951
▁transatlantic	-6952
▁demonstrations	-6953
▁interconnected	-6954
▁understandable	-6955
▁superconductors	-6956
66	-6957
AT	-6958
BA	-6959
BI	-6960
CP	-6961
EU	-6962
NA	-6963
PP	-6964
TA	-6965
co	-6966
eu	-6967
kj	-6968
oe	-6969
oo	-6970
▁&	-6971
▁‘	-6972
CID	-6973
GBT	-6974
Ivo	-6975
Kin	-6976
New	-6977
ago	-6978
ani	-6979
aud	-6980
aug	-6981
bra	-6982
dem	-6983
egu	-6984
ela	-6985
era	-6986
fol	-6987
iph	-6988
ips	-6989
jud	-6990
ole	-6991
osc	-6992
oto	-6993
ply	-6994
rey	-6995
rum	-6996
she	-6997
sum	-6998
uci	-6999
vis	-7000
yal	-7001
ykj	-7002
ôte	-7003
▁17	-7004
▁21	-7005
▁28	-7006
▁70	-7007
▁Ph	-7008
▁Sm	-7009
▁eg	-7010
ador	-7011
ales	-7012
arks	-7013
asty	-7014
avik	-7015
cean	-7016
cile	-7017
cost	-7018
elta	-7019
emed	-7020
eted	-7021
ford	-7022
fuel	-7023
gers	-7024
gred	-7025
happ	-7026
iche	-7027
inal	-7028
izon	-7029
ogle	-7030
orse	-7031
owed	-7032
prof	-7033
rank	-7034
rees	-7035
rity	-7036
rive	-7037
rous	-7038
ship	-7039
such	-7040
turn	-7041
▁$50	-7042
▁1.7	-7043
▁101	-7044
▁191	-7045
▁2.5	-7046
▁202	-7047
▁350	-7048
▁500	-7049
▁90%	-7050
▁Air	-7051
▁Bel	-7052
▁Ben	-7053
▁Few	-7054
▁Law	-7055
▁Pat	-7056
▁Ram	-7057
▁Tax	-7058
▁WHO	-7059
▁Xia	-7060
▁ast	-7061
▁bed	-7062
▁cha	-7063
▁cyn	-7064
▁dog	-7065
▁dub	-7066
▁fro	-7067
▁hat	-7068
▁luc	-7069
▁mag	-7070
▁pil	-7071
▁pul	-7072
▁rig	-7073
▁sad	-7074
▁sem	-7075
▁vac	-7076
▁via	-7077
▁vit	-7078
▁wal	-7079
▁yes	-7080
backs	-7081
const	-7082
dered	-7083
endas	-7084
eping	-7085
great	-7086
ilemm	-7087
inery	-7088
kesov	-7089
nting	-7090
opher	-7091
ordan	-7092
owned	-7093
perts	-7094
print	-7095
redit	-7096
rible	-7097
rives	-7098
trans	-7099
ullah	-7100
vable	-7101
yield	-7102
▁$500	-7103
▁1991	-7104
▁2007	-7105
▁2013	-7106
▁2030	-7107
▁Alex	-7108
▁Ange	-7109
▁Camb	-7110
▁Cher	-7111
▁Coal	-7112
▁Côte	-7113
▁Data	-7114
▁Emer	-7115
▁Enge	-7116
▁Face	-7117
▁Hist	-7118
▁Hung	-7119
▁Kamp	-7120
▁Krem	-7121
▁Mich	-7122
▁Mont	-7123
▁Prov	-7124
▁Sing	-7125
▁Soci	-7126
▁Stud	-7127
▁Wolf	-7128
▁Wood	-7129
▁acts	-7130
▁arts	-7131
▁awak	-7132
▁baby	-7133
▁boys	-7134
▁brib	-7135
▁cope	-7136
▁corn	-7137
▁coun	-7138
▁cycl	-7139
▁desp	-7140
▁docu	-7141
▁doub	-7142
▁enth	-7143
▁evil	-7144
▁exit	-7145
▁felt	-7146
▁girl	-7147
▁gras	-7148
▁grid	-7149
▁guid	-7150
▁hell	-7151
▁hire	-7152
▁leak	-7153
▁loan	-7154
▁lobb	-7155
▁mira	-7156
▁pict	-7157
▁pret	-7158
▁puts	-7159
▁rare	-7160
▁rock	-7161
▁star	-7162
▁stra	-7163
▁subt	-7164
▁toug	-7165
▁triv	-7166
▁turb	-7167
▁unit	-7168
▁unle	-7169
▁unne	-7170
▁vary	-7171
▁vent	-7172
▁vice	-7173
Ivoire	-7174
Kinsey	-7175
acking	-7176
adjust	-7177
arians	-7178
econom	-7179
elines	-7180
erties	-7181
gments	-7182
iation	-7183
imated	-7184
iments	-7185
liance	-7186
mentia	-7187
panies	-7188
ported	-7189
ptions	-7190
urable	-7191
▁1970’	-7192
▁2006,	-7193
▁2006.	-7194
▁2008.	-7195
▁2030.	-7196
▁Black	-7197
▁Board	-7198
▁Delta	-7199
▁Doing	-7200
▁Dream	-7201
▁Einst	-7202
▁Fried	-7203
▁Hamid	-7204
▁Initi	-7205
▁James	-7206
▁Labor	-7207
▁Peace	-7208
▁Power	-7209
▁Qaeda	-7210
▁Reykj	-7211
▁blind	-7212
▁breat	-7213
▁cloud	-7214
▁clout	-7215
▁conce	-7216
▁digit	-7217
▁disag	-7218
▁doorm	-7219
▁earth	-7220
▁elite	-7221
▁facts	-7222
▁farms	-7223
▁finds	-7224
▁forge	-7225
▁grass	-7226
▁heads	-7227
▁homes	-7228
▁honor	-7229
▁jihad	-7230
▁marry	-7231
▁match	-7232
▁music	-7233
▁north	-7234
▁peers	-7235
▁phone	-7236
▁pione	-7237
▁plumm	-7238
▁pride	-7239
▁print	-7240
▁react	-7241
▁rival	-7242
▁roads	-7243
▁sheer	-7244
▁socio	-7245
▁tends	-7246
▁topic	-7247
▁toxic	-7248
▁train	-7249
▁trial	-7250
▁uncon	-7251
▁votes	-7252
▁worry	-7253
alities	-7254
ariably	-7255
culosis	-7256
entions	-7257
hancing	-7258
herence	-7259
ilation	-7260
iration	-7261
largest	-7262
onomics	-7263
ophobia	-7264
quarter	-7265
verages	-7266
▁Balkan	-7267
▁Before	-7268
▁Carter	-7269
▁Growth	-7270
▁Jordan	-7271
▁Kenyan	-7272
▁MADRID	-7273
▁Ronald	-7274
▁Scient	-7275
▁Stalin	-7276
▁Unless	-7277
▁active	-7278
▁advent	-7279
▁analog	-7280
▁barely	-7281
▁begins	-7282
▁blamed	-7283
▁bodies	-7284
▁counts	-7285
▁couple	-7286
▁cultiv	-7287
▁dearth	-7288
▁defici	-7289
▁degrad	-7290
▁dispar	-7291
▁doctor	-7292
▁evolve	-7293
▁exclus	-7294
▁exists	-7295
▁explan	-7296
▁fellow	-7297
▁funded	-7298
▁grants	-7299
▁harmon	-7300
▁impair	-7301
▁ingred	-7302
▁lifted	-7303
▁oldest	-7304
▁overse	-7305
▁permit	-7306
▁pledge	-7307
▁poorly	-7308
▁procla	-7309
▁provin	-7310
▁racial	-7311
▁reconc	-7312
▁relied	-7313
▁resemb	-7314
▁restra	-7315
▁reveal	-7316
▁review	-7317
▁safegu	-7318
▁shaped	-7319
▁shocks	-7320
▁sports	-7321
▁stance	-7322
▁steady	-7323
▁strife	-7324
▁string	-7325
▁struck	-7326
▁unrest	-7327
▁virtue	-7328
▁visits	-7329
▁wisdom	-7330
adjusted	-7331
arations	-7332
imension	-7333
oriented	-7334
resource	-7335
▁Clearly	-7336
▁Closing	-7337
▁Confuci	-7338
▁Economy	-7339
▁Failure	-7340
▁Farmers	-7341
▁Hungary	-7342
▁Iceland	-7343
▁Increas	-7344
▁Iranian	-7345
▁Kampala	-7346
▁Kremlin	-7347
▁Mandela	-7348
▁Mexican	-7349
▁Neither	-7350
▁Science	-7351
▁Summers	-7352
▁Wangari	-7353
▁accompl	-7354
▁acquire	-7355
▁agendas	-7356
▁aggress	-7357
▁alleged	-7358
▁assumes	-7359
▁cabinet	-7360
▁careful	-7361
▁carried	-7362
▁cartels	-7363
▁chances	-7364
▁channel	-7365
▁charges	-7366
▁cholera	-7367
▁citizen	-7368
▁clients	-7369
▁compete	-7370
▁confirm	-7371
▁default	-7372
▁devices	-7373
▁devoted	-7374
▁distant	-7375
▁drivers	-7376
▁earning	-7377
▁employs	-7378
▁enables	-7379
▁enacted	-7380
▁erupted	-7381
▁fallout	-7382
▁forests	-7383
▁fueling	-7384
▁gaining	-7385
▁granted	-7386
▁harmful	-7387
▁lacking	-7388
▁logical	-7389
▁methods	-7390
▁metrics	-7391
▁outrage	-7392
▁painful	-7393
▁paradig	-7394
▁portfol	-7395
▁prolong	-7396
▁pursued	-7397
▁refugee	-7398
▁richest	-7399
▁rightly	-7400
▁showing	-7401
▁strikes	-7402
▁teacher	-7403
▁tension	-7404
▁tragedy	-7405
▁trivial	-7406
▁unusual	-7407
▁utterly	-7408
▁warfare	-7409
efficient	-7410
▁2008-200	-7411
▁Alliance	-7412
▁Atlantic	-7413
▁Einstein	-7414
▁Facebook	-7415
▁Independ	-7416
▁Israelis	-7417
▁Malaysia	-7418
▁McKinsey	-7419
▁Medicare	-7420
▁Progress	-7421
▁Research	-7422
▁academia	-7423
▁activism	-7424
▁advocate	-7425
▁aircraft	-7426
▁announce	-7427
▁arrested	-7428
▁attitude	-7429
▁blocking	-7430
▁breaking	-7431
▁daunting	-7432
▁deprived	-7433
▁destined	-7434
▁deterior	-7435
▁diaspora	-7436
▁disabled	-7437
▁disputed	-7438
▁distance	-7439
▁dynamics	-7440
▁engineer	-7441
▁explains	-7442
▁freedoms	-7443
▁governed	-7444
▁hegemony	-7445
▁imported	-7446
▁impunity	-7447
▁inaction	-7448
▁integral	-7449
▁manifest	-7450
▁marriage	-7451
▁meltdown	-7452
▁mistakes	-7453
▁outdated	-7454
▁packages	-7455
▁rainfall	-7456
▁reliable	-7457
▁reliance	-7458
▁remember	-7459
▁restored	-7460
▁stranger	-7461
▁striking	-7462
▁suddenly	-7463
▁superior	-7464
▁terrible	-7465
▁unnecess	-7466
▁upcoming	-7467
▁Abenomics	-7468
▁Algerians	-7469
▁Cambridge	-7470
▁Cherkesov	-7471
▁Companies	-7472
▁Financing	-7473
▁Islamists	-7474
▁Keynesian	-7475
▁Reykjavik	-7476
▁accepting	-7477
▁appealing	-7478
▁certainty	-7479
▁childhood	-7480
▁competing	-7481
▁computers	-7482
▁condemned	-7483
▁confident	-7484
▁conscious	-7485
▁contained	-7486
▁creditors	-7487
▁criminals	-7488
▁dedicated	-7489
▁denounced	-7490
▁discussed	-7491
▁displaced	-7492
▁divisions	-7493
▁dominance	-7494
▁emotional	-7495
▁factories	-7496
▁gradually	-7497
▁graduates	-7498
▁historian	-7499
▁inspiring	-7500
▁introduce	-7501
▁literally	-7502
▁machinery	-7503
▁modernity	-7504
▁operation	-7505
▁patriarch	-7506
▁perceived	-7507
▁presented	-7508
▁receiving	-7509
▁recovered	-7510
▁rejection	-7511
▁requiring	-7512
▁resolving	-7513
▁sectarian	-7514
▁seemingly	-7515
▁shortages	-7516
▁stimulate	-7517
▁suppliers	-7518
▁weakening	-7519
▁witnessed	-7520
development	-7521
uberculosis	-7522
▁Government	-7523
▁Initiative	-7524
▁accurately	-7525
▁adjustment	-7526
▁advantages	-7527
▁collection	-7528
▁complexity	-7529
▁constitute	-7530
▁controlled	-7531
▁convincing	-7532
▁creativity	-7533
▁disturbing	-7534
▁ecological	-7535
▁encourages	-7536
▁experiment	-7537
▁globalized	-7538
▁guarantees	-7539
▁historians	-7540
▁indicating	-7541
▁insurgents	-7542
▁invariably	-7543
▁politician	-7544
▁popularity	-7545
▁prevention	-7546
▁prosperous	-7547
▁rainforest	-7548
▁retirement	-7549
▁securities	-7550
▁superpower	-7551
▁sustaining	-7552
▁television	-7553
▁wastewater	-7554
▁Governments	-7555
▁algorithmic	-7556
▁approaching	-7557
▁consolidate	-7558
▁contributes	-7559
▁controversy	-7560
▁desperately	-7561
▁experiences	-7562
▁forthcoming	-7563
▁intolerance	-7564
▁obligations	-7565
▁problematic	-7566
▁recognizing	-7567
▁recommended	-7568
▁supervision	-7569
▁territories	-7570
▁traffickers	-7571
▁transparent	-7572
▁vaccination	-7573
▁Nevertheless	-7574
▁Specifically	-7575
▁Trumponomics	-7576
▁achievements	-7577
▁aggressively	-7578
▁catastrophic	-7579
▁collectively	-7580
▁conservation	-7581
▁considerably	-7582
▁constructive	-7583
▁disabilities	-7584
▁entrepreneur	-7585
▁participants	-7586
▁shareholders	-7587
▁totalitarian	-7588
▁transmission	-7589
▁accommodation	-7590
▁demonstrating	-7591
▁disappointing	-7592
▁manufacturers	-7593
▁modernization	-7594
▁parliamentary	-7595
▁socioeconomic	-7596
▁communications	-7597
▁overwhelmingly	-7598
▁reconciliation	-7599
▁simultaneously	-7600
▁unconventional	-7601
▁fundamentalists	-7602
▁representatives	-7603
6,	-7604
99	-7605
?”	-7606
AV	-7607
BU	-7608
CS	-7609
Es	-7610
IR	-7611
RA	-7612
RC	-7613
WI	-7614
bs	-7615
cu	-7616
fl	-7617
gs	-7618
ha	-7619
hy	-7620
no	-7621
ta	-7622
tw	-7623
yo	-7624
CAO	-7625
FTA	-7626
HAN	-7627
aur	-7628
def	-7629
dig	-7630
emy	-7631
fur	-7632
gay	-7633
har	-7634
how	-7635
ien	-7636
inh	-7637
inz	-7638
iol	-7639
ius	-7640
kin	-7641
med	-7642
ney	-7643
oha	-7644
osy	-7645
oul	-7646
ppo	-7647
ses	-7648
sky	-7649
tra	-7650
uba	-7651
uda	-7652
ude	-7653
van	-7654
wed	-7655
who	-7656
zed	-7657
zen	-7658
▁1,	-7659
▁24	-7660
▁27	-7661
▁4%	-7662
▁65	-7663
▁7%	-7664
▁7.	-7665
▁Ak	-7666
▁BE	-7667
▁BP	-7668
▁BR	-7669
▁Fl	-7670
▁Ol	-7671
▁TV	-7672
▁Ur	-7673
▁sn	-7674
▁€1	-7675
ARIS	-7676
AVEN	-7677
Shia	-7678
achu	-7679
alem	-7680
anks	-7681
anth	-7682
asks	-7683
ball	-7684
cend	-7685
cles	-7686
drop	-7687
eing	-7688
fold	-7689
ials	-7690
icon	-7691
iety	-7692
ifts	-7693
ilib	-7694
imal	-7695
itiv	-7696
ivot	-7697
lter	-7698
mare	-7699
moon	-7700
nard	-7701
okyo	-7702
onor	-7703
ooth	-7704
orld	-7705
pper	-7706
radu	-7707
rass	-7708
rick	-7709
rine	-7710
risy	-7711
roll	-7712
rote	-7713
sels	-7714
step	-7715
teen	-7716
uity	-7717
▁$1.	-7718
▁15%	-7719
▁Ale	-7720
▁Att	-7721
▁BoJ	-7722
▁Del	-7723
▁Emp	-7724
▁Inf	-7725
▁Kim	-7726
▁Lag	-7727
▁Lee	-7728
▁Mag	-7729
▁Mug	-7730
▁PCA	-7731
▁Pan	-7732
▁Ren	-7733
▁Tig	-7734
▁VAT	-7735
▁WWI	-7736
▁aug	-7737
▁cod	-7738
▁cra	-7739
▁cri	-7740
▁dry	-7741
▁eye	-7742
▁fed	-7743
▁fun	-7744
▁geo	-7745
▁glo	-7746
▁gri	-7747
▁hab	-7748
▁hed	-7749
▁hus	-7750
▁lad	-7751
▁lay	-7752
▁lit	-7753
▁meg	-7754
▁mil	-7755
▁odd	-7756
▁ped	-7757
▁spl	-7758
▁sta	-7759
▁unm	-7760
after	-7761
ander	-7762
apers	-7763
apore	-7764
arted	-7765
atism	-7766
bonds	-7767
chand	-7768
ciers	-7769
early	-7770
eling	-7771
elong	-7772
ength	-7773
enter	-7774
euver	-7775
fired	-7776
front	-7777
gence	-7778
gered	-7779
iated	-7780
icing	-7781
ience	-7782
ierce	-7783
iforn	-7784
inter	-7785
istre	-7786
itage	-7787
oking	-7788
oscow	-7789
ostic	-7790
othes	-7791
overs	-7792
owing	-7793
parts	-7794
produ	-7795
rival	-7796
roots	-7797
secut	-7798
setts	-7799
trade	-7800
uracy	-7801
worth	-7802
▁2.5%	-7803
▁2001	-7804
▁2003	-7805
▁3.5%	-7806
▁9/11	-7807
▁Alas	-7808
▁Bern	-7809
▁Bill	-7810
▁Bret	-7811
▁Doha	-7812
▁Each	-7813
▁Gand	-7814
▁ICAO	-7815
▁Jobs	-7816
▁LGBT	-7817
▁Left	-7818
▁Less	-7819
▁Mali	-7820
▁Mass	-7821
▁Maur	-7822
▁Muse	-7823
▁Path	-7824
▁Peru	-7825
▁Poor	-7826
▁Prom	-7827
▁Rich	-7828
▁SCID	-7829
▁Stat	-7830
▁Test	-7831
▁Tony	-7832
▁Vacc	-7833
▁Vice	-7834
▁aven	-7835
▁bloc	-7836
▁blow	-7837
▁bran	-7838
▁brid	-7839
▁burn	-7840
▁cham	-7841
▁crus	-7842
▁diet	-7843
▁door	-7844
▁dust	-7845
▁elev	-7846
▁epic	-7847
▁epis	-7848
▁erod	-7849
▁eval	-7850
▁fade	-7851
▁fant	-7852
▁fasc	-7853
▁film	-7854
▁fine	-7855
▁halt	-7856
▁hect	-7857
▁heed	-7858
▁laid	-7859
▁lest	-7860
▁mild	-7861
▁mood	-7862
▁note	-7863
▁nurt	-7864
▁onto	-7865
▁perv	-7866
▁pill	-7867
▁prud	-7868
▁pull	-7869
▁reci	-7870
▁sale	-7871
▁seas	-7872
▁suit	-7873
▁tail	-7874
▁tide	-7875
▁unex	-7876
▁uphe	-7877
▁vind	-7878
▁wait	-7879
▁wife	-7880
▁wins	-7881
alling	-7882
author	-7883
edness	-7884
engine	-7885
ictory	-7886
invest	-7887
issing	-7888
ivable	-7889
matism	-7890
ocrisy	-7891
racted	-7892
rowley	-7893
school	-7894
siders	-7895
▁1977,	-7896
▁1989,	-7897
▁2003,	-7898
▁2013.	-7899
▁Annan	-7900
▁Assad	-7901
▁Blair	-7902
▁Engel	-7903
▁Fight	-7904
▁Front	-7905
▁HAVEN	-7906
▁Irish	-7907
▁Large	-7908
▁Osama	-7909
▁PARIS	-7910
▁Peter	-7911
▁Sadly	-7912
▁Shinz	-7913
▁Tokyo	-7914
▁Yemen	-7915
▁Young	-7916
▁advis	-7917
▁alien	-7918
▁apart	-7919
▁bills	-7920
▁catch	-7921
▁clash	-7922
▁depth	-7923
▁dereg	-7924
▁dozen	-7925
▁drove	-7926
▁dwell	-7927
▁ecosy	-7928
▁embar	-7929
▁enemy	-7930
▁essay	-7931
▁fraud	-7932
▁grave	-7933
▁grows	-7934
▁guess	-7935
▁inaug	-7936
▁loyal	-7937
▁midst	-7938
▁mired	-7939
▁motor	-7940
▁newly	-7941
▁noted	-7942
▁onset	-7943
▁ought	-7944
▁owned	-7945
▁panel	-7946
▁paper	-7947
▁pharm	-7948
▁plaus	-7949
▁poses	-7950
▁ranks	-7951
▁recip	-7952
▁reput	-7953
▁revel	-7954
▁rises	-7955
▁route	-7956
▁saved	-7957
▁sight	-7958
▁skill	-7959
▁slack	-7960
▁stret	-7961
▁strid	-7962
▁teams	-7963
▁touch	-7964
▁towns	-7965
▁trump	-7966
▁types	-7967
▁tyran	-7968
▁unite	-7969
▁users	-7970
▁verge	-7971
▁voted	-7972
▁weigh	-7973
▁wheat	-7974
▁wrote	-7975
African	-7976
actions	-7977
athetic	-7978
atories	-7979
control	-7980
economy	-7981
embered	-7982
forward	-7983
ifornia	-7984
lfriend	-7985
ologies	-7986
osition	-7987
ouncing	-7988
perform	-7989
product	-7990
ratives	-7991
reement	-7992
renched	-7993
support	-7994
tenance	-7995
version	-7996
▁Action	-7997
▁Agency	-7998
▁Aleppo	-7999
▁Almost	-8000
▁Author	-8001
▁Camden	-8002
▁Colomb	-8003
▁Crisis	-8004
▁Energy	-8005
▁Former	-8006
▁Google	-8007
▁League	-8008
▁Madrid	-8009
▁Moscow	-8010
▁Mugabe	-8011
▁Reform	-8012
▁Should	-8013
▁Simply	-8014
▁Twenty	-8015
▁Unlike	-8016
▁ambass	-8017
▁anemic	-8018
▁asking	-8019
▁behave	-8020
▁bought	-8021
▁bridge	-8022
▁corner	-8023
▁deadly	-8024
▁deemed	-8025
▁deserv	-8026
▁dilemm	-8027
▁domain	-8028
▁dozens	-8029
▁dreams	-8030
▁driver	-8031
▁enthus	-8032
▁explos	-8033
▁feared	-8034
▁fierce	-8035
▁filled	-8036
▁flawed	-8037
▁fought	-8038
▁fronts	-8039
▁hatred	-8040
▁height	-8041
▁heroin	-8042
▁hidden	-8043
▁hungry	-8044
▁incarn	-8045
▁incite	-8046
▁indiff	-8047
▁inside	-8048
▁inward	-8049
▁island	-8050
▁jailed	-8051
▁judged	-8052
▁length	-8053
▁losers	-8054
▁lowest	-8055
▁paraly	-8056
▁plural	-8057
▁proced	-8058
▁ranked	-8059
▁ratify	-8060
▁reluct	-8061
▁replic	-8062
▁repudi	-8063
▁revolt	-8064
▁richer	-8065
▁rolled	-8066
▁ruling	-8067
▁signal	-8068
▁smooth	-8069
▁sooner	-8070
▁stages	-8071
▁stream	-8072
▁street	-8073
▁strike	-8074
▁subtle	-8075
▁suspic	-8076
▁triump	-8077
▁unfair	-8078
▁unreal	-8079
▁versus	-8080
▁victim	-8081
▁volume	-8082
▁weaken	-8083
▁whites	-8084
▁worsen	-8085
building	-8086
chandise	-8087
financed	-8088
friendly	-8089
interest	-8090
learning	-8091
regional	-8092
▁Already	-8093
▁Armenia	-8094
▁Balkans	-8095
▁Banking	-8096
▁Cameron	-8097
▁Conserv	-8098
▁Equally	-8099
▁Francis	-8100
▁Georgia	-8101
▁Justice	-8102
▁Leaders	-8103
▁Liberal	-8104
▁Maistre	-8105
▁Maynard	-8106
▁Network	-8107
▁Similar	-8108
▁abandon	-8109
▁affects	-8110
▁answers	-8111
▁anxiety	-8112
▁arrived	-8113
▁aspects	-8114
▁assault	-8115
▁assured	-8116
▁avoided	-8117
▁bailout	-8118
▁brother	-8119
▁burdens	-8120
▁careers	-8121
▁caution	-8122
▁charter	-8123
▁cleanup	-8124
▁closing	-8125
▁condemn	-8126
▁confron	-8127
▁contest	-8128
▁convers	-8129
▁covered	-8130
▁desired	-8131
▁destiny	-8132
▁dioxide	-8133
▁dismant	-8134
▁display	-8135
▁dropped	-8136
▁emulate	-8137
▁enabled	-8138
▁enlarge	-8139
▁ensuing	-8140
▁entered	-8141
▁expects	-8142
▁express	-8143
▁fashion	-8144
▁favored	-8145
▁forcing	-8146
▁foresee	-8147
▁handful	-8148
▁hegemon	-8149
▁herself	-8150
▁husband	-8151
▁logging	-8152
▁melting	-8153
▁millenn	-8154
▁offices	-8155
▁paralle	-8156
▁passing	-8157
▁periods	-8158
▁picture	-8159
▁plaques	-8160
▁pricing	-8161
▁privacy	-8162
▁publish	-8163
▁recruit	-8164
▁restaur	-8165
▁revival	-8166
▁schemes	-8167
▁sending	-8168
▁shelter	-8169
▁shifted	-8170
▁sincere	-8171
▁soaring	-8172
▁stagger	-8173
▁stalled	-8174
▁stories	-8175
▁subsidi	-8176
▁suffers	-8177
▁surface	-8178
▁surgery	-8179
▁surpass	-8180
▁tougher	-8181
▁traders	-8182
▁turnout	-8183
▁urgency	-8184
▁vaccine	-8185
▁whoever	-8186
▁writing	-8187
achusetts	-8188
effective	-8189
icultural	-8190
imilation	-8191
istically	-8192
izational	-8193
mentation	-8194
okestacks	-8195
▁Emerging	-8196
▁Protocol	-8197
▁Russians	-8198
▁Together	-8199
▁absentee	-8200
▁abundant	-8201
▁accuracy	-8202
▁acquired	-8203
▁adoption	-8204
▁alarming	-8205
▁alliance	-8206
▁allocate	-8207
▁analysts	-8208
▁aviation	-8209
▁backdrop	-8210
▁bankrupt	-8211
▁carrying	-8212
▁conclude	-8213
▁constitu	-8214
▁criteria	-8215
▁cyclical	-8216
▁daughter	-8217
▁dementia	-8218
▁describe	-8219
▁destabil	-8220
▁dictator	-8221
▁discover	-8222
▁earnings	-8223
▁emission	-8224
▁employed	-8225
▁equipped	-8226
▁excluded	-8227
▁famously	-8228
▁fighters	-8229
▁fraction	-8230
▁heritage	-8231
▁hopeless	-8232
▁hypothes	-8233
▁ideology	-8234
▁illusion	-8235
▁impaired	-8236
▁incorpor	-8237
▁indirect	-8238
▁injuries	-8239
▁inspired	-8240
▁instinct	-8241
▁investig	-8242
▁investor	-8243
▁lifelong	-8244
▁literary	-8245
▁maneuver	-8246
▁minimize	-8247
▁mountain	-8248
▁obstacle	-8249
▁officers	-8250
▁optimism	-8251
▁overhaul	-8252
▁pipeline	-8253
▁pointing	-8254
▁printing	-8255
▁province	-8256
▁refugees	-8257
▁refusing	-8258
▁resolved	-8259
▁securing	-8260
▁sensible	-8261
▁settling	-8262
▁socially	-8263
▁stressed	-8264
▁surround	-8265
▁traction	-8266
▁treating	-8267
▁troubles	-8268
▁vehicles	-8269
▁volatile	-8270
▁watching	-8271
▁weakened	-8272
▁widening	-8273
▁youngest	-8274
controlled	-8275
ifications	-8276
management	-8277
▁Bollywood	-8278
▁Confucian	-8279
▁Ethiopian	-8280
▁Otherwise	-8281
▁Recession	-8282
▁Singapore	-8283
▁Solutions	-8284
▁Strategic	-8285
▁admission	-8286
▁advancing	-8287
▁advocates	-8288
▁allocated	-8289
▁benefited	-8290
▁beverages	-8291
▁brightest	-8292
▁campaigns	-8293
▁carefully	-8294
▁classroom	-8295
▁collapsed	-8296
▁conducted	-8297
▁consuming	-8298
▁deploying	-8299
▁eliminate	-8300
▁evolution	-8301
▁executive	-8302
▁genuinely	-8303
▁happiness	-8304
▁illnesses	-8305
▁incumbent	-8306
▁intervene	-8307
▁interview	-8308
▁lucrative	-8309
▁marketing	-8310
▁naturally	-8311
▁nightmare	-8312
▁operators	-8313
▁outsiders	-8314
▁periphery	-8315
▁persuaded	-8316
▁precedent	-8317
▁premature	-8318
▁prevented	-8319
▁principal	-8320
▁realizing	-8321
▁regulated	-8322
▁respected	-8323
▁sacrifice	-8324
▁searching	-8325
▁secretary	-8326
▁sensitive	-8327
▁substance	-8328
▁unpredict	-8329
▁upgrading	-8330
▁varieties	-8331
▁withstand	-8332
▁California	-8333
▁acceptable	-8334
▁achievable	-8335
▁adequately	-8336
▁admissions	-8337
▁advocating	-8338
▁altogether	-8339
▁appointees	-8340
▁appreciate	-8341
▁attracting	-8342
▁attractive	-8343
▁automation	-8344
▁capitalize	-8345
▁categories	-8346
▁challenged	-8347
▁comparison	-8348
▁complaints	-8349
▁complement	-8350
▁compounded	-8351
▁connection	-8352
▁discovered	-8353
▁enterprise	-8354
▁highlights	-8355
▁impairment	-8356
▁impression	-8357
▁inherently	-8358
▁maximizing	-8359
▁organizing	-8360
▁positioned	-8361
▁prevailing	-8362
▁profitable	-8363
▁protecting	-8364
▁protracted	-8365
▁purchasing	-8366
▁recognizes	-8367
▁remembered	-8368
▁respective	-8369
▁responding	-8370
▁situations	-8371
▁struggling	-8372
▁subsequent	-8373
▁supplement	-8374
▁supposedly	-8375
▁wealthiest	-8376
▁witnessing	-8377
▁accelerated	-8378
▁acknowledge	-8379
▁advertising	-8380
▁backgrounds	-8381
▁bureaucracy	-8382
▁celebration	-8383
▁challenging	-8384
▁comparative	-8385
▁complicated	-8386
▁contraction	-8387
▁dangerously	-8388
▁empowerment	-8389
▁engineering	-8390
▁expenditure	-8391
▁explanation	-8392
▁financially	-8393
▁illustrates	-8394
▁ingredients	-8395
▁instruments	-8396
▁intractable	-8397
▁merchandise	-8398
▁negotiators	-8399
▁preparation	-8400
▁protections	-8401
▁reinforcing	-8402
▁replacement	-8403
▁settlements	-8404
▁smallholder	-8405
▁speculation	-8406
▁subsistence	-8407
▁Agricultural	-8408
▁Policymakers	-8409
▁accelerating	-8410
▁acknowledged	-8411
▁announcement	-8412
▁anticipation	-8413
▁bureaucratic	-8414
▁contributing	-8415
▁declarations	-8416
▁expenditures	-8417
▁marginalized	-8418
▁neighborhood	-8419
▁perpetrators	-8420
▁perspectives	-8421
▁quantitative	-8422
▁questionable	-8423
▁representing	-8424
▁stakeholders	-8425
▁transitional	-8426
▁Massachusetts	-8427
▁accessibility	-8428
▁concentration	-8429
▁confederation	-8430
▁confrontation	-8431
▁protectionism	-8432
▁underestimated	-8433
▁internationally	-8434
▁notwithstanding	-8435
!”	-8436
-8	-8437
21	-8438
45	-8439
AI	-8440
AL	-8441
AW	-8442
Al	-8443
GO	-8444
It	-8445
KY	-8446
MS	-8447
RG	-8448
ec	-8449
ju	-8450
po	-8451
py	-8452
zz	-8453
-15	-8454
200	-8455
ICT	-8456
IRO	-8457
Ind	-8458
KYO	-8459
NES	-8460
You	-8461
adu	-8462
ana	-8463
aph	-8464
asy	-8465
ato	-8466
awi	-8467
bar	-8468
bat	-8469
beh	-8470
bel	-8471
big	-8472
bor	-8473
cel	-8474
cho	-8475
cur	-8476
del	-8477
ebr	-8478
exc	-8479
fro	-8480
gar	-8481
gon	-8482
ias	-8483
ikh	-8484
ils	-8485
imp	-8486
ini	-8487
itc	-8488
ixt	-8489
lav	-8490
lim	-8491
log	-8492
lov	-8493
mal	-8494
mut	-8495
nov	-8496
oca	-8497
oln	-8498
osm	-8499
owl	-8500
oys	-8501
oze	-8502
rav	-8503
roc	-8504
sur	-8505
tes	-8506
two	-8507
upr	-8508
ylo	-8509
▁$9	-8510
▁8.	-8511
▁80	-8512
▁9%	-8513
▁9.	-8514
▁ES	-8515
▁Eb	-8516
▁JO	-8517
▁Ki	-8518
▁Ny	-8519
▁Ox	-8520
▁Ri	-8521
▁TO	-8522
▁gi	-8523
▁je	-8524
000,	-8525
BURG	-8526
ELHI	-8527
INCE	-8528
aboo	-8529
acco	-8530
acts	-8531
airo	-8532
aker	-8533
arde	-8534
aska	-8535
atar	-8536
athe	-8537
atts	-8538
aved	-8539
beit	-8540
bons	-8541
cher	-8542
epal	-8543
epid	-8544
hang	-8545
icit	-8546
igen	-8547
imid	-8548
inds	-8549
irms	-8550
irty	-8551
itch	-8552
lass	-8553
lerk	-8554
life	-8555
mble	-8556
medi	-8557
nels	-8558
norm	-8559
oist	-8560
oman	-8561
omas	-8562
oran	-8563
oret	-8564
osen	-8565
pric	-8566
rand	-8567
rant	-8568
reet	-8569
riad	-8570
rier	-8571
rium	-8572
rons	-8573
stan	-8574
stop	-8575
umer	-8576
umin	-8577
utch	-8578
weak	-8579
will	-8580
zing	-8581
▁$35	-8582
▁($3	-8583
▁($7	-8584
▁12%	-8585
▁183	-8586
▁192	-8587
▁24%	-8588
▁300	-8589
▁Ach	-8590
▁Ash	-8591
▁Bay	-8592
▁Clo	-8593
▁Dam	-8594
▁ENP	-8595
▁Est	-8596
▁Fam	-8597
▁Fuk	-8598
▁Gal	-8599
▁Had	-8600
▁Hel	-8601
▁Hig	-8602
▁Ifo	-8603
▁Jac	-8604
▁Jer	-8605
▁Jin	-8606
▁KGB	-8607
▁Kag	-8608
▁MIT	-8609
▁Mah	-8610
▁McH	-8611
▁Mid	-8612
▁Mil	-8613
▁ODA	-8614
▁Pen	-8615
▁Pot	-8616
▁Pre	-8617
▁Rec	-8618
▁Rio	-8619
▁TAR	-8620
▁TPP	-8621
▁Tar	-8622
▁arb	-8623
▁bin	-8624
▁coh	-8625
▁fat	-8626
▁fit	-8627
▁gar	-8628
▁haz	-8629
▁hes	-8630
▁hol	-8631
▁isn	-8632
▁kil	-8633
▁les	-8634
▁lic	-8635
▁mad	-8636
▁map	-8637
▁mun	-8638
▁nom	-8639
▁ske	-8640
▁syn	-8641
▁tap	-8642
▁tie	-8643
▁tob	-8644
▁uni	-8645
▁upt	-8646
IROBI	-8647
aceut	-8648
achev	-8649
alism	-8650
arded	-8651
arked	-8652
asant	-8653
awing	-8654
domin	-8655
ellen	-8656
eneva	-8657
erere	-8658
erson	-8659
etime	-8660
field	-8661
habit	-8662
happy	-8663
heast	-8664
igned	-8665
iland	-8666
iliar	-8667
inent	-8668
integ	-8669
isted	-8670
itary	-8671
itate	-8672
lined	-8673
matic	-8674
orate	-8675
ordon	-8676
organ	-8677
orsed	-8678
osion	-8679
otten	-8680
pture	-8681
raged	-8682
rayed	-8683
riors	-8684
skept	-8685
spons	-8686
stone	-8687
tling	-8688
uated	-8689
urric	-8690
usive	-8691
utral	-8692
value	-8693
vedev	-8694
yloid	-8695
▁$200	-8696
▁2050	-8697
▁Anti	-8698
▁Back	-8699
▁Bast	-8700
▁Belt	-8701
▁Bond	-8702
▁Clin	-8703
▁Cuba	-8704
▁Decl	-8705
▁Emir	-8706
▁Fink	-8707
▁Five	-8708
▁Gorb	-8709
▁Hall	-8710
▁Jose	-8711
▁Linc	-8712
▁Mikh	-8713
▁Mund	-8714
▁Nadu	-8715
▁Nazi	-8716
▁Nebr	-8717
▁Norm	-8718
▁Poll	-8719
▁Pope	-8720
▁Prof	-8721
▁Sand	-8722
▁WWII	-8723
▁Zone	-8724
▁adap	-8725
▁bias	-8726
▁brok	-8727
▁caut	-8728
▁clim	-8729
▁cold	-8730
▁duty	-8731
▁elig	-8732
▁forb	-8733
▁grip	-8734
▁hate	-8735
▁keen	-8736
▁leap	-8737
▁lift	-8738
▁love	-8739
▁owed	-8740
▁pand	-8741
▁pays	-8742
▁peak	-8743
▁pron	-8744
▁prox	-8745
▁pund	-8746
▁pure	-8747
▁rall	-8748
▁shed	-8749
▁snow	-8750
▁stew	-8751
▁toll	-8752
▁tort	-8753
▁traw	-8754
▁trop	-8755
▁wall	-8756
▁wary	-8757
▁webs	-8758
▁wors	-8759
HANNES	-8760
alties	-8761
around	-8762
awatts	-8763
border	-8764
comers	-8765
enable	-8766
encing	-8767
enting	-8768
erated	-8769
etting	-8770
forces	-8771
former	-8772
funded	-8773
ighter	-8774
irming	-8775
othing	-8776
ounder	-8777
owered	-8778
strong	-8779
taking	-8780
uction	-8781
usions	-8782
vement	-8783
▁1930’	-8784
▁1960,	-8785
▁2001.	-8786
▁2020.	-8787
▁5,000	-8788
▁Civil	-8789
▁DELHI	-8790
▁Divid	-8791
▁Dutch	-8792
▁Ebola	-8793
▁Force	-8794
▁Immun	-8795
▁Inequ	-8796
▁Klerk	-8797
▁Koran	-8798
▁Kyoto	-8799
▁Laden	-8800
▁Nazis	-8801
▁Nepal	-8802
▁Ocean	-8803
▁Qatar	-8804
▁Somet	-8805
▁Stand	-8806
▁TOKYO	-8807
▁Tamil	-8808
▁Urban	-8809
▁Using	-8810
▁absor	-8811
▁admit	-8812
▁agrib	-8813
▁ample	-8814
▁arsen	-8815
▁avert	-8816
▁aware	-8817
▁brief	-8818
▁brink	-8819
▁bulge	-8820
▁burge	-8821
▁cards	-8822
▁centr	-8823
▁chaos	-8824
▁chose	-8825
▁cited	-8826
▁coinc	-8827
▁court	-8828
▁cripp	-8829
▁curve	-8830
▁depos	-8831
▁draft	-8832
▁drast	-8833
▁egreg	-8834
▁embed	-8835
▁enact	-8836
▁encom	-8837
▁entry	-8838
▁escap	-8839
▁feels	-8840
▁fifth	-8841
▁fired	-8842
▁flags	-8843
▁fruit	-8844
▁grain	-8845
▁grant	-8846
▁griev	-8847
▁haven	-8848
▁hedge	-8849
▁holid	-8850
▁incap	-8851
▁incon	-8852
▁insol	-8853
▁irony	-8854
▁lifes	-8855
▁meals	-8856
▁miles	-8857
▁names	-8858
▁nomin	-8859
▁panic	-8860
▁parks	-8861
▁phase	-8862
▁piece	-8863
▁polar	-8864
▁ports	-8865
▁pregn	-8866
▁rally	-8867
▁resum	-8868
▁resur	-8869
▁river	-8870
▁roles	-8871
▁shoes	-8872
▁sorts	-8873
▁steel	-8874
▁swift	-8875
▁tasks	-8876
▁tepid	-8877
▁theme	-8878
▁troop	-8879
▁twist	-8880
▁upper	-8881
▁vague	-8882
▁veget	-8883
▁visas	-8884
▁watch	-8885
▁waves	-8886
INCETON	-8887
Western	-8888
anthrop	-8889
arching	-8890
arshall	-8891
certain	-8892
content	-8893
ersonal	-8894
healthy	-8895
ictions	-8896
inction	-8897
reating	-8898
redited	-8899
respond	-8900
respons	-8901
ulating	-8902
▁Absent	-8903
▁Andrew	-8904
▁Angela	-8905
▁Better	-8906
▁Credit	-8907
▁Darfur	-8908
▁Decade	-8909
▁Donors	-8910
▁Export	-8911
▁Forces	-8912
▁Gender	-8913
▁Geneva	-8914
▁Gordon	-8915
▁Hispan	-8916
▁Hunger	-8917
▁Kagame	-8918
▁Nearly	-8919
▁Review	-8920
▁Rising	-8921
▁Shinzo	-8922
▁Thomas	-8923
▁Ukrain	-8924
▁Yellen	-8925
▁abound	-8926
▁acquis	-8927
▁benign	-8928
▁caliph	-8929
▁caught	-8930
▁childb	-8931
▁citing	-8932
▁cleare	-8933
▁clinic	-8934
▁desert	-8935
▁devote	-8936
▁differ	-8937
▁disreg	-8938
▁exempl	-8939
▁famine	-8940
▁formed	-8941
▁foster	-8942
▁frozen	-8943
▁giants	-8944
▁handle	-8945
▁hearts	-8946
▁honest	-8947
▁hosted	-8948
▁humans	-8949
▁impede	-8950
▁indebt	-8951
▁inject	-8952
▁interf	-8953
▁locked	-8954
▁luxury	-8955
▁marine	-8956
▁master	-8957
▁murder	-8958
▁myriad	-8959
▁native	-8960
▁notice	-8961
▁parity	-8962
▁passed	-8963
▁patron	-8964
▁phrase	-8965
▁player	-8966
▁pleads	-8967
▁poised	-8968
▁precip	-8969
▁prejud	-8970
▁ratios	-8971
▁regain	-8972
▁regist	-8973
▁retali	-8974
▁rooted	-8975
▁scheme	-8976
▁shadow	-8977
▁shifts	-8978
▁shorts	-8979
▁slower	-8980
▁storms	-8981
▁tenure	-8982
▁tested	-8983
▁thinks	-8984
▁tribal	-8985
▁turbul	-8986
▁underg	-8987
▁valued	-8988
▁vested	-8989
▁wasted	-8990
▁window	-8991
▁winner	-8992
▁winter	-8993
Japanese	-8994
aughters	-8995
centered	-8996
changing	-8997
children	-8998
election	-8999
existent	-9000
ilibrium	-9001
itioners	-9002
oretical	-9003
petitive	-9004
reported	-9005
standard	-9006
▁Abbasid	-9007
▁Account	-9008
▁Between	-9009
▁Bretton	-9010
▁Clooney	-9011
▁England	-9012
▁Experts	-9013
▁Jinping	-9014
▁Johnson	-9015
▁Lincoln	-9016
▁Marbles	-9017
▁McHenry	-9018
▁Mikhail	-9019
▁Mundell	-9020
▁NAIROBI	-9021
▁Nyerere	-9022
▁Pacific	-9023
▁Richard	-9024
▁Romania	-9025
▁Serbian	-9026
▁Service	-9027
▁Several	-9028
▁Society	-9029
▁Special	-9030
▁Success	-9031
▁Sustain	-9032
▁anytime	-9033
▁augment	-9034
▁bargain	-9035
▁beliefs	-9036
▁blocked	-9037
▁bonuses	-9038
▁breakup	-9039
▁carries	-9040
▁charity	-9041
▁coastal	-9042
▁combust	-9043
▁command	-9044
▁comment	-9045
▁conclus	-9046
▁consent	-9047
▁courses	-9048
▁damaged	-9049
▁dangers	-9050
▁debated	-9051
▁degrees	-9052
▁delayed	-9053
▁denying	-9054
▁depreci	-9055
▁deserve	-9056
▁dignity	-9057
▁doubled	-9058
▁educate	-9059
▁enjoyed	-9060
▁enlight	-9061
▁erosion	-9062
▁evolved	-9063
▁explore	-9064
▁extract	-9065
▁forever	-9066
▁forging	-9067
▁formula	-9068
▁fulfill	-9069
▁gravity	-9070
▁horizon	-9071
▁ideolog	-9072
▁illicit	-9073
▁implied	-9074
▁inflict	-9075
▁intimid	-9076
▁issuing	-9077
▁looming	-9078
▁manager	-9079
▁midterm	-9080
▁mineral	-9081
▁miracle	-9082
▁morally	-9083
▁municip	-9084
▁notable	-9085
▁officer	-9086
▁outsize	-9087
▁patient	-9088
▁persuas	-9089
▁physics	-9090
▁premium	-9091
▁prevail	-9092
▁primacy	-9093
▁propose	-9094
▁prudent	-9095
▁realism	-9096
▁reconst	-9097
▁recover	-9098
▁redress	-9099
▁remorse	-9100
▁renewal	-9101
▁request	-9102
▁rupture	-9103
▁scholar	-9104
▁slowing	-9105
▁smarter	-9106
▁solving	-9107
▁storage	-9108
▁strides	-9109
▁summits	-9110
▁surveys	-9111
▁tactics	-9112
▁telling	-9113
▁tightly	-9114
▁tobacco	-9115
▁tripled	-9116
▁warning	-9117
▁whereby	-9118
▁worries	-9119
aceutical	-9120
diagnosed	-9121
establish	-9122
formation	-9123
relations	-9124
ructuring	-9125
supported	-9126
▁Abdullah	-9127
▁Building	-9128
▁Colombia	-9129
▁Egyptian	-9130
▁Friedman	-9131
▁JOHANNES	-9132
▁Medvedev	-9133
▁Nebraska	-9134
▁Nigerian	-9135
▁Opportun	-9136
▁Services	-9137
▁Southern	-9138
▁Whatever	-9139
▁abortion	-9140
▁accident	-9141
▁agreeing	-9142
▁airlines	-9143
▁assuming	-9144
▁balances	-9145
▁borrowed	-9146
▁cautious	-9147
▁ceremony	-9148
▁chairman	-9149
▁channels	-9150
▁communic	-9151
▁confused	-9152
▁contempl	-9153
▁cultures	-9154
▁customer	-9155
▁deciding	-9156
▁decrease	-9157
▁defenses	-9158
▁defining	-9159
▁deployed	-9160
▁disinteg	-9161
▁dynamism	-9162
▁embraced	-9163
▁endorsed	-9164
▁fairness	-9165
▁familiar	-9166
▁farmland	-9167
▁formally	-9168
▁generals	-9169
▁geograph	-9170
▁implicit	-9171
▁inequity	-9172
▁killings	-9173
▁lifetime	-9174
▁linkages	-9175
▁machines	-9176
▁markedly	-9177
▁maternal	-9178
▁meantime	-9179
▁measured	-9180
▁missiles	-9181
▁misunder	-9182
▁morality	-9183
▁navigate	-9184
▁occupied	-9185
▁openness	-9186
▁overhang	-9187
▁overseas	-9188
▁paradigm	-9189
▁partisan	-9190
▁persuade	-9191
▁physical	-9192
▁poisoned	-9193
▁presents	-9194
▁purposes	-9195
▁reassure	-9196
▁recruits	-9197
▁redirect	-9198
▁reformed	-9199
▁rejected	-9200
▁reminded	-9201
▁reminder	-9202
▁republic	-9203
▁rewarded	-9204
▁segments	-9205
▁societal	-9206
▁stagnant	-9207
▁stemming	-9208
▁straight	-9209
▁supervis	-9210
▁tempting	-9211
▁universe	-9212
▁updating	-9213
▁villages	-9214
▁warriors	-9215
generation	-9216
▁Authority	-9217
▁Developed	-9218
▁Gorbachev	-9219
▁PRINCETON	-9220
▁Relations	-9221
▁Stability	-9222
▁Terrorism	-9223
▁Therefore	-9224
▁abandoned	-9225
▁academics	-9226
▁alongside	-9227
▁appointed	-9228
▁attempted	-9229
▁awakening	-9230
▁celebrate	-9231
▁classical	-9232
▁collusion	-9233
▁committee	-9234
▁completed	-9235
▁confirmed	-9236
▁curricula	-9237
▁customary	-9238
▁declaring	-9239
▁destroyed	-9240
▁egregious	-9241
▁electrons	-9242
▁embracing	-9243
▁encompass	-9244
▁ethnicity	-9245
▁exchanges	-9246
▁extensive	-9247
▁forecasts	-9248
▁forefront	-9249
▁forgotten	-9250
▁frequency	-9251
▁gathering	-9252
▁governing	-9253
▁greatness	-9254
▁hierarchy	-9255
▁imperfect	-9256
▁importers	-9257
▁inaugural	-9258
▁indicator	-9259
▁integrity	-9260
▁intensity	-9261
▁lifestyle	-9262
▁listening	-9263
▁newcomers	-9264
▁notorious	-9265
▁obviously	-9266
▁penalties	-9267
▁personnel	-9268
▁pervasive	-9269
▁plausible	-9270
▁predicted	-9271
▁privilege	-9272
▁proposing	-9273
▁protected	-9274
▁provinces	-9275
▁realistic	-9276
▁realities	-9277
▁recapital	-9278
▁regularly	-9279
▁responded	-9280
▁restoring	-9281
▁returning	-9282
▁reversing	-9283
▁routinely	-9284
▁scientist	-9285
▁spillover	-9286
▁strangers	-9287
▁strengths	-9288
▁tightened	-9289
▁tolerance	-9290
▁triggered	-9291
▁undertake	-9292
engineering	-9293
recognition	-9294
stitutional	-9295
▁Inequality	-9296
▁Ironically	-9297
▁Resolution	-9298
▁Statistics	-9299
▁Westerners	-9300
▁acceptance	-9301
▁accordance	-9302
▁biological	-9303
▁burgeoning	-9304
▁complained	-9305
▁compliance	-9306
▁conducting	-9307
▁continuing	-9308
▁convention	-9309
▁correspond	-9310
▁deliberate	-9311
▁diagnostic	-9312
▁disability	-9313
▁disastrous	-9314
▁discontent	-9315
▁discourage	-9316
▁ecosystems	-9317
▁electorate	-9318
▁eliminated	-9319
▁entrenched	-9320
▁excellence	-9321
▁explicitly	-9322
▁frustrated	-9323
▁functional	-9324
▁girlfriend	-9325
▁guaranteed	-9326
▁guidelines	-9327
▁indirectly	-9328
▁influenced	-9329
▁leveraging	-9330
▁lifesaving	-9331
▁medication	-9332
▁ministries	-9333
▁minorities	-9334
▁moderately	-9335
▁narratives	-9336
▁obligation	-9337
▁occupation	-9338
▁pesticides	-9339
▁professors	-9340
▁profoundly	-9341
▁recovering	-9342
▁renewables	-9343
▁shortsight	-9344
▁skepticism	-9345
▁staggering	-9346
▁statements	-9347
▁suspicious	-9348
▁temptation	-9349
▁traditions	-9350
▁turnaround	-9351
▁undermines	-9352
▁Declaration	-9353
▁Environment	-9354
▁Politicians	-9355
▁application	-9356
▁articulated	-9357
▁battlefield	-9358
▁celebrating	-9359
▁comfortable	-9360
▁commodities	-9361
▁concentrate	-9362
▁considering	-9363
▁constitutes	-9364
▁degradation	-9365
▁disciplines	-9366
▁discredited	-9367
▁discussions	-9368
▁disparities	-9369
▁distortions	-9370
▁diversified	-9371
▁eliminating	-9372
▁enlargement	-9373
▁eradication	-9374
▁exclusively	-9375
▁fertilizers	-9376
▁foundations	-9377
▁humiliation	-9378
▁imperatives	-9379
▁integrating	-9380
▁joblessness	-9381
▁maintenance	-9382
▁mathematics	-9383
▁medications	-9384
▁negotiation	-9385
▁patriarchal	-9386
▁permanently	-9387
▁philanthrop	-9388
▁predictions	-9389
▁preferences	-9390
▁qualitative	-9391
▁represented	-9392
▁resolutions	-9393
▁restricting	-9394
▁sympathetic	-9395
▁theoretical	-9396
▁understands	-9397
establishment	-9398
▁JOHANNESBURG	-9399
▁Tuberculosis	-9400
▁administered	-9401
▁agribusiness	-9402
▁assimilation	-9403
▁deliberately	-9404
▁governmental	-9405
▁inequalities	-9406
▁inflationary	-9407
▁introduction	-9408
▁liberalizing	-9409
▁longstanding	-9410
▁manipulation	-9411
▁manufactured	-9412
▁monetization	-9413
▁persistently	-9414
▁prescription	-9415
▁ratification	-9416
▁relentlessly	-9417
▁subsequently	-9418
▁transforming	-9419
▁Comprehensive	-9420
▁Environmental	-9421
▁Transatlantic	-9422
▁acknowledging	-9423
▁congressional	-9424
▁consequential	-9425
▁consolidation	-9426
▁fragmentation	-9427
▁participating	-9428
▁practitioners	-9429
▁protectionist	-9430
▁restructuring	-9431
▁transnational	-9432
▁Infrastructure	-9433
▁considerations	-9434
▁intellectually	-9435
▁organizational	-9436
▁pharmaceutical	-9437
▁redistribution	-9438
▁Representatives	-9439
▁environmentally	-9440
▁superconducting	-9441
▁transformations	-9442
▁vulnerabilities	-9443
);	-9444
,"	-9445
,’	-9446
."	-9447
05	-9448
2.	-9449
27	-9450
8.	-9451
AO	-9452
As	-9453
CH	-9454
DC	-9455
DI	-9456
IJ	-9457
Is	-9458
LR	-9459
ME	-9460
SB	-9461
UW	-9462
ao	-9463
bu	-9464
ca	-9465
do	-9466
ek	-9467
jo	-9468
ki	-9469
pm	-9470
vy	-9471
yi	-9472
ym	-9473
ço	-9474
”.	-9475
▁[	-9476
▁x	-9477
▁£	-9478
▁·	-9479
▁ε	-9480
3%,	-9481
Alq	-9482
Ass	-9483
CAM	-9484
ERs	-9485
GET	-9486
IDO	-9487
LIN	-9488
OEs	-9489
ONG	-9490
POR	-9491
UWM	-9492
adv	-9493
afe	-9494
amm	-9495
ati	-9496
azi	-9497
bet	-9498
bro	-9499
cor	-9500
des	-9501
due	-9502
ems	-9503
erc	-9504
eve	-9505
far	-9506
fia	-9507
iat	-9508
ica	-9509
ima	-9510
inf	-9511
jan	-9512
mas	-9513
new	-9514
non	-9515
nut	-9516
obo	-9517
ofi	-9518
opt	-9519
pel	-9520
pur	-9521
que	-9522
rik	-9523
rim	-9524
rut	-9525
saf	-9526
sim	-9527
sub	-9528
sun	-9529
tic	-9530
tle	-9531
uma	-9532
umn	-9533
usp	-9534
uum	-9535
vil	-9536
xon	-9537
zeg	-9538
▁$4	-9539
▁90	-9540
▁AU	-9541
▁Az	-9542
▁Hy	-9543
▁ID	-9544
▁Op	-9545
▁TB	-9546
▁Up	-9547
▁VI	-9548
▁af	-9549
▁gh	-9550
▁id	-9551
▁om	-9552
AGOS	-9553
Cold	-9554
Saud	-9555
This	-9556
abet	-9557
abul	-9558
adan	-9559
agog	-9560
agon	-9561
aire	-9562
aise	-9563
akia	-9564
alls	-9565
amac	-9566
anes	-9567
anto	-9568
arak	-9569
asse	-9570
aths	-9571
auck	-9572
aunt	-9573
berg	-9574
bert	-9575
body	-9576
brid	-9577
cker	-9578
cott	-9579
ctiv	-9580
cure	-9581
dued	-9582
ears	-9583
edge	-9584
enyi	-9585
four	-9586
good	-9587
hane	-9588
hist	-9589
iast	-9590
iden	-9591
iful	-9592
immy	-9593
iors	-9594
itan	-9595
itim	-9596
kill	-9597
last	-9598
laws	-9599
lene	-9600
lete	-9601
lets	-9602
lose	-9603
meas	-9604
neth	-9605
onia	-9606
onym	-9607
ooks	-9608
opia	-9609
ouch	-9610
pion	-9611
play	-9612
ples	-9613
poor	-9614
ppro	-9615
quer	-9616
star	-9617
ster	-9618
tail	-9619
ties	-9620
uate	-9621
uded	-9622
uese	-9623
ugos	-9624
uled	-9625
ullo	-9626
unge	-9627
veni	-9628
yans	-9629
çois	-9630
▁$25	-9631
▁1.1	-9632
▁1.2	-9633
▁16%	-9634
▁400	-9635
▁5%,	-9636
▁75%	-9637
▁Aid	-9638
▁Ali	-9639
▁Bor	-9640
▁Bry	-9641
▁Cor	-9642
▁DRC	-9643
▁Den	-9644
▁Dub	-9645
▁Ear	-9646
▁Fif	-9647
▁Fri	-9648
▁Gap	-9649
▁Gir	-9650
▁Kan	-9651
▁Kig	-9652
▁Mac	-9653
▁Mem	-9654
▁Mog	-9655
▁Moh	-9656
▁Moz	-9657
▁Mur	-9658
▁NEF	-9659
▁Nat	-9660
▁Nov	-9661
▁Old	-9662
▁PCP	-9663
▁Raj	-9664
▁Ret	-9665
▁Sri	-9666
▁Sur	-9667
▁Ult	-9668
▁WTO	-9669
▁Web	-9670
▁apt	-9671
▁bip	-9672
▁bom	-9673
▁box	-9674
▁boy	-9675
▁bus	-9676
▁ced	-9677
▁cul	-9678
▁fee	-9679
▁god	-9680
▁ham	-9681
▁hij	-9682
▁kid	-9683
▁lie	-9684
▁lik	-9685
▁lin	-9686
▁neo	-9687
▁pie	-9688
▁ppm	-9689
▁pra	-9690
▁sky	-9691
▁sli	-9692
▁son	-9693
▁une	-9694
▁van	-9695
▁ven	-9696
▁vib	-9697
▁voc	-9698
-2008	-9699
-2015	-9700
Assad	-9701
CAMLR	-9702
IJING	-9703
acies	-9704
aires	-9705
ambia	-9706
aming	-9707
ancet	-9708
anmar	-9709
ariat	-9710
arles	-9711
armen	-9712
artin	-9713
artis	-9714
ashar	-9715
ashes	-9716
cking	-9717
comed	-9718
cture	-9719
digit	-9720
emerg	-9721
essed	-9722
essim	-9723
falls	-9724
fifth	-9725
flows	-9726
henon	-9727
heral	-9728
icago	-9729
icial	-9730
icken	-9731
iders	-9732
ighth	-9733
illes	-9734
iques	-9735
isive	-9736
itant	-9737
itics	-9738
itius	-9739
itzer	-9740
lavia	-9741
lical	-9742
liner	-9743
merce	-9744
ollar	-9745
oping	-9746
orkov	-9747
oslov	-9748
ostal	-9749
ovina	-9750
panel	-9751
pered	-9752
piece	-9753
ppled	-9754
rades	-9755
raham	-9756
rants	-9757
rears	-9758
regon	-9759
ribun	-9760
roads	-9761
ruism	-9762
short	-9763
sider	-9764
speed	-9765
steps	-9766
think	-9767
throw	-9768
ucing	-9769
uinea	-9770
umber	-9771
▁$2.5	-9772
▁1.3%	-9773
▁1.5%	-9774
▁100%	-9775
▁18-2	-9776
▁1993	-9777
▁Abid	-9778
▁Alan	-9779
▁Bowl	-9780
▁Brus	-9781
▁Bure	-9782
▁Carl	-9783
▁Case	-9784
▁Deng	-9785
▁Drug	-9786
▁Econ	-9787
▁Fram	-9788
▁Goal	-9789
▁Half	-9790
▁Jean	-9791
▁Jeff	-9792
▁Khod	-9793
▁Kofi	-9794
▁Lank	-9795
▁Long	-9796
▁Look	-9797
▁Mary	-9798
▁Modi	-9799
▁Mong	-9800
▁Mugy	-9801
▁Must	-9802
▁News	-9803
▁Nich	-9804
▁None	-9805
▁Penn	-9806
▁Prag	-9807
▁Rebe	-9808
▁Rums	-9809
▁SDGs	-9810
▁Silk	-9811
▁Soon	-9812
▁Supp	-9813
▁Task	-9814
▁Tele	-9815
▁Trad	-9816
▁Viol	-9817
▁adul	-9818
▁ages	-9819
▁ally	-9820
▁amid	-9821
▁anch	-9822
▁anim	-9823
▁athe	-9824
▁ausp	-9825
▁auto	-9826
▁bele	-9827
▁blue	-9828
▁boss	-9829
▁bott	-9830
▁bulk	-9831
▁calm	-9832
▁cars	-9833
▁cell	-9834
▁chau	-9835
▁club	-9836
▁coff	-9837
▁cosm	-9838
▁crow	-9839
▁cush	-9840
▁deny	-9841
▁diss	-9842
▁doct	-9843
▁edit	-9844
▁eman	-9845
▁epit	-9846
▁exec	-9847
▁feas	-9848
▁fees	-9849
▁feet	-9850
▁fill	-9851
▁guer	-9852
▁guns	-9853
▁heel	-9854
▁hide	-9855
▁hurd	-9856
▁indu	-9857
▁intu	-9858
▁jump	-9859
▁keys	-9860
▁knew	-9861
▁lens	-9862
▁lesb	-9863
▁lion	-9864
▁mant	-9865
▁mend	-9866
▁milk	-9867
▁neoc	-9868
▁nerv	-9869
▁nurs	-9870
▁outp	-9871
▁pair	-9872
▁plot	-9873
▁pock	-9874
▁pump	-9875
▁ramp	-9876
▁rays	-9877
▁reun	-9878
▁rift	-9879
▁ring	-9880
▁rush	-9881
▁sees	-9882
▁semi	-9883
▁sick	-9884
▁site	-9885
▁song	-9886
▁soph	-9887
▁spok	-9888
▁tarn	-9889
▁thin	-9890
▁town	-9891
▁tsun	-9892
▁unch	-9893
▁unhe	-9894
▁unth	-9895
▁veto	-9896
▁void	-9897
▁walk	-9898
Alqami	-9899
active	-9900
ankind	-9901
arcity	-9902
arhead	-9903
ascade	-9904
aunted	-9905
backed	-9906
braith	-9907
center	-9908
ckdown	-9909
decade	-9910
earing	-9911
erates	-9912
filled	-9913
global	-9914
guided	-9915
hecked	-9916
herini	-9917
icting	-9918
iguous	-9919
ilever	-9920
imates	-9921
inhart	-9922
irable	-9923
isible	-9924
licity	-9925
monies	-9926
normal	-9927
onment	-9928
orship	-9929
oughly	-9930
public	-9931
ranean	-9932
repres	-9933
rients	-9934
ritten	-9935
second	-9936
shadow	-9937
social	-9938
stable	-9939
terror	-9940
uality	-9941
ulture	-9942
uously	-9943
urches	-9944
▁1945,	-9945
▁1945.	-9946
▁1960’	-9947
▁1989.	-9948
▁2000’	-9949
▁2012.	-9950
▁2018,	-9951
▁Above	-9952
▁Akazi	-9953
▁Apart	-9954
▁Apple	-9955
▁Biden	-9956
▁Broad	-9957
▁Child	-9958
▁Could	-9959
▁Davos	-9960
▁Delhi	-9961
▁Early	-9962
▁Exxon	-9963
▁Frank	-9964
▁Gauck	-9965
▁Henry	-9966
▁Hindu	-9967
▁Innov	-9968
▁Integ	-9969
▁Jimmy	-9970
▁LAGOS	-9971
▁Larry	-9972
▁Micro	-9973
▁Milan	-9974
▁Older	-9975
▁Owing	-9976
▁Panel	-9977
▁Renew	-9978
▁Right	-9979
▁River	-9980
▁Round	-9981
▁Sahar	-9982
▁Seven	-9983
▁Start	-9984
▁Stern	-9985
▁Swiss	-9986
▁Teach	-9987
▁Times	-9988
▁Where	-9989
▁Woods	-9990
▁Yugos	-9991
▁allev	-9992
▁angry	-9993
▁antit	-9994
▁arise	-9995
▁arrog	-9996
▁arrow	-9997
▁bases	-9998
▁bears	-9999
▁blund	-10000
▁boast	-10001
▁booms	-10002
▁brave	-10003
▁bread	-10004
▁bride	-10005
▁capac	-10006
▁cater	-10007
▁climb	-10008
▁color	-10009
▁compl	-10010
▁corre	-10011
▁craft	-10012
▁crash	-10013
▁cream	-10014
▁crumb	-10015
▁defer	-10016
▁diets	-10017
▁disgu	-10018
▁diver	-10019
▁doors	-10020
▁drain	-10021
▁epoch	-10022
▁fixed	-10023
▁flaws	-10024
▁frank	-10025
▁games	-10026
▁ghost	-10027
▁gifts	-10028
▁gross	-10029
▁guard	-10030
▁habit	-10031
▁happy	-10032
▁hikes	-10033
▁image	-10034
▁impul	-10035
▁incre	-10036
▁index	-10037
▁items	-10038
▁judge	-10039
▁lingu	-10040
▁lobby	-10041
▁loser	-10042
▁magic	-10043
▁marks	-10044
▁marsh	-10045
▁mayor	-10046
▁meets	-10047
▁miser	-10048
▁mixed	-10049
▁newsp	-10050
▁opted	-10051
▁overl	-10052
▁paved	-10053
▁penal	-10054
▁peril	-10055
▁pilot	-10056
▁pivot	-10057
▁prize	-10058
▁proof	-10059
▁quota	-10060
▁redef	-10061
▁remed	-10062
▁retro	-10063
▁rigid	-10064
▁sales	-10065
▁scrut	-10066
▁seats	-10067
▁slave	-10068
▁smoke	-10069
▁smugg	-10070
▁sport	-10071
▁stars	-10072
▁steam	-10073
▁steep	-10074
▁stood	-10075
▁storm	-10076
▁strat	-10077
▁stuck	-10078
▁style	-10079
▁taboo	-10080
▁tells	-10081
▁treas	-10082
▁trick	-10083
▁uncom	-10084
▁unrel	-10085
▁upris	-10086
▁vocal	-10087
▁voter	-10088
▁vowed	-10089
▁warns	-10090
▁zones	-10091
America	-10092
aguered	-10093
amacare	-10094
ardship	-10095
artisan	-10096
balance	-10097
carbons	-10098
changed	-10099
chement	-10100
ctivate	-10101
essions	-10102
etermin	-10103
hemical	-10104
igenous	-10105
illance	-10106
inkable	-10107
itivity	-10108
lasting	-10109
lective	-10110
lenecks	-10111
ndering	-10112
ocative	-10113
ounding	-10114
pionage	-10115
respect	-10116
starved	-10117
uprates	-10118
ustries	-10119
victory	-10120
▁Access	-10121
▁Bashar	-10122
▁Brooks	-10123
▁Carmen	-10124
▁Compet	-10125
▁Fourth	-10126
▁Fukuda	-10127
▁Future	-10128
▁Giving	-10129
▁Guinea	-10130
▁Having	-10131
▁Herzeg	-10132
▁Joseph	-10133
▁Kanoze	-10134
▁Kigali	-10135
▁Lancet	-10136
▁Living	-10137
▁Magris	-10138
▁Malawi	-10139
▁Maoist	-10140
▁Minist	-10141
▁Mitter	-10142
▁Murray	-10143
▁Office	-10144
▁Oregon	-10145
▁TARGET	-10146
▁Warren	-10147
▁Within	-10148
▁Xiaobo	-10149
▁actual	-10150
▁adults	-10151
▁affair	-10152
▁agency	-10153
▁agents	-10154
▁albeit	-10155
▁apathy	-10156
▁arctic	-10157
▁ballot	-10158
▁barbar	-10159
▁beacon	-10160
▁beside	-10161
▁bitter	-10162
▁boards	-10163
▁brains	-10164
▁broker	-10165
▁conced	-10166
▁contem	-10167
▁cycles	-10168
▁deepen	-10169
▁disaff	-10170
▁dismay	-10171
▁drives	-10172
▁earned	-10173
▁eighth	-10174
▁endure	-10175
▁entang	-10176
▁ethics	-10177
▁exotic	-10178
▁firmly	-10179
▁fortun	-10180
▁forums	-10181
▁freeze	-10182
▁fruits	-10183
▁golden	-10184
▁handed	-10185
▁headed	-10186
▁hybrid	-10187
▁invent	-10188
▁judges	-10189
▁landsl	-10190
▁licens	-10191
▁liquid	-10192
▁median	-10193
▁meters	-10194
▁mining	-10195
▁motion	-10196
▁nearby	-10197
▁nostal	-10198
▁orient	-10199
▁outset	-10200
▁passes	-10201
▁patent	-10202
▁phases	-10203
▁physic	-10204
▁planes	-10205
▁posing	-10206
▁potent	-10207
▁punish	-10208
▁quotas	-10209
▁rappro	-10210
▁recall	-10211
▁regret	-10212
▁reiter	-10213
▁remove	-10214
▁revive	-10215
▁robots	-10216
▁screen	-10217
▁seeing	-10218
▁skewed	-10219
▁solved	-10220
▁sounds	-10221
▁stifle	-10222
▁strand	-10223
▁strive	-10224
▁talked	-10225
▁tempor	-10226
▁termin	-10227
▁timely	-10228
▁timing	-10229
▁tweets	-10230
▁uncond	-10231
▁weapon	-10232
▁wrongs	-10233
capacity	-10234
counting	-10235
exchange	-10236
inations	-10237
itarians	-10238
lassical	-10239
mittedly	-10240
orkovsky	-10241
payments	-10242
ructured	-10243
thinking	-10244
ventions	-10245
▁2016-20	-10246
▁Abraham	-10247
▁Afghans	-10248
▁BEIJING	-10249
▁Bosnian	-10250
▁Challen	-10251
▁Charles	-10252
▁Chicago	-10253
▁Crowley	-10254
▁Denmark	-10255
▁Farhang	-10256
▁Freedom	-10257
▁Growing	-10258
▁Kenneth	-10259
▁Lagarde	-10260
▁Liberia	-10261
▁Mediter	-10262
▁Myanmar	-10263
▁Profess	-10264
▁Ramadan	-10265
▁Roadmap	-10266
▁Sanders	-10267
▁Switzer	-10268
▁Tarullo	-10269
▁Working	-10270
▁accords	-10271
▁accused	-10272
▁amyloid	-10273
▁analogy	-10274
▁anxious	-10275
▁anymore	-10276
▁apology	-10277
▁arrears	-10278
▁artists	-10279
▁automob	-10280
▁barrier	-10281
▁battles	-10282
▁bearing	-10283
▁bolster	-10284
▁bridges	-10285
▁broaden	-10286
▁casting	-10287
▁ceiling	-10288
▁classes	-10289
▁clearer	-10290
▁closest	-10291
▁combine	-10292
▁commons	-10293
▁contrad	-10294
▁council	-10295
▁cushion	-10296
▁customs	-10297
▁debates	-10298
▁despair	-10299
▁dilemma	-10300
▁doormat	-10301
▁dubious	-10302
▁dumping	-10303
▁endured	-10304
▁evening	-10305
▁evident	-10306
▁extends	-10307
▁factory	-10308
▁fascist	-10309
▁feeling	-10310
▁fertile	-10311
▁fishing	-10312
▁fixated	-10313
▁flowing	-10314
▁gradual	-10315
▁growers	-10316
▁harmony	-10317
▁harness	-10318
▁holiday	-10319
▁hurdles	-10320
▁impasse	-10321
▁inhabit	-10322
▁invigor	-10323
▁invited	-10324
▁journey	-10325
▁justify	-10326
▁labeled	-10327
▁legally	-10328
▁lifting	-10329
▁locally	-10330
▁longest	-10331
▁magnets	-10332
▁malaise	-10333
▁marking	-10334
▁methane	-10335
▁minimal	-10336
▁missile	-10337
▁monitor	-10338
▁mothers	-10339
▁neutral	-10340
▁nurture	-10341
▁offense	-10342
▁opening	-10343
▁ordered	-10344
▁passage	-10345
▁payoffs	-10346
▁peaceke	-10347
▁permiss	-10348
▁pillars	-10349
▁placing	-10350
▁positiv	-10351
▁postwar	-10352
▁preempt	-10353
▁prescri	-10354
▁proxies	-10355
▁pundits	-10356
▁rallies	-10357
▁ranking	-10358
▁relying	-10359
▁reveals	-10360
▁revived	-10361
▁signals	-10362
▁signing	-10363
▁silence	-10364
▁skilled	-10365
▁smoking	-10366
▁spurred	-10367
▁staunch	-10368
▁stopped	-10369
▁subdued	-10370
▁subsidy	-10371
▁suppose	-10372
▁surging	-10373
▁suspect	-10374
▁talents	-10375
▁testing	-10376
▁totally	-10377
▁triumph	-10378
▁typical	-10379
▁tyranny	-10380
▁unleash	-10381
▁vehicle	-10382
▁venture	-10383
▁volunte	-10384
▁website	-10385
▁winners	-10386
▁winning	-10387
▁wishful	-10388
▁writers	-10389
certainty	-10390
enhancing	-10391
erational	-10392
fficiency	-10393
financial	-10394
insurance	-10395
isticated	-10396
oslovakia	-10397
sponsored	-10398
strategic	-10399
▁Administ	-10400
▁Advanced	-10401
▁Algerian	-10402
▁Americas	-10403
▁Bastille	-10404
▁Brussels	-10405
▁Clinical	-10406
▁Dialogue	-10407
▁Election	-10408
▁Emirates	-10409
▁External	-10410
▁François	-10411
▁Globally	-10412
▁Hispanic	-10413
▁Marshall	-10414
▁Maryland	-10415
▁Mugyenyi	-10416
▁Nicholas	-10417
▁Novartis	-10418
▁Politics	-10419
▁Reinhart	-10420
▁Rumsfeld	-10421
▁Unilever	-10422
▁advocacy	-10423
▁altruism	-10424
▁arguably	-10425
▁articles	-10426
▁attacker	-10427
▁averaged	-10428
▁bombings	-10429
▁captured	-10430
▁catalyst	-10431
▁chambers	-10432
▁civilian	-10433
▁claiming	-10434
▁clinical	-10435
▁commerce	-10436
▁comprise	-10437
▁constant	-10438
▁converge	-10439
▁crushing	-10440
▁delusion	-10441
▁democrat	-10442
▁depended	-10443
▁detailed	-10444
▁develops	-10445
▁devising	-10446
▁diminish	-10447
▁directed	-10448
▁disagree	-10449
▁disclose	-10450
▁disposal	-10451
▁dividing	-10452
▁division	-10453
▁doctrine	-10454
▁downward	-10455
▁dwellers	-10456
▁elevated	-10457
▁embedded	-10458
▁embodied	-10459
▁engaging	-10460
▁enhanced	-10461
▁estimate	-10462
▁facility	-10463
▁favorite	-10464
▁feminist	-10465
▁fleeting	-10466
▁flexible	-10467
▁foremost	-10468
▁founding	-10469
▁hardship	-10470
▁imminent	-10471
▁implying	-10472
▁inclined	-10473
▁indebted	-10474
▁insights	-10475
▁interact	-10476
▁isolated	-10477
▁landmark	-10478
▁lobbying	-10479
▁luxuries	-10480
▁missions	-10481
▁mistrust	-10482
▁monarchy	-10483
▁mutually	-10484
▁narrowly	-10485
▁opposing	-10486
▁outflows	-10487
▁outright	-10488
▁pensions	-10489
▁petition	-10490
▁precious	-10491
▁predomin	-10492
▁prevents	-10493
▁prosecut	-10494
▁provoked	-10495
▁railways	-10496
▁reckless	-10497
▁resemble	-10498
▁respects	-10499
▁revision	-10500
▁reviving	-10501
▁scarcity	-10502
▁sciences	-10503
▁sentence	-10504
▁showcase	-10505
▁shutdown	-10506
▁signaled	-10507
▁skeptics	-10508
▁solitary	-10509
▁stealing	-10510
▁stifling	-10511
▁strictly	-10512
▁subordin	-10513
▁subprime	-10514
▁subscrib	-10515
▁succeeds	-10516
▁sunlight	-10517
▁surveyed	-10518
▁symptoms	-10519
▁tactical	-10520
▁textiles	-10521
▁tolerate	-10522
▁trawling	-10523
▁tropical	-10524
▁welcomed	-10525
▁whenever	-10526
employment	-10527
ertainment	-10528
especially	-10529
industrial	-10530
skepticism	-10531
▁Agreement	-10532
▁Brazilian	-10533
▁Christmas	-10534
▁Effective	-10535
▁Eurobonds	-10536
▁Galbraith	-10537
▁Improving	-10538
▁Mauritius	-10539
▁Mogherini	-10540
▁Parthenon	-10541
▁Programme	-10542
▁Socialist	-10543
▁Sometimes	-10544
▁abundance	-10545
▁acquiring	-10546
▁advertise	-10547
▁advocated	-10548
▁ambitions	-10549
▁assertive	-10550
▁autocrats	-10551
▁automatic	-10552
▁avoidance	-10553
▁bordering	-10554
▁brutality	-10555
▁coherence	-10556
▁communism	-10557
▁communist	-10558
▁constrain	-10559
▁correctly	-10560
▁countless	-10561
▁crackdown	-10562
▁crippling	-10563
▁crumbling	-10564
▁daughters	-10565
▁deepening	-10566
▁deficient	-10567
▁delegates	-10568
▁demograph	-10569
▁departure	-10570
▁depending	-10571
▁desirable	-10572
▁desperate	-10573
▁dimension	-10574
▁disasters	-10575
▁embarrass	-10576
▁employers	-10577
▁empowered	-10578
▁epidemics	-10579
▁espionage	-10580
▁exceeding	-10581
▁excellent	-10582
▁excluding	-10583
▁existence	-10584
▁explosive	-10585
▁extending	-10586
▁extremism	-10587
▁feminists	-10588
▁footsteps	-10589
▁governors	-10590
▁headlines	-10591
▁humankind	-10592
▁hypocrisy	-10593
▁indicates	-10594
▁instances	-10595
▁intensify	-10596
▁justified	-10597
▁mandatory	-10598
▁marriages	-10599
▁misguided	-10600
▁mobilized	-10601
▁municipal	-10602
▁neglected	-10603
▁numerical	-10604
▁nutrients	-10605
▁occurring	-10606
▁offensive	-10607
▁outbreaks	-10608
▁painfully	-10609
▁parallels	-10610
▁pesticide	-10611
▁philosoph	-10612
▁plummeted	-10613
▁portfolio	-10614
▁pragmatic	-10615
▁preferred	-10616
▁prejudice	-10617
▁prohibits	-10618
▁prolonged	-10619
▁qualified	-10620
▁rationale	-10621
▁reconcile	-10622
▁relevance	-10623
▁reluctant	-10624
▁replacing	-10625
▁reporting	-10626
▁resembles	-10627
▁residents	-10628
▁secession	-10629
▁sexuality	-10630
▁skeptical	-10631
▁socialist	-10632
▁spearhead	-10633
▁spectacle	-10634
▁spotlight	-10635
▁spreading	-10636
▁stagnated	-10637
▁statehood	-10638
▁strongest	-10639
▁struggled	-10640
▁struggles	-10641
▁submitted	-10642
▁successor	-10643
▁supplying	-10644
▁suspicion	-10645
▁targeting	-10646
▁tolerated	-10647
▁tradeoffs	-10648
▁unchanged	-10649
▁unchecked	-10650
▁unhealthy	-10651
▁uprisings	-10652
▁voluntary	-10653
▁watershed	-10654
▁wellbeing	-10655
represented	-10656
▁Addressing	-10657
▁Admittedly	-10658
▁Antarctica	-10659
▁Christians	-10660
▁Portuguese	-10661
▁Scientists	-10662
▁Ultimately	-10663
▁Yugoslavia	-10664
▁accomplish	-10665
▁adaptation	-10666
▁altruistic	-10667
▁ambassador	-10668
▁annexation	-10669
▁anticipate	-10670
▁attributes	-10671
▁benefiting	-10672
▁bipartisan	-10673
▁capability	-10674
▁capacities	-10675
▁celebrated	-10676
▁ceremonies	-10677
▁childbirth	-10678
▁clinicians	-10679
▁comparable	-10680
▁completing	-10681
▁comprising	-10682
▁conclusion	-10683
▁condemning	-10684
▁confronted	-10685
▁continents	-10686
▁continuity	-10687
▁coordinate	-10688
▁courageous	-10689
▁deficiency	-10690
▁dependency	-10691
▁deployment	-10692
▁destroying	-10693
▁devastated	-10694
▁difficulty	-10695
▁disorderly	-10696
▁disrespect	-10697
▁documented	-10698
▁electronic	-10699
▁emphasized	-10700
▁emphasizes	-10701
▁enthusiast	-10702
▁escalating	-10703
▁expressing	-10704
▁expression	-10705
▁financiers	-10706
▁grassroots	-10707
▁grievances	-10708
▁healthcare	-10709
▁homophobia	-10710
▁imprisoned	-10711
▁incumbents	-10712
▁indigenous	-10713
▁inequities	-10714
▁insistence	-10715
▁intentions	-10716
▁ironically	-10717
▁literature	-10718
▁motivation	-10719
▁optimistic	-10720
▁overcoming	-10721
▁overlooked	-10722
▁peacefully	-10723
▁performing	-10724
▁personally	-10725
▁prediction	-10726
▁predictive	-10727
▁privileged	-10728
▁procedures	-10729
▁prohibited	-10730
▁properties	-10731
▁protesters	-10732
▁recessions	-10733
▁reflection	-10734
▁reiterated	-10735
▁remarkably	-10736
▁replicated	-10737
▁restaurant	-10738
▁restraints	-10739
▁safeguards	-10740
▁sovereigns	-10741
▁substitute	-10742
▁succeeding	-10743
▁succession	-10744
▁supportive	-10745
▁techniques	-10746
▁thoughtful	-10747
▁undergoing	-10748
▁unexpected	-10749
▁weaknesses	-10750
▁Affirmative	-10751
▁Competition	-10752
▁Herzegovina	-10753
▁Independent	-10754
▁Switzerland	-10755
▁accommodate	-10756
▁accumulated	-10757
▁achievement	-10758
▁advancement	-10759
▁anticipated	-10760
▁assumptions	-10761
▁beleaguered	-10762
▁bottlenecks	-10763
▁bureaucrats	-10764
▁compensated	-10765
▁compression	-10766
▁conclusions	-10767
▁containment	-10768
▁contemplate	-10769
▁contentious	-10770
▁continental	-10771
▁cooperating	-10772
▁cooperative	-10773
▁creditworth	-10774
▁cultivating	-10775
▁differently	-10776
▁distinguish	-10777
▁emphasizing	-10778
▁enlightened	-10779
▁equilibrium	-10780
▁excessively	-10781
▁experiments	-10782
▁facilitated	-10783
▁functioning	-10784
▁highlighted	-10785
▁hospitality	-10786
▁imagination	-10787
▁indifferent	-10788
▁inheritance	-10789
▁intelligent	-10790
▁interaction	-10791
▁interesting	-10792
▁landholders	-10793
▁observation	-10794
▁overarching	-10795
▁philosopher	-10796
▁predecessor	-10797
▁preventable	-10798
▁progressive	-10799
▁projections	-10800
▁proportions	-10801
▁respondents	-10802
▁restrictive	-10803
▁retaliation	-10804
▁secretariat	-10805
▁specialists	-10806
▁spectacular	-10807
▁stabilizing	-10808
▁stimulating	-10809
▁temporarily	-10810
▁underground	-10811
▁unification	-10812
▁unnecessary	-10813
▁unrealistic	-10814
▁unrelenting	-10815
▁Immunization	-10816
▁Khodorkovsky	-10817
▁calculations	-10818
▁connectivity	-10819
▁consistently	-10820
▁contemporary	-10821
▁continuation	-10822
▁conversation	-10823
▁counterparts	-10824
▁demonstrates	-10825
▁deteriorated	-10826
▁hydrocarbons	-10827
▁imprisonment	-10828
▁interference	-10829
▁neoclassical	-10830
▁persuasively	-10831
▁scholarships	-10832
▁significance	-10833
▁surveillance	-10834
▁transactions	-10835
▁Mediterranean	-10836
▁commissioners	-10837
▁complications	-10838
▁consultations	-10839
▁destabilizing	-10840
▁entertainment	-10841
▁fundamentally	-10842
▁grandchildren	-10843
▁industrialize	-10844
▁intellectuals	-10845
▁nationalistic	-10846
▁rapprochement	-10847
▁sophisticated	-10848
▁strategically	-10849
▁unconditional	-10850
▁unilateralism	-10851
▁Czechoslovakia	-10852
▁Representative	-10853
▁disintegration	-10854
▁geoengineering	-10855
▁interdependent	-10856
▁predictability	-10857
▁representative	-10858
▁characteristics	-10859
▁diversification	-10860
▁entrepreneurial	-10861
▁interdependence	-10862
▁interventionism	-10863
▁marginalization	-10864
▁multilateralism	-10865
▁philanthropists	-10866
▁straightforward	-10867
▁totalitarianism	-10868
,5	-10869
-4	-10870
-‘	-10871
42	-10872
65	-10873
BO	-10874
CC	-10875
Do	-10876
EV	-10877
En	-10878
If	-10879
LD	-10880
MU	-10881
RI	-10882
TH	-10883
Tr	-10884
UE	-10885
Ws	-10886
gt	-10887
lv	-10888
ps	-10889
+20	-10890
-1.	-10891
...	-10892
6%,	-10893
ART	-10894
AWE	-10895
EVA	-10896
ICH	-10897
ORD	-10898
SEL	-10899
75	-10900
BT	-10901
GI	-10902
PI	-10903
WF	-10904
XF	-10905
nj	-10906
ws	-10907
add	-10908
adt	-10909
agh	-10910
aif	-10911
bod	-10912
box	-10913
bul	-10914
bus	-10915
don	-10916
ett	-10917
evo	-10918
exp	-10919
ezz	-10920
haw	-10921
hee	-10922
iar	-10923
ige	-10924
inv	-10925
irr	-10926
isa	-10927
mir	-10928
mit	-10929
mod	-10930
net	-10931
oir	-10932
oon	-10933
rea	-10934
rez	-10935
ril	-10936
rup	-10937
thy	-10938
tun	-10939
uff	-10940
uid	-10941
unk	-10942
ups	-10943
urg	-10944
vin	-10945
wal	-10946
wid	-10947
yer	-10948
zes	-10949
▁22	-10950
▁23	-10951
▁33	-10952
▁8%	-10953
▁85	-10954
▁AB	-10955
▁DS	-10956
▁Di	-10957
▁Dr	-10958
▁EP	-10959
▁Fu	-10960
▁Ho	-10961
▁Il	-10962
▁Qu	-10963
▁du	-10964
▁et	-10965
▁“9	-10966
▁€2	-10967
/11”	-10968
AGUE	-10969
Afee	-10970
Arab	-10971
CAGO	-10972
CCRA	-10973
ENNA	-10974
ONTO	-10975
SELS	-10976
abad	-10977
acle	-10978
alse	-10979
anjo	-10980
anke	-10981
anti	-10982
antá	-10983
argu	-10984
arre	-10985
aste	-10986
city	-10987
clos	-10988
deal	-10989
deli	-10990
eeze	-10991
evin	-10992
farm	-10993
ffen	-10994
food	-10995
habi	-10996
home	-10997
igan	-10998
ihar	-10999
Am	-11000
”)	-11001
Pro	-11002
cca	-11003
cro	-11004
hot	-11005
hra	-11006
lem	-11007
ont	-11008
oup	-11009
pus	-11010
▁BC	-11011
▁Ce	-11012
▁Ed	-11013
▁Ts	-11014
-199	-11015
conf	-11016
ilay	-11017
inis	-11018
iums	-11019
ivia	-11020
izer	-11021
ldom	-11022
leak	-11023
lers	-11024
mand	-11025
nage	-11026
namo	-11027
odes	-11028
onge	-11029
ongo	-11030
oots	-11031
oppy	-11032
orty	-11033
otal	-11034
owen	-11035
pace	-11036
phic	-11037
pins	-11038
quet	-11039
rill	-11040
risk	-11041
rome	-11042
safe	-11043
stra	-11044
supp	-11045
tech	-11046
thal	-11047
that	-11048
them	-11049
thur	-11050
trad	-11051
umes	-11052
uras	-11053
urbs	-11054
urer	-11055
urok	-11056
usal	-11057
wage	-11058
week	-11059
west	-11060
zhok	-11061
árez	-11062
▁$0.	-11063
▁$13	-11064
▁$30	-11065
▁$5.	-11066
▁$60	-11067
▁($1	-11068
▁1.4	-11069
▁1.5	-11070
▁15,	-11071
▁150	-11072
▁18%	-11073
▁186	-11074
▁206	-11075
▁21%	-11076
▁37%	-11077
▁45%	-11078
▁600	-11079
▁95%	-11080
▁Aso	-11081
▁Bad	-11082
▁Bol	-11083
▁CHI	-11084
▁CPI	-11085
▁Dig	-11086
▁ECC	-11087
▁End	-11088
▁Ens	-11089
▁FDI	-11090
▁FSB	-11091
▁GNP	-11092
▁Has	-11093
▁Iss	-11094
▁Joe	-11095
▁Kyr	-11096
▁MUN	-11097
▁Men	-11098
▁Mub	-11099
15	-11100
bl	-11101
ahn	-11102
col	-11103
nce	-11104
sol	-11105
▁6,	-11106
Kahn	-11107
fast	-11108
iang	-11109
inav	-11110
ndra	-11111
orce	-11112
outs	-11113
uris	-11114
▁($2	-11115
▁GEN	-11116
▁Hem	-11117
▁Nav	-11118
▁Opt	-11119
▁Oxf	-11120
▁PEP	-11121
▁Rem	-11122
▁Sal	-11123
▁Sam	-11124
▁Sar	-11125
▁Ser	-11126
▁Squ	-11127
▁TOR	-11128
▁Taj	-11129
▁Ten	-11130
▁Tra	-11131
▁Wal	-11132
▁Wat	-11133
▁Wen	-11134
▁Zip	-11135
▁aud	-11136
▁beg	-11137
▁cas	-11138
▁coc	-11139
▁cro	-11140
▁daw	-11141
▁dra	-11142
▁eat	-11143
▁env	-11144
▁err	-11145
▁fab	-11146
▁fet	-11147
▁fly	-11148
▁fut	-11149
▁gal	-11150
▁gig	-11151
▁gro	-11152
▁jar	-11153
▁liv	-11154
▁nas	-11155
▁omn	-11156
▁pit	-11157
▁por	-11158
▁pou	-11159
▁rum	-11160
▁sab	-11161
▁sal	-11162
▁sle	-11163
▁tip	-11164
▁tum	-11165
▁woe	-11166
▁xen	-11167
▁yen	-11168
-2012	-11169
Qaeda	-11170
Trump	-11171
World	-11172
XFORD	-11173
agued	-11174
ajian	-11175
aland	-11176
allow	-11177
allup	-11178
andan	-11179
anmen	-11180
antos	-11181
arden	-11182
asure	-11183
athan	-11184
avoid	-11185
books	-11186
borne	-11187
chain	-11188
civil	-11189
cribe	-11190
cycle	-11191
duous	-11192
egoti	-11193
elson	-11194
emkin	-11195
eness	-11196
epers	-11197
erion	-11198
erlan	-11199
EA	-11200
asi	-11201
lls	-11202
▁(2	-11203
▁Lu	-11204
aret	-11205
augh	-11206
cern	-11207
erry	-11208
irer	-11209
lick	-11210
prom	-11211
▁2%,	-11212
▁Hit	-11213
▁Ide	-11214
▁Nag	-11215
▁Rog	-11216
▁Val	-11217
▁ego	-11218
▁fur	-11219
▁lau	-11220
agine	-11221
aning	-11222
berst	-11223
esign	-11224
false	-11225
found	-11226
green	-11227
grown	-11228
heric	-11229
icide	-11230
ilipp	-11231
imacy	-11232
iming	-11233
inger	-11234
intao	-11235
irted	-11236
isite	-11237
istak	-11238
iston	-11239
istry	-11240
lords	-11241
month	-11242
njolf	-11243
occup	-11244
olesc	-11245
onish	-11246
otors	-11247
oulay	-11248
oying	-11249
pable	-11250
phone	-11251
plete	-11252
price	-11253
ratch	-11254
reach	-11255
riate	-11256
riers	-11257
rogen	-11258
roval	-11259
semin	-11260
sheet	-11261
shock	-11262
smart	-11263
start	-11264
storm	-11265
surge	-11266
uddle	-11267
ulled	-11268
urisd	-11269
uters	-11270
walls	-11271
water	-11272
women	-11273
world	-11274
years	-11275
▁$170	-11276
▁$300	-11277
▁1.7%	-11278
▁10%,	-11279
▁20%,	-11280
▁3.6%	-11281
▁4.2%	-11282
▁6.3%	-11283
▁Arms	-11284
▁Army	-11285
▁BRUS	-11286
▁Bhag	-11287
▁Biny	-11288
▁Bomb	-11289
▁Bren	-11290
▁Cels	-11291
▁Coll	-11292
▁Come	-11293
▁Dani	-11294
▁Deep	-11295
▁Dict	-11296
▁Dist	-11297
▁Dust	-11298
▁Fast	-11299
▁.	-11300
665	-11301
Mob	-11302
ael	-11303
▁26	-11304
▁4,	-11305
acea	-11306
assy	-11307
avan	-11308
burs	-11309
gian	-11310
isma	-11311
olds	-11312
undi	-11313
▁awe	-11314
▁rav	-11315
Mobil	-11316
ertia	-11317
heart	-11318
itism	-11319
opard	-11320
peace	-11321
those	-11322
urate	-11323
vency	-11324
▁Cond	-11325
▁IUWM	-11326
▁Init	-11327
▁Karl	-11328
▁Kash	-11329
▁Mach	-11330
▁Mark	-11331
▁Mons	-11332
▁Mult	-11333
▁Nare	-11334
▁Obas	-11335
▁Obst	-11336
▁Pash	-11337
▁Pers	-11338
▁Rest	-11339
▁Rise	-11340
▁Rome	-11341
▁Rust	-11342
▁SOEs	-11343
▁Sign	-11344
▁Sout	-11345
▁Stra	-11346
▁TVET	-11347
▁Team	-11348
▁Time	-11349
▁Work	-11350
▁Yere	-11351
▁acid	-11352
▁aged	-11353
▁arid	-11354
▁band	-11355
▁bars	-11356
▁beat	-11357
▁blat	-11358
▁brew	-11359
▁bump	-11360
▁buoy	-11361
▁busy	-11362
▁butt	-11363
▁cens	-11364
▁cher	-11365
▁clar	-11366
▁coex	-11367
▁conj	-11368
▁coup	-11369
▁dirt	-11370
▁disg	-11371
▁doom	-11372
▁drew	-11373
▁echo	-11374
▁elic	-11375
▁empt	-11376
▁ethn	-11377
▁eyes	-11378
▁fare	-11379
▁fish	-11380
▁glor	-11381
▁glut	-11382
▁hall	-11383
▁hill	-11384
▁hing	-11385
▁hits	-11386
▁hort	-11387
▁hunt	-11388
▁idle	-11389
▁intr	-11390
▁kitc	-11391
▁labs	-11392
▁lady	-11393
▁ling	-11394
▁luck	-11395
▁lull	-11396
▁mega	-11397
▁migr	-11398
▁mism	-11399
AK	-11400
▁¥	-11401
win	-11402
▁--	-11403
Russ	-11404
char	-11405
dict	-11406
rite	-11407
stat	-11408
stri	-11409
▁102	-11410
▁Abu	-11411
▁Alt	-11412
▁Daw	-11413
▁Vol	-11414
ciful	-11415
iably	-11416
icted	-11417
ixing	-11418
otrop	-11419
ports	-11420
spect	-11421
teran	-11422
wards	-11423
▁Debt	-11424
▁Naif	-11425
▁Rice	-11426
▁adds	-11427
▁apps	-11428
▁boat	-11429
▁mixt	-11430
▁morb	-11431
▁muse	-11432
▁mush	-11433
▁narc	-11434
▁obso	-11435
▁odds	-11436
▁outn	-11437
▁owns	-11438
▁pave	-11439
▁phot	-11440
▁pile	-11441
▁poet	-11442
▁prec	-11443
▁rage	-11444
▁reor	-11445
▁ride	-11446
▁rude	-11447
▁ruin	-11448
▁sack	-11449
▁send	-11450
▁sist	-11451
▁skin	-11452
▁spaw	-11453
▁stal	-11454
▁stap	-11455
▁sway	-11456
▁tens	-11457
▁thor	-11458
▁tiny	-11459
▁touc	-11460
▁tree	-11461
▁tunn	-11462
▁turf	-11463
▁urge	-11464
▁visa	-11465
▁west	-11466
▁wood	-11467
Global	-11468
abetes	-11469
advant	-11470
airobi	-11471
athema	-11472
atible	-11473
banked	-11474
behind	-11475
belief	-11476
chmark	-11477
combat	-11478
ctuary	-11479
ctures	-11480
culiar	-11481
embers	-11482
enegro	-11483
erving	-11484
estock	-11485
father	-11486
finite	-11487
gemony	-11488
holden	-11489
iatric	-11490
iberal	-11491
icheng	-11492
ichiro	-11493
icking	-11494
iences	-11495
ighbor	-11496
ilater	-11497
indebt	-11498
ipping	-11499
ét	-11500
▁,	-11501
-19	-11502
▁$7	-11503
▁54	-11504
elts	-11505
sson	-11506
sylv	-11507
yles	-11508
▁2-3	-11509
▁Det	-11510
▁Jia	-11511
▁Kur	-11512
▁Sgt	-11513
▁Six	-11514
armed	-11515
dling	-11516
iewed	-11517
ommun	-11518
orted	-11519
ratic	-11520
rones	-11521
umble	-11522
▁1995	-11523
▁2.1%	-11524
▁Tour	-11525
▁Weak	-11526
eltsin	-11527
etched	-11528
ieving	-11529
intern	-11530
ishers	-11531
ittees	-11532
itters	-11533
killed	-11534
kingly	-11535
ledged	-11536
levant	-11537
licate	-11538
licted	-11539
locked	-11540
losion	-11541
naires	-11542
ocaust	-11543
ograms	-11544
ollary	-11545
opping	-11546
opular	-11547
orance	-11548
orders	-11549
orists	-11550
ouched	-11551
ources	-11552
ournal	-11553
overty	-11554
owners	-11555
paying	-11556
places	-11557
rapped	-11558
rategy	-11559
rawing	-11560
raying	-11561
resden	-11562
ricate	-11563
rupted	-11564
safety	-11565
saving	-11566
seated	-11567
seless	-11568
sovere	-11569
spinal	-11570
summer	-11571
terrey	-11572
turned	-11573
unning	-11574
urring	-11575
usalem	-11576
usegun	-11577
utiful	-11578
valued	-11579
vanize	-11580
verted	-11581
wealth	-11582
weight	-11583
ximity	-11584
▁1,000	-11585
▁1950’	-11586
▁1970,	-11587
▁1979,	-11588
▁1987,	-11589
▁1991,	-11590
▁1998,	-11591
▁2000.	-11592
▁2002.	-11593
▁2004.	-11594
▁2005.	-11595
▁2007.	-11596
▁2010.	-11597
▁2011.	-11598
▁2016.	-11599
vol	-11600
urpr	-11601
▁Rab	-11602
▁rom	-11603
angle	-11604
ouses	-11605
stret	-11606
▁1992	-11607
▁1997	-11608
▁Cool	-11609
▁Diet	-11610
▁bang	-11611
▁fool	-11612
▁inex	-11613
▁plun	-11614
▁shop	-11615
asions	-11616
▁2025,	-11617
▁2050.	-11618
▁ACCRA	-11619
▁Abdel	-11620
▁Along	-11621
▁Analy	-11622
▁Arabs	-11623
▁Aside	-11624
▁Bayer	-11625
▁Boris	-11626
▁Bruni	-11627
▁Chief	-11628
▁Chile	-11629
▁Chung	-11630
▁Cowen	-11631
▁Crown	-11632
▁Deere	-11633
▁Domin	-11634
▁Dubai	-11635
▁Dzhok	-11636
▁Elgin	-11637
▁Fifth	-11638
▁Forty	-11639
▁Girls	-11640
▁Group	-11641
▁Guard	-11642
▁Index	-11643
▁Intra	-11644
▁Iraqi	-11645
▁Janet	-11646
▁Joint	-11647
▁Kabul	-11648
▁Kenen	-11649
▁Kerry	-11650
▁Kevin	-11651
▁Lanka	-11652
▁Local	-11653
▁Milit	-11654
▁Model	-11655
▁NAFTA	-11656
▁Opium	-11657
▁Oxfam	-11658
▁Parad	-11659
▁Prior	-11660
▁Rajan	-11661
▁Relig	-11662
▁Sahel	-11663
▁Saraj	-11664
▁Scand	-11665
▁Shell	-11666
▁Small	-11667
▁Steve	-11668
▁Think	-11669
▁Trust	-11670
▁Truth	-11671
▁Turks	-11672
▁Turok	-11673
▁UNIDO	-11674
▁Years	-11675
▁abort	-11676
▁acres	-11677
▁actor	-11678
▁adult	-11679
▁agent	-11680
▁agroc	-11681
▁alive	-11682
▁alleg	-11683
▁amend	-11684
▁antic	-11685
▁appet	-11686
▁arbit	-11687
▁arena	-11688
▁atroc	-11689
▁backl	-11690
▁backs	-11691
▁blocs	-11692
▁blunt	-11693
▁bodes	-11694
▁bonus	-11695
▁brake	-11696
▁brand	-11697
▁buyer	-11698
▁cable	-11699
▁cance	-11700
▁cedar	-11701
▁cells	-11702
▁coerc	-11703
▁consp	-11704
▁crowd	-11705
▁crude	-11706
▁cruel	-11707
▁crush	-11708
▁degen	-11709
▁delta	-11710
▁devil	-11711
▁dirty	-11712
▁downg	-11713
▁dread	-11714
▁dried	-11715
▁drone	-11716
▁dying	-11717
▁endow	-11718
▁enfor	-11719
▁entit	-11720
▁erode	-11721
▁esche	-11722
▁ethic	-11723
▁euros	-11724
▁exerc	-11725
▁exert	-11726
▁facto	-11727
▁fault	-11728
▁fluid	-11729
▁globe	-11730
▁grace	-11731
▁greed	-11732
▁grids	-11733
▁hints	-11734
▁holes	-11735
▁hoped	-11736
▁hyper	-11737
▁imply	-11738
▁incub	-11739
▁infam	-11740
▁infer	-11741
▁leaky	-11742
▁likes	-11743
▁loose	-11744
▁loses	-11745
▁manic	-11746
▁metal	-11747
▁monit	-11748
▁named	-11749
▁narco	-11750
▁nasty	-11751
▁notes	-11752
▁overt	-11753
▁pause	-11754
▁penet	-11755
▁plund	-11756
▁polio	-11757
▁postp	-11758
▁prone	-11759
▁proud	-11760
▁quasi	-11761
▁rains	-11762
▁reaff	-11763
▁rebel	-11764
▁regen	-11765
▁reign	-11766
▁rigor	-11767
▁roofs	-11768
▁ruler	-11769
▁safer	-11770
▁saves	-11771
▁scans	-11772
▁scene	-11773
▁score	-11774
▁scour	-11775
▁secre	-11776
▁sells	-11777
▁sever	-11778
▁shame	-11779
▁ships	-11780
▁slows	-11781
▁soils	-11782
▁spark	-11783
▁split	-11784
▁spons	-11785
▁spots	-11786
▁stark	-11787
▁stems	-11788
▁stops	-11789
▁sugar	-11790
▁sweet	-11791
▁swept	-11792
▁sword	-11793
▁tears	-11794
▁throw	-11795
▁token	-11796
▁trail	-11797
▁tries	-11798
▁unify	-11799
▁units	-11800
▁unlim	-11801
▁unman	-11802
▁unmat	-11803
▁unset	-11804
▁urges	-11805
▁valid	-11806
▁vigor	-11807
▁waged	-11808
▁widen	-11809
Russian	-11810
alemate	-11811
ambique	-11812
amental	-11813
ardless	-11814
artered	-11815
banking	-11816
billion	-11817
carious	-11818
contain	-11819
denomin	-11820
dioxide	-11821
earning	-11822
emption	-11823
enabled	-11824
enforce	-11825
entials	-11826
erating	-11827
fashion	-11828
holding	-11829
ifiable	-11830
ificant	-11831
ihadism	-11832
iliated	-11833
issance	-11834
itively	-11835
itizing	-11836
leading	-11837
ludible	-11838
mediate	-11839
million	-11840
onizing	-11841
onymous	-11842
pressed	-11843
profile	-11844
reative	-11845
repared	-11846
ribunal	-11847
rifying	-11848
ritious	-11849
section	-11850
selling	-11851
sidered	-11852
ulative	-11853
umbered	-11854
uration	-11855
urchill	-11856
versely	-11857
▁10,000	-11858
▁20,000	-11859
▁30,000	-11860
▁Afford	-11861
▁Airbus	-11862
▁Albert	-11863
▁Allied	-11864
▁Altern	-11865
▁Anyone	-11866
▁Around	-11867
▁Arthur	-11868
▁Asians	-11869
▁BERLIN	-11870
▁Boeing	-11871
▁Bureau	-11872
▁CCAMLR	-11873
▁Cancer	-11874
▁Clause	-11875
▁Contro	-11876
▁Decemb	-11877
▁Direct	-11878
▁Eberst	-11879
▁Either	-11880
▁Empire	-11881
▁Family	-11882
▁Follow	-11883
▁GENEVA	-11884
▁Gallup	-11885
▁Gandhi	-11886
▁Geffen	-11887
▁Guantá	-11888
▁Histor	-11889
▁Hitler	-11890
▁Hoover	-11891
▁Hurric	-11892
▁Interv	-11893
▁Jintao	-11894
▁Juárez	-11895
▁MUNICH	-11896
▁Making	-11897
▁Marine	-11898
▁Martin	-11899
▁McAfee	-11900
▁Milton	-11901
▁Mother	-11902
▁Motors	-11903
▁Museum	-11904
▁Nelson	-11905
▁OXFORD	-11906
▁Prague	-11907
▁Report	-11908
▁Rogoff	-11909
▁Saving	-11910
▁Street	-11911
▁Strong	-11912
▁Thanks	-11913
▁VIENNA	-11914
▁abrupt	-11915
▁adhere	-11916
▁advers	-11917
▁agglom	-11918
▁aggrav	-11919
▁agrote	-11920
▁allevi	-11921
▁apolog	-11922
▁arable	-11923
▁ascend	-11924
▁aspire	-11925
▁assass	-11926
▁autumn	-11927
▁avenue	-11928
▁behalf	-11929
▁belong	-11930
▁betray	-11931
▁blacks	-11932
▁bomber	-11933
▁bother	-11934
▁branch	-11935
▁breaks	-11936
▁breath	-11937
▁bribes	-11938
▁bypass	-11939
▁casual	-11940
▁cement	-11941
▁chosen	-11942
▁church	-11943
▁circul	-11944
▁clouds	-11945
▁coffee	-11946
▁comply	-11947
▁couldn	-11948
▁cybers	-11949
▁dashed	-11950
▁dating	-11951
▁delays	-11952
▁derive	-11953
▁detail	-11954
▁dipped	-11955
▁disill	-11956
▁dismal	-11957
▁doubts	-11958
▁dubbed	-11959
▁ecolog	-11960
▁editor	-11961
▁elabor	-11962
▁evange	-11963
▁excuse	-11964
▁exempt	-11965
▁extern	-11966
▁extrad	-11967
▁fabric	-11968
▁fairer	-11969
▁fairly	-11970
▁favors	-11971
▁flying	-11972
▁forged	-11973
▁freely	-11974
▁garden	-11975
▁gotten	-11976
▁hubris	-11977
▁immune	-11978
▁incons	-11979
▁incurs	-11980
▁induce	-11981
▁infant	-11982
▁intact	-11983
▁jargon	-11984
▁jumped	-11985
▁jurisd	-11986
▁lacked	-11987
▁ladder	-11988
▁lagged	-11989
▁lasted	-11990
▁lately	-11991
▁layers	-11992
▁lender	-11993
▁linear	-11994
▁lining	-11995
▁liquor	-11996
▁malnut	-11997
▁mantra	-11998
▁meager	-11999
▁merits	-12000
▁onward	-12001
▁ordeal	-12002
▁outbur	-12003
▁overly	-12004
▁parade	-12005
▁parent	-12006
▁parlia	-12007
▁pessim	-12008
▁phones	-12009
▁plight	-12010
▁pooled	-12011
▁porous	-12012
▁pounds	-12013
▁privat	-12014
▁prolif	-12015
▁pulled	-12016
▁purely	-12017
▁ration	-12018
▁recipe	-12019
▁redisc	-12020
▁repair	-12021
▁repeal	-12022
▁replen	-12023
▁resign	-12024
▁resume	-12025
▁revamp	-12026
▁revise	-12027
▁riders	-12028
▁rounds	-12029
▁rulers	-12030
▁rumors	-12031
▁safely	-12032
▁scaled	-12033
▁scored	-12034
▁season	-12035
▁seized	-12036
▁seldom	-12037
▁serves	-12038
▁shrank	-12039
▁shrine	-12040
▁shrink	-12041
▁sights	-12042
▁silver	-12043
▁solely	-12044
▁spaces	-12045
▁sphere	-12046
▁spills	-12047
▁square	-12048
▁stalls	-12049
▁starts	-12050
▁stoked	-12051
▁strain	-12052
▁switch	-12053
▁thrive	-12054
▁thrown	-12055
▁thrust	-12056
▁tipped	-12057
▁trains	-12058
▁trucks	-12059
▁unbear	-12060
▁unfold	-12061
▁update	-12062
▁upturn	-12063
▁urging	-12064
▁utmost	-12065
▁vacuum	-12066
▁verify	-12067
▁vulgar	-12068
▁warmth	-12069
▁weighs	-12070
▁wholes	-12071
▁wholly	-12072
▁worker	-12073
▁writes	-12074
▁“9/11”	-12075
ackaging	-12076
approval	-12077
attering	-12078
breaking	-12079
business	-12080
ceivable	-12081
cipation	-12082
conflict	-12083
cultural	-12084
emitting	-12085
encement	-12086
erations	-12087
esthetic	-12088
fortable	-12089
gorithms	-12090
iananmen	-12091
ifically	-12092
location	-12093
logiston	-12094
mutually	-12095
produced	-12096
ractical	-12097
reatment	-12098
ropriate	-12099
services	-12100
stressed	-12101
sylvania	-12102
transfer	-12103
vertical	-12104
weakened	-12105
yielding	-12106
▁400,000	-12107
▁700,000	-12108
▁Afghani	-12109
▁Azoulay	-12110
▁Barring	-12111
▁Bolivia	-12112
▁Brenner	-12113
▁Brother	-12114
▁Burundi	-12115
▁CHICAGO	-12116
▁Celsius	-12117
▁Certain	-12118
▁Charter	-12119
▁Company	-12120
▁Concern	-12121
▁Current	-12122
▁Curtain	-12123
▁Digital	-12124
▁Earlier	-12125
▁Eicheng	-12126
▁Finland	-12127
▁Framing	-12128
▁Getting	-12129
▁History	-12130
▁Huajian	-12131
▁Hundred	-12132
▁Imagine	-12133
▁Islands	-12134
▁Jacques	-12135
▁Journal	-12136
▁Juncker	-12137
▁Kashmir	-12138
▁Kenyans	-12139
▁Kissing	-12140
▁Machine	-12141
▁Madison	-12142
▁Marxism	-12143
▁Marxist	-12144
▁Meeting	-12145
▁Mohamed	-12146
▁Mubarak	-12147
▁Nairobi	-12148
▁Natural	-12149
▁Outlook	-12150
▁Philipp	-12151
▁Poverty	-12152
▁Predict	-12153
▁Product	-12154
▁Promise	-12155
▁Putting	-12156
▁Rebecca	-12157
▁Results	-12158
▁Support	-12159
▁Suppose	-12160
▁Systems	-12161
▁TORONTO	-12162
▁Therein	-12163
▁Ugandan	-12164
▁Univers	-12165
▁Vaccine	-12166
▁Yerevan	-12167
▁Zipline	-12168
▁abusive	-12169
▁acutely	-12170
▁adolesc	-12171
▁appeals	-12172
▁applies	-12173
▁approve	-12174
▁arduous	-12175
▁arising	-12176
▁arrival	-12177
▁avenues	-12178
▁beneath	-12179
▁boomers	-12180
▁boosted	-12181
▁borrows	-12182
▁bubbles	-12183
▁burning	-12184
▁carnage	-12185
▁cascade	-12186
▁chaired	-12187
▁checked	-12188
▁chicken	-12189
▁circles	-12190
▁clarity	-12191
▁cohorts	-12192
▁concede	-12193
▁concert	-12194
▁conform	-12195
▁conglom	-12196
▁convene	-12197
▁convoys	-12198
▁costing	-12199
▁curtail	-12200
▁cynical	-12201
▁dealing	-12202
▁debacle	-12203
▁debtors	-12204
▁deepens	-12205
▁disburs	-12206
▁donated	-12207
▁dragged	-12208
▁drained	-12209
▁drastic	-12210
▁eastern	-12211
▁endemic	-12212
▁endless	-12213
▁ensures	-12214
▁entails	-12215
▁episode	-12216
▁eroding	-12217
▁examine	-12218
▁expands	-12219
▁fanatic	-12220
▁fantasy	-12221
▁feeding	-12222
▁fellows	-12223
▁fetuses	-12224
▁fiction	-12225
▁fitting	-12226
▁footing	-12227
▁fosters	-12228
▁founded	-12229
▁founder	-12230
▁furious	-12231
▁genetic	-12232
▁graphic	-12233
▁grapple	-12234
▁grasped	-12235
▁grounds	-12236
▁halting	-12237
▁happier	-12238
▁hardest	-12239
▁harshly	-12240
▁hazards	-12241
▁heading	-12242
▁hearing	-12243
▁heating	-12244
▁hectare	-12245
▁imaging	-12246
▁impulse	-12247
▁inertia	-12248
▁intends	-12249
▁jailing	-12250
▁jeopard	-12251
▁jobless	-12252
▁kitchen	-12253
▁knowing	-12254
▁literal	-12255
▁marched	-12256
▁margins	-12257
▁marshal	-12258
▁mediate	-12259
▁mentors	-12260
▁mergers	-12261
▁migrant	-12262
▁militar	-12263
▁mixture	-12264
▁monetar	-12265
▁monopol	-12266
▁morning	-12267
▁nascent	-12268
▁nominal	-12269
▁nowhere	-12270
▁orderly	-12271
▁overdue	-12272
▁overlap	-12273
▁panacea	-12274
▁pasture	-12275
▁payroll	-12276
▁pending	-12277
▁picking	-12278
▁pivotal	-12279
▁plagued	-12280
▁planted	-12281
▁pledges	-12282
▁pockets	-12283
▁posture	-12284
▁precond	-12285
▁predisp	-12286
▁princes	-12287
▁quantum	-12288
▁rampant	-12289
▁reacted	-12290
▁readers	-12291
▁reading	-12292
▁rebound	-12293
▁rebuild	-12294
▁recipro	-12295
▁reduces	-12296
▁refrain	-12297
▁refusal	-12298
▁release	-12299
▁repairs	-12300
▁retreat	-12301
▁revised	-12302
▁revital	-12303
▁revolts	-12304
▁roadmap	-12305
▁rolling	-12306
▁satisfy	-12307
▁scratch	-12308
▁seekers	-12309
▁setback	-12310
▁settles	-12311
▁shining	-12312
▁singled	-12313
▁sitting	-12314
▁skirted	-12315
▁specter	-12316
▁spreads	-12317
▁staying	-12318
▁steered	-12319
▁stepped	-12320
▁stretch	-12321
▁studied	-12322
▁substit	-12323
▁suburbs	-12324
▁swiftly	-12325
▁tenable	-12326
▁thawing	-12327
▁toppled	-12328
▁trapped	-12329
▁trusted	-12330
▁tsunami	-12331
▁undergo	-12332
▁unhappy	-12333
▁unheard	-12334
▁unsurpr	-12335
▁varying	-12336
▁verdict	-12337
▁veteran	-12338
▁vibrant	-12339
▁visited	-12340
▁vitamin	-12341
▁watched	-12342
▁wounded	-12343
▁wrongly	-12344
▁yielded	-12345
accounted	-12346
consensus	-12347
developed	-12348
dimension	-12349
dominated	-12350
ependency	-12351
etermined	-12352
fashioned	-12353
immigrant	-12354
inflation	-12355
istakable	-12356
njolfsson	-12357
placeable	-12358
political	-12359
producing	-12360
reduction	-12361
requisite	-12362
▁2010-201	-12363
▁Academic	-12364
▁Albanian	-12365
▁Altruism	-12366
▁BRUSSELS	-12367
▁Bernanke	-12368
▁Binyamin	-12369
▁Blinding	-12370
▁Chairman	-12371
▁Children	-12372
▁Contrary	-12373
▁Dividend	-12374
▁Dzhokhar	-12375
▁Ensuring	-12376
▁Humanity	-12377
▁Intellig	-12378
▁Interest	-12379
▁Michigan	-12380
▁Ministry	-12381
▁Montreal	-12382
▁Museveni	-12383
▁Narendra	-12384
▁Normally	-12385
▁Obasanjo	-12386
▁Obstfeld	-12387
▁Olusegun	-12388
▁Potemkin	-12389
▁Recently	-12390
▁Reducing	-12391
▁Sarajevo	-12392
▁Scholars	-12393
▁Sciences	-12394
▁Strategy	-12395
▁Tamerlan	-12396
▁Thatcher	-12397
▁Xiaoping	-12398
▁adapting	-12399
▁advisers	-12400
▁amounted	-12401
▁anathema	-12402
▁applying	-12403
▁arrogant	-12404
▁arsenals	-12405
▁assembly	-12406
▁assessed	-12407
▁auspices	-12408
▁avoiding	-12409
▁backfire	-12410
▁battling	-12411
▁behaving	-12412
▁beholden	-12413
▁blunders	-12414
▁boldness	-12415
▁branches	-12416
▁brighter	-12417
▁brothers	-12418
▁brutally	-12419
▁calculus	-12420
▁catalyze	-12421
▁catching	-12422
▁category	-12423
▁centered	-12424
▁centrist	-12425
▁charisma	-12426
▁churches	-12427
▁cleaning	-12428
▁combines	-12429
▁comments	-12430
▁confirms	-12431
▁consumed	-12432
▁contains	-12433
▁contempt	-12434
▁councils	-12435
▁counties	-12436
▁crashing	-12437
▁credited	-12438
▁declines	-12439
▁delaying	-12440
▁demanded	-12441
▁detected	-12442
▁diabetes	-12443
▁dissemin	-12444
▁distrust	-12445
▁donating	-12446
▁doormats	-12447
▁drinking	-12448
▁electron	-12449
▁embarked	-12450
▁embodies	-12451
▁emitters	-12452
▁enjoying	-12453
▁entities	-12454
▁equation	-12455
▁examined	-12456
▁examines	-12457
▁exceeded	-12458
▁expenses	-12459
▁exporter	-12460
▁extrapol	-12461
▁factions	-12462
▁failings	-12463
▁fanciful	-12464
▁favoring	-12465
▁feasible	-12466
▁featured	-12467
▁feedback	-12468
▁flourish	-12469
▁founders	-12470
▁friendly	-12471
▁frontier	-12472
▁goodwill	-12473
▁graduate	-12474
▁hardware	-12475
▁hectares	-12476
▁hierarch	-12477
▁holdings	-12478
▁holistic	-12479
▁homeland	-12480
▁honoring	-12481
▁ignoring	-12482
▁imagined	-12483
▁improves	-12484
▁incoming	-12485
▁ineffect	-12486
▁inflated	-12487
▁innovate	-12488
▁insiders	-12489
▁insisted	-12490
▁inspires	-12491
▁invasive	-12492
▁jihadism	-12493
▁legacies	-12494
▁liberals	-12495
▁likewise	-12496
▁magnetic	-12497
▁maturity	-12498
▁medicine	-12499
▁messages	-12500
▁modified	-12501
▁monetize	-12502
▁moreover	-12503
▁mushroom	-12504
▁normally	-12505
▁obsessed	-12506
▁obsolete	-12507
▁operated	-12508
▁operates	-12509
▁opponent	-12510
▁organize	-12511
▁outraged	-12512
▁outreach	-12513
▁passport	-12514
▁paternal	-12515
▁patience	-12516
▁peculiar	-12517
▁persists	-12518
▁planting	-12519
▁polluted	-12520
▁preoccup	-12521
▁presumed	-12522
▁prevails	-12523
▁probable	-12524
▁proceeds	-12525
▁producer	-12526
▁promotes	-12527
▁protocol	-12528
▁quarters	-12529
▁radicals	-12530
▁receives	-12531
▁recorded	-12532
▁redesign	-12533
▁referred	-12534
▁removing	-12535
▁reorient	-12536
▁reserved	-12537
▁reversal	-12538
▁robotics	-12539
▁romantic	-12540
▁scandals	-12541
▁selected	-12542
▁servants	-12543
▁showdown	-12544
▁silenced	-12545
▁speaking	-12546
▁spectrum	-12547
▁spurring	-12548
▁stations	-12549
▁stopping	-12550
▁subjects	-12551
▁suppress	-12552
▁survived	-12553
▁sweeping	-12554
▁symbolic	-12555
▁tailored	-12556
▁theories	-12557
▁thriving	-12558
▁totaling	-12559
▁tradable	-12560
▁ultimate	-12561
▁undercut	-12562
▁unipolar	-12563
▁unstable	-12564
▁upheaval	-12565
▁ventures	-12566
▁vitality	-12567
▁wherever	-12568
▁woefully	-12569
▁yearning	-12570
Washington	-12571
combatants	-12572
corruption	-12573
democratic	-12574
efficiency	-12575
ilaterally	-12576
interested	-12577
organizing	-12578
performing	-12579
recognized	-12580
ualization	-12581
▁2008-2009	-12582
▁2016-2025	-12583
▁Academics	-12584
▁Achieving	-12585
▁Alexander	-12586
▁Bilateral	-12587
▁Christine	-12588
▁Churchill	-12589
▁Coalition	-12590
▁Community	-12591
▁Diversity	-12592
▁Dominique	-12593
▁Eberstadt	-12594
▁Economist	-12595
▁Elections	-12596
▁Electoral	-12597
▁Following	-12598
▁Hurricane	-12599
▁Jefferson	-12600
▁Jerusalem	-12601
▁Junichiro	-12602
▁Monterrey	-12603
▁Obamacare	-12604
▁Professor	-12605
▁Providing	-12606
▁Resources	-12607
▁Scandinav	-12608
▁Southeast	-12609
▁Ukrainian	-12610
▁Worldwide	-12611
▁accession	-12612
▁addiction	-12613
▁adherence	-12614
▁amplified	-12615
▁antitrust	-12616
▁appearing	-12617
▁assessing	-12618
▁attribute	-12619
▁audiences	-12620
▁automated	-12621
▁balancing	-12622
▁basically	-12623
▁beautiful	-12624
▁believers	-12625
▁benchmark	-12626
▁blueprint	-12627
▁bolstered	-12628
▁buildings	-12629
▁charities	-12630
▁coincides	-12631
▁collapses	-12632
▁combining	-12633
▁complaint	-12634
▁confusion	-12635
▁connected	-12636
▁contracts	-12637
▁converted	-12638
▁corollary	-12639
▁criterion	-12640
▁crucially	-12641
▁defenders	-12642
▁defending	-12643
▁designing	-12644
▁dignified	-12645
▁diplomats	-12646
▁disadvant	-12647
▁disregard	-12648
▁distorted	-12649
▁dogmatism	-12650
▁engineers	-12651
▁enhancing	-12652
▁epicenter	-12653
▁eradicate	-12654
▁exploring	-12655
▁exporting	-12656
▁extension	-12657
▁faltering	-12658
▁favorably	-12659
▁followers	-12660
▁formation	-12661
▁fostering	-12662
▁fragility	-12663
▁functions	-12664
▁galvanize	-12665
▁hijacking	-12666
▁homegrown	-12667
▁hostility	-12668
▁ignorance	-12669
▁immigrant	-12670
▁implosion	-12671
▁incapable	-12672
▁intensive	-12673
▁intricate	-12674
▁invisible	-12675
▁irrespons	-12676
▁kilograms	-12677
▁launching	-12678
▁liability	-12679
▁liberties	-12680
▁lingering	-12681
▁livestock	-12682
▁maintains	-12683
▁meanwhile	-12684
▁megawatts	-12685
▁mentioned	-12686
▁migrating	-12687
▁militants	-12688
▁morbidity	-12689
▁narrowing	-12690
▁normalize	-12691
▁obsession	-12692
▁offerings	-12693
▁originate	-12694
▁overthrow	-12695
▁pandemics	-12696
▁paralyzed	-12697
▁patriotic	-12698
▁perfectly	-12699
▁permitted	-12700
▁perpetual	-12701
▁physician	-12702
▁pioneered	-12703
▁pipelines	-12704
▁plundered	-12705
▁pluralism	-12706
▁polarized	-12707
▁portrayed	-12708
▁preceding	-12709
▁pregnancy	-12710
▁preparing	-12711
▁prisoners	-12712
▁promotion	-12713
▁proximity	-12714
▁psycholog	-12715
▁rebalance	-12716
▁rebelling	-12717
▁reforming	-12718
▁rejecting	-12719
▁relatives	-12720
▁repayment	-12721
▁republics	-12722
▁resisting	-12723
▁resorting	-12724
▁restraint	-12725
▁safeguard	-12726
▁sanctuary	-12727
▁schooling	-12728
▁servicing	-12729
▁shrinking	-12730
▁signature	-12731
▁smuggling	-12732
▁stringent	-12733
▁subjected	-12734
▁surpassed	-12735
▁surprised	-12736
▁suspected	-12737
▁testament	-12738
▁textbooks	-12739
▁tolerable	-12740
▁travelers	-12741
▁turbulent	-12742
▁undergone	-12743
▁unlimited	-12744
▁unmatched	-12745
▁untouched	-12746
▁unusually	-12747
▁variables	-12748
▁vegetable	-12749
▁violently	-12750
▁worsening	-12751
competitive	-12752
denominated	-12753
dimensional	-12754
otechnology	-12755
▁2008-2009,	-12756
▁Affordable	-12757
▁Algorithms	-12758
▁Australian	-12759
▁Capitalism	-12760
▁Communists	-12761
▁Dreamliner	-12762
▁Economists	-12763
▁Everything	-12764
▁ExxonMobil	-12765
▁Governance	-12766
▁Guantánamo	-12767
▁Increasing	-12768
▁Industries	-12769
▁Innovation	-12770
▁Jiactivate	-12771
▁Mitterrand	-12772
▁Montenegro	-12773
▁Mozambique	-12774
▁Regardless	-12775
▁Scientific	-12776
▁Terrorists	-12777
▁admiration	-12778
▁announcing	-12779
▁atrocities	-12780
▁attainable	-12781
▁attempting	-12782
▁attraction	-12783
▁bankruptcy	-12784
▁basketball	-12785
▁boundaries	-12786
▁calculated	-12787
▁capitalist	-12788
▁censorship	-12789
▁championed	-12790
▁coalitions	-12791
▁combatants	-12792
▁combustion	-12793
▁committees	-12794
▁committing	-12795
▁competence	-12796
▁completely	-12797
▁connecting	-12798
▁constantly	-12799
▁constrains	-12800
▁conviction	-12801
▁correcting	-12802
▁criticisms	-12803
▁cultivated	-12804
▁cyberspace	-12805
▁decisively	-12806
▁delegation	-12807
▁department	-12808
▁disconnect	-12809
▁dismantled	-12810
▁disposable	-12811
▁distribute	-12812
▁emigration	-12813
▁endowments	-12814
▁exceptions	-12815
▁exploiting	-12816
▁extinction	-12817
▁extraction	-12818
▁friendship	-12819
▁graduation	-12820
▁groundwork	-12821
▁harvesting	-12822
▁hypothesis	-12823
▁ideologues	-12824
▁implicitly	-12825
▁incitement	-12826
▁incomplete	-12827
▁indefinite	-12828
▁insurgency	-12829
▁intervened	-12830
▁investable	-12831
▁irrelevant	-12832
▁journalist	-12833
▁laboratory	-12834
▁laundering	-12835
▁legitimize	-12836
▁lifestyles	-12837
▁likelihood	-12838
▁measurable	-12839
▁millennial	-12840
▁minimizing	-12841
▁multipolar	-12842
▁navigating	-12843
▁newspapers	-12844
▁nomination	-12845
▁nutritious	-12846
▁offsetting	-12847
▁originally	-12848
▁outrageous	-12849
▁pensioners	-12850
▁peripheral	-12851
▁perpetuate	-12852
▁persuasion	-12853
▁phenomenal	-12854
▁physicians	-12855
▁portfolios	-12856
▁positively	-12857
▁positivist	-12858
▁powerfully	-12859
▁powerhouse	-12860
▁pragmatism	-12861
▁precarious	-12862
▁predicting	-12863
▁presumably	-12864
▁proclaimed	-12865
▁pronounced	-12866
▁publishers	-12867
▁publishing	-12868
▁quantities	-12869
▁reasonably	-12870
▁rebuilding	-12871
▁recipients	-12872
▁recommends	-12873
▁reconsider	-12874
▁recruiting	-12875
▁reelection	-12876
▁references	-12877
▁regulating	-12878
▁reinforces	-12879
▁relentless	-12880
▁reportedly	-12881
▁repressive	-12882
▁reputation	-12883
▁requesting	-12884
▁restricted	-12885
▁resumption	-12886
▁retrospect	-12887
▁revelation	-12888
▁sacrifices	-12889
▁sentiments	-12890
▁standpoint	-12891
▁strikingly	-12892
▁subsidiary	-12893
▁subsidized	-12894
▁substances	-12895
▁thereafter	-12896
▁undertaken	-12897
▁underwater	-12898
▁underwrite	-12899
▁vocational	-12900
iculturalism	-12901
▁Alternative	-12902
▁Christopher	-12903
▁Demographic	-12904
▁Eichengreen	-12905
▁Hamiltonian	-12906
▁Improvement	-12907
▁Opportunity	-12908
▁Philippines	-12909
▁Smokestacks	-12910
▁Uncertainty	-12911
▁adolescents	-12912
▁association	-12913
▁attribution	-12914
▁automobiles	-12915
▁billionaire	-12916
▁bondholders	-12917
▁centerpiece	-12918
▁colonialism	-12919
▁communicate	-12920
▁composition	-12921
▁compromised	-12922
▁compromises	-12923
▁conferences	-12924
▁connections	-12925
▁continually	-12926
▁contributor	-12927
▁cornerstone	-12928
▁credentials	-12929
▁declaration	-12930
▁departments	-12931
▁description	-12932
▁disaffected	-12933
▁disappeared	-12934
▁discoveries	-12935
▁disillusion	-12936
▁dismantling	-12937
▁distributed	-12938
▁efficiently	-12939
▁eligibility	-12940
▁evangelical	-12941
▁exacerbated	-12942
▁exceptional	-12943
▁exemplified	-12944
▁existential	-12945
▁expectation	-12946
▁externality	-12947
▁fashionable	-12948
▁incorporate	-12949
▁incremental	-12950
▁influencing	-12951
▁inhabitants	-12952
▁inspiration	-12953
▁intensified	-12954
▁intensifies	-12955
▁interpreted	-12956
▁lawlessness	-12957
▁legislative	-12958
▁legislators	-12959
▁materialize	-12960
▁meaningless	-12961
▁meritocracy	-12962
▁millennials	-12963
▁modernizing	-12964
▁necessities	-12965
▁obstruction	-12966
▁orientation	-12967
▁overhauling	-12968
▁overwhelmed	-12969
▁parliaments	-12970
▁permissible	-12971
▁personality	-12972
▁practically	-12973
▁probability	-12974
▁proposition	-12975
▁provocative	-12976
▁psychiatric	-12977
▁rebalancing	-12978
▁recruitment	-12979
▁residential	-12980
▁revelations	-12981
▁sensitivity	-12982
▁shareholder	-12983
▁signatories	-12984
▁simplifying	-12985
▁stewardship	-12986
▁stimulative	-12987
▁substantive	-12988
▁superiority	-12989
▁supervisors	-12990
▁surrounding	-12991
▁technically	-12992
▁trafficking	-12993
▁unaccounted	-12994
▁undertaking	-12995
▁unthinkable	-12996
▁voluntarily	-12997
▁withdrawing	-12998
Proliferation	-12999
globalization	-13000
international	-13001
proliferation	-13002
▁Brynjolfsson	-13003
▁Conservation	-13004
▁Independence	-13005
▁Pennsylvania	-13006
▁Productivity	-13007
▁Unemployment	-13008
▁Universities	-13009
▁accomplished	-13010
▁accumulation	-13011
▁acquisitions	-13012
▁applications	-13013
▁appointments	-13014
▁appreciation	-13015
▁codependency	-13016
▁commencement	-13017
▁condemnation	-13018
▁conservatism	-13019
▁consolidated	-13020
▁constituents	-13021
▁constraining	-13022
▁conveniences	-13023
▁coordinating	-13024
▁deficiencies	-13025
▁deflationary	-13026
▁demographics	-13027
▁depreciation	-13028
▁deregulation	-13029
▁difficulties	-13030
▁digitization	-13031
▁disappointed	-13032
▁emancipation	-13033
▁enthusiastic	-13034
▁exploitation	-13035
▁facilitating	-13036
▁headquarters	-13037
▁highlighting	-13038
▁inadequately	-13039
▁inconsistent	-13040
▁individually	-13041
▁isolationist	-13042
▁laboratories	-13043
▁malnutrition	-13044
▁meritocratic	-13045
▁mobilization	-13046
▁nevertheless	-13047
▁peacekeepers	-13048
▁precipitated	-13049
▁replacements	-13050
▁respectively	-13051
▁shortsighted	-13052
▁simultaneous	-13053
▁specializing	-13054
▁structurally	-13055
▁supplemented	-13056
▁trajectories	-13057
▁unmistakable	-13058
▁unsurprising	-13059
▁Congressional	-13060
▁agglomeration	-13061
▁anniversaries	-13062
▁assertiveness	-13063
▁automatically	-13064
▁bureaucracies	-13065
▁collaborating	-13066
▁communitarian	-13067
▁conglomerates	-13068
▁conservatives	-13069
▁controversial	-13070
▁disappearance	-13071
▁distinguished	-13072
▁embarrassment	-13073
▁interventions	-13074
▁irreplaceable	-13075
▁irresponsible	-13076
▁paradoxically	-13077
▁philosophical	-13078
▁possibilities	-13079
▁preconditions	-13080
▁predominantly	-13081
▁prescriptions	-13082
▁undercounting	-13083
▁underestimate	-13084
▁unfortunately	-13085
▁unnecessarily	-13086
▁unpredictable	-13087
▁unwillingness	-13088
▁victimization	-13089
▁Administration	-13090
▁Sustainability	-13091
▁communitarians	-13092
▁constituencies	-13093
▁groundbreaking	-13094
▁identification	-13095
▁investigations	-13096
▁questionnaires	-13097
▁reconstruction	-13098
▁scientifically	-13099
▁interpretations	-13100
.9%	-13101
1.8	-13102
11.	-13103
3.2	-13104
6%.	-13105
7%.	-13106
7.6	-13107
ACS	-13108
ANA	-13109
CDs	-13110
COW	-13111
DIS	-13112
ENS	-13113
FAR	-13114
HOL	-13115
HRC	-13116
INF	-13117
JAN	-13118
KGB	-13119
LAN	-13120
MBM	-13121
MEs	-13122
ODA	-13123
TBT	-13124
TOC	-13125
hik	-13126
hma	-13127
ika	-13128
jui	-13129
meh	-13130
poE	-13131
uzz	-13132
▁Za	-13133
▁¥1	-13134
1%).	-13135
2008	-13136
6.4%	-13137
AGEN	-13138
AIMS	-13139
AKAR	-13140
DDIS	-13141
HOLM	-13142
Lago	-13143
NCDs	-13144
PORE	-13145
TOCK	-13146
abao	-13147
aghd	-13148
atju	-13149
bole	-13150
bomb	-13151
burg	-13152
coal	-13153
frog	-13154
greg	-13155
grim	-13156
iasm	-13157
krum	-13158
leaf	-13159
meal	-13160
moud	-13161
narc	-13162
neys	-13163
orns	-13164
ouls	-13165
plex	-13166
rapy	-13167
rips	-13168
rums	-13169
shad	-13170
shol	-13171
witz	-13172
yoto	-13173
▁$2.	-13174
▁$21	-13175
▁$38	-13176
▁$55	-13177
▁$6.	-13178
▁$7.	-13179
▁$90	-13180
▁(12	-13181
▁1.8	-13182
▁11%	-13183
▁13%	-13184
▁140	-13185
▁18-	-13186
▁22%	-13187
▁250	-13188
▁26%	-13189
▁29%	-13190
▁3%-	-13191
▁31%	-13192
▁34%	-13193
▁35%	-13194
▁38%	-13195
▁4.1	-13196
▁42%	-13197
▁50-	-13198
▁50.	-13199
vio	-13200
▁91	-13201
INGA	-13202
atma	-13203
bean	-13204
mean	-13205
prot	-13206
▁4%.	-13207
▁6%.	-13208
▁62,	-13209
▁63%	-13210
▁65%	-13211
▁68%	-13212
▁73%	-13213
▁98%	-13214
▁ABA	-13215
▁ACS	-13216
▁AWF	-13217
▁BIT	-13218
▁Beh	-13219
▁CMU	-13220
▁COP	-13221
▁DEN	-13222
▁DSK	-13223
▁ESG	-13224
▁Ecu	-13225
▁FAO	-13226
▁Ign	-13227
▁Imp	-13228
▁Lux	-13229
▁MOS	-13230
▁NGO	-13231
▁PET	-13232
▁SDG	-13233
▁Zet	-13234
▁sla	-13235
▁umb	-13236
▁vet	-13237
▁vex	-13238
-1945	-13239
7,000	-13240
Frank	-13241
IDJAN	-13242
Islam	-13243
NAFTA	-13244
Range	-13245
THENS	-13246
abeas	-13247
adenf	-13248
alaam	-13249
ammeh	-13250
anjui	-13251
aphos	-13252
ariam	-13253
ascus	-13254
atari	-13255
bodas	-13256
built	-13257
buyer	-13258
cheap	-13259
chers	-13260
chest	-13261
choes	-13262
donor	-13263
enemy	-13264
erers	-13265
ergus	-13266
escap	-13267
facts	-13268
flung	-13269
frost	-13270
gradu	-13271
iabao	-13272
isbon	-13273
kshaw	-13274
laves	-13275
legit	-13276
likes	-13277
looks	-13278
losed	-13279
major	-13280
maxim	-13281
mport	-13282
naire	-13283
obody	-13284
ocols	-13285
olina	-13286
otton	-13287
piles	-13288
pivot	-13289
raded	-13290
rayan	-13291
reude	-13292
rises	-13293
ronze	-13294
shima	-13295
sofar	-13296
stige	-13297
stuff	-13298
super	-13299
▁75	-13300
▁77	-13301
8.5%	-13302
PORT	-13303
aziz	-13304
fuge	-13305
ghai	-13306
paid	-13307
▁700	-13308
▁800	-13309
azine	-13310
ierra	-13311
kills	-13312
ongev	-13313
phers	-13314
tenth	-13315
timed	-13316
toman	-13317
umbai	-13318
umbar	-13319
umbia	-13320
unted	-13321
urton	-13322
winds	-13323
woman	-13324
yanin	-13325
ymied	-13326
zstan	-13327
▁$1.6	-13328
▁($39	-13329
▁0.1%	-13330
▁0.3%	-13331
▁0.4%	-13332
▁0.8%	-13333
▁1.9%	-13334
▁10-1	-13335
▁15-2	-13336
▁19.5	-13337
▁1914	-13338
▁1982	-13339
▁1987	-13340
▁2.4%	-13341
▁2063	-13342
▁3.8%	-13343
▁30%.	-13344
▁5.6%	-13345
▁50%.	-13346
▁6.2%	-13347
▁AIMS	-13348
▁Amid	-13349
▁Aung	-13350
▁BEAC	-13351
▁BRAC	-13352
▁Baby	-13353
▁Bhar	-13354
▁Bols	-13355
▁Born	-13356
▁Burm	-13357
▁CTBT	-13358
▁Comb	-13359
▁Derg	-13360
▁Erik	-13361
▁Ghra	-13362
▁Guns	-13363
▁Help	-13364
▁Hiro	-13365
▁Hitc	-13366
▁Horn	-13367
▁IDDA	-13368
▁Kiny	-13369
▁Kurd	-13370
▁Leak	-13371
▁Magu	-13372
▁Make	-13373
▁Marg	-13374
▁Meet	-13375
▁Musc	-13376
▁Myth	-13377
▁Neil	-13378
▁Ogon	-13379
▁Omar	-13380
▁Oslo	-13381
▁Schm	-13382
▁Shan	-13383
▁Swah	-13384
▁Take	-13385
▁UNEP	-13386
▁Visa	-13387
▁Walm	-13388
▁Yale	-13389
▁Yitz	-13390
▁Zine	-13391
▁aflo	-13392
▁afra	-13393
▁akin	-13394
▁anec	-13395
▁auda	-13396
▁cats	-13397
▁dawn	-13398
▁diam	-13399
40,	-13400
ARA	-13401
ufi	-13402
athi	-13403
poll	-13404
zhou	-13405
▁$4.	-13406
▁50,	-13407
▁Rup	-13408
▁fug	-13409
anned	-13410
osium	-13411
small	-13412
▁Scot	-13413
▁Sufi	-13414
▁Vers	-13415
▁ante	-13416
▁blip	-13417
▁exha	-13418
▁falt	-13419
▁fero	-13420
▁flur	-13421
▁foll	-13422
▁funn	-13423
▁garn	-13424
▁ghet	-13425
▁gift	-13426
▁gods	-13427
▁harb	-13428
▁icon	-13429
▁judg	-13430
▁lagg	-13431
▁levy	-13432
▁mask	-13433
▁moon	-13434
▁nuts	-13435
▁olig	-13436
▁parl	-13437
▁plea	-13438
▁plug	-13439
▁rena	-13440
▁rice	-13441
▁rosy	-13442
▁rote	-13443
▁sadd	-13444
▁slop	-13445
▁smug	-13446
▁unsc	-13447
▁unsu	-13448
▁unta	-13449
▁vehe	-13450
▁veil	-13451
Amazon	-13452
Enough	-13453
Import	-13454
Palest	-13455
achery	-13456
aciers	-13457
adiums	-13458
aghdad	-13459
ahrain	-13460
akshad	-13461
allets	-13462
aphosa	-13463
appear	-13464
aralle	-13465
asured	-13466
ateway	-13467
attain	-13468
bornly	-13469
cisely	-13470
closer	-13471
collar	-13472
consum	-13473
dollar	-13474
ealand	-13475
edient	-13476
endero	-13477
engers	-13478
expand	-13479
fifths	-13480
fourth	-13481
fueled	-13482
heeled	-13483
herapy	-13484
hesion	-13485
hevron	-13486
histor	-13487
houses	-13488
hungry	-13489
ibbean	-13490
ilicon	-13491
illips	-13492
ingway	-13493
insurg	-13494
interp	-13495
irteen	-13496
iscons	-13497
iscuss	-13498
ittery	-13499
CPO	-13500
bak	-13501
▁45	-13502
CPOA	-13503
exas	-13504
rall	-13505
ugna	-13506
upid	-13507
▁Amb	-13508
▁DNA	-13509
▁Dom	-13510
▁Ric	-13511
▁agr	-13512
eroon	-13513
iform	-13514
rivel	-13515
▁1976	-13516
▁Zuma	-13517
▁chap	-13518
▁dwar	-13519
▁earm	-13520
▁lawy	-13521
▁obey	-13522
▁pall	-13523
▁succ	-13524
▁tale	-13525
▁tena	-13526
▁woes	-13527
▁zone	-13528
ainted	-13529
anging	-13530
enders	-13531
idding	-13532
ivorce	-13533
krumah	-13534
laimed	-13535
loaded	-13536
member	-13537
mmaker	-13538
ndancy	-13539
olitan	-13540
oluted	-13541
ometer	-13542
orizon	-13543
ottest	-13544
parent	-13545
person	-13546
points	-13547
radesh	-13548
recomm	-13549
resili	-13550
restro	-13551
review	-13552
ricken	-13553
ridden	-13554
risome	-13555
ritrea	-13556
rolled	-13557
rugman	-13558
scient	-13559
secure	-13560
shoots	-13561
spread	-13562
steria	-13563
uctive	-13564
umatic	-13565
umbing	-13566
uminum	-13567
ungeon	-13568
ursors	-13569
vinism	-13570
volunt	-13571
ynasty	-13572
▁$10.5	-13573
▁1,200	-13574
▁1950.	-13575
▁1973,	-13576
▁1990.	-13577
▁1992,	-13578
▁2,000	-13579
▁2018.	-13580
▁2025.	-13581
▁2040,	-13582
▁6,000	-13583
▁7,000	-13584
▁8,000	-13585
▁ABABA	-13586
▁ADDIS	-13587
▁Advis	-13588
▁Advoc	-13589
▁Angus	-13590
▁BEACH	-13591
▁Based	-13592
▁Basic	-13593
▁Basin	-13594
▁Basle	-13595
▁Being	-13596
▁Break	-13597
▁Brook	-13598
▁Cairo	-13599
yr	-13600
-2.	-13601
701	-13602
dup	-13603
mun	-13604
rul	-13605
▁Ga	-13606
MDGs	-13607
aped	-13608
cuts	-13609
iami	-13610
ismo	-13611
oros	-13612
osts	-13613
pred	-13614
▁$93	-13615
▁24.	-13616
▁AIs	-13617
▁Gen	-13618
▁Oil	-13619
▁row	-13620
ceans	-13621
heads	-13622
iesel	-13623
ildup	-13624
lived	-13625
pling	-13626
quant	-13627
resol	-13628
urred	-13629
waves	-13630
▁1701	-13631
▁1961	-13632
▁Fred	-13633
▁cure	-13634
▁defl	-13635
▁frat	-13636
▁mode	-13637
▁plus	-13638
▁rene	-13639
▁sigh	-13640
▁wart	-13641
agents	-13642
istant	-13643
ransig	-13644
▁Choke	-13645
▁Claud	-13646
▁Const	-13647
▁Corps	-13648
▁Cyber	-13649
▁Cypri	-13650
▁Cyril	-13651
▁DAKAR	-13652
▁Deval	-13653
▁Fewer	-13654
▁Fresh	-13655
▁Frust	-13656
▁Gandh	-13657
▁Geert	-13658
▁Gradu	-13659
▁Guide	-13660
▁Higgs	-13661
▁Huang	-13662
▁Jacob	-13663
▁Jiang	-13664
▁Jugna	-13665
▁Lagos	-13666
▁Maced	-13667
▁Mafia	-13668
▁Manip	-13669
▁Matri	-13670
▁Meade	-13671
▁Miami	-13672
▁Muell	-13673
▁Muray	-13674
▁Myung	-13675
▁Navar	-13676
▁Optim	-13677
▁Patri	-13678
▁Quest	-13679
▁Roman	-13680
▁START	-13681
▁Scale	-13682
▁Serbs	-13683
▁Sheet	-13684
▁Sixth	-13685
▁Skept	-13686
▁Solow	-13687
▁Soros	-13688
▁Stall	-13689
▁Study	-13690
▁Texas	-13691
▁Tigre	-13692
▁Total	-13693
▁Ville	-13694
▁Willi	-13695
▁Zetas	-13696
▁abate	-13697
▁ammun	-13698
▁anecd	-13699
.,	-13700
$0.	-13701
gro	-13702
ikt	-13703
ova	-13704
ruk	-13705
tro	-13706
▁Ty	-13707
-$0.	-13708
Card	-13709
andy	-13710
emit	-13711
inqu	-13712
nerg	-13713
quif	-13714
quil	-13715
zled	-13716
▁Fig	-13717
▁Fis	-13718
▁Hen	-13719
▁Top	-13720
▁Wil	-13721
▁dod	-13722
▁siz	-13723
▁vir	-13724
Semit	-13725
build	-13726
chant	-13727
croft	-13728
defic	-13729
iktor	-13730
istem	-13731
ocaly	-13732
ordid	-13733
usted	-13734
▁Leon	-13735
▁dold	-13736
▁ener	-13737
▁lean	-13738
▁omin	-13739
▁prey	-13740
▁shot	-13741
althus	-13742
direct	-13743
groves	-13744
incent	-13745
lauded	-13746
liding	-13747
pocaly	-13748
▁Bihar	-13749
▁Tyler	-13750
▁angst	-13751
▁aquif	-13752
▁await	-13753
▁ballo	-13754
▁bedro	-13755
▁bells	-13756
▁bleak	-13757
▁boats	-13758
▁borne	-13759
▁brill	-13760
▁bully	-13761
▁burst	-13762
▁chast	-13763
▁cliff	-13764
▁clubs	-13765
▁deple	-13766
▁dissu	-13767
▁dogma	-13768
▁drama	-13769
▁drier	-13770
▁dusty	-13771
▁ethan	-13772
▁false	-13773
▁fatal	-13774
▁figur	-13775
▁fires	-13776
▁flash	-13777
▁fluct	-13778
▁focal	-13779
▁frict	-13780
▁glass	-13781
▁grasp	-13782
▁heady	-13783
▁hence	-13784
▁hotel	-13785
▁incip	-13786
▁inexp	-13787
▁intro	-13788
▁irrit	-13789
▁keeps	-13790
▁kills	-13791
▁label	-13792
▁leaks	-13793
▁liked	-13794
▁loops	-13795
▁lumin	-13796
▁messy	-13797
▁meter	-13798
▁murde	-13799
":	-13800
fs	-13801
3.6	-13802
may	-13803
pee	-13804
”).	-13805
▁Er	-13806
▁Ya	-13807
ahya	-13808
aine	-13809
amer	-13810
bent	-13811
oirs	-13812
otes	-13813
udad	-13814
▁41%	-13815
▁88%	-13816
▁Cro	-13817
▁Fat	-13818
▁NLD	-13819
▁Tus	-13820
▁hav	-13821
▁ves	-13822
ained	-13823
ansas	-13824
asies	-13825
ceive	-13826
itous	-13827
iudad	-13828
nical	-13829
osity	-13830
rouse	-13831
users	-13832
utive	-13833
▁2.9%	-13834
▁Tell	-13835
▁Tusk	-13836
▁amel	-13837
▁anis	-13838
▁fres	-13839
▁ills	-13840
▁stig	-13841
▁tech	-13842
▁wand	-13843
▁wear	-13844
ameras	-13845
isease	-13846
kansas	-13847
ovites	-13848
search	-13849
▁Fatah	-13850
▁Super	-13851
▁Yahya	-13852
▁havoc	-13853
▁looms	-13854
▁myths	-13855
▁ocean	-13856
▁ostra	-13857
▁paint	-13858
▁plaza	-13859
▁pools	-13860
▁radar	-13861
▁reced	-13862
▁redou	-13863
▁reins	-13864
▁relax	-13865
▁repel	-13866
▁roots	-13867
▁rupee	-13868
▁sects	-13869
▁shake	-13870
▁sites	-13871
▁slide	-13872
▁slope	-13873
▁slump	-13874
▁songs	-13875
▁spurt	-13876
▁stale	-13877
▁staun	-13878
▁sumim	-13879
▁swamp	-13880
▁swing	-13881
▁swoll	-13882
▁sworn	-13883
▁tenth	-13884
▁texts	-13885
▁tired	-13886
▁truck	-13887
▁tying	-13888
▁ultra	-13889
▁umbre	-13890
▁unden	-13891
▁unfin	-13892
▁unsol	-13893
▁venge	-13894
▁vexed	-13895
Islamic	-13896
acceler	-13897
alpable	-13898
aphrase	-13899
SR	-13900
Are	-13901
For	-13902
uls	-13903
West	-13904
cest	-13905
dish	-13906
ests	-13907
iced	-13908
nest	-13909
usse	-13910
▁Bul	-13911
▁NME	-13912
▁Win	-13913
▁Zap	-13914
▁alo	-13915
▁lap	-13916
▁mig	-13917
agion	-13918
arios	-13919
hered	-13920
impro	-13921
stock	-13922
topia	-13923
uther	-13924
uties	-13925
▁KONG	-13926
▁Trip	-13927
▁USSR	-13928
▁cust	-13929
▁hook	-13930
▁slic	-13931
▁soar	-13932
ackson	-13933
bottom	-13934
supply	-13935
ulsory	-13936
▁(2008	-13937
▁Avery	-13938
▁arist	-13939
▁langu	-13940
arewell	-13941
aughter	-13942
batical	-13943
central	-13944
cestors	-13945
chanted	-13946
cilable	-13947
ciously	-13948
climate	-13949
conserv	-13950
deficit	-13951
despite	-13952
earlier	-13953
endulum	-13954
epublic	-13955
erguson	-13956
experts	-13957
fledged	-13958
founder	-13959
freedom	-13960
funding	-13961
grimage	-13962
gyzstan	-13963
hacking	-13964
hanging	-13965
heduled	-13966
ichever	-13967
illegal	-13968
iminary	-13969
introdu	-13970
iplomat	-13971
itimize	-13972
ittered	-13973
ligible	-13974
looking	-13975
mafrost	-13976
malaria	-13977
markets	-13978
meaning	-13979
nergies	-13980
network	-13981
obesity	-13982
obyanin	-13983
onduras	-13984
optimal	-13985
otropic	-13986
plexing	-13987
pricing	-13988
process	-13989
profits	-13990
reshing	-13991
roperty	-13992
running	-13993
rupture	-13994
sharing	-13995
sidized	-13996
silicon	-13997
umpeter	-13998
venient	-13999
73	-14000
95	-14001
DS	-14002
”-	-14003
ALA	-14004
dis	-14005
gas	-14006
isk	-14007
lat	-14008
upp	-14009
ands	-14010
asai	-14011
hent	-14012
hill	-14013
ighs	-14014
illa	-14015
imic	-14016
list	-14017
udis	-14018
▁$3.	-14019
▁Dod	-14020
▁Ful	-14021
▁Mut	-14022
▁Wah	-14023
▁Was	-14024
▁biz	-14025
▁slo	-14026
▁tac	-14027
about	-14028
align	-14029
cyber	-14030
track	-14031
▁1967	-14032
▁Anne	-14033
▁Dodd	-14034
▁Pact	-14035
▁Pent	-14036
▁ferv	-14037
▁inch	-14038
▁inqu	-14039
▁lure	-14040
▁poly	-14041
▁scri	-14042
fiscal	-14043
ranath	-14044
verest	-14045
▁$11.8	-14046
▁1985,	-14047
▁Kasai	-14048
▁debut	-14049
▁mimic	-14050
▁prose	-14051
▁tacit	-14052
▁timel	-14053
▁usher	-14054
fetched	-14055
pocrisy	-14056
veraged	-14057
weening	-14058
western	-14059
written	-14060
▁$10-15	-14061
▁18-29.	-14062
▁Alexis	-14063
▁Andean	-14064
▁Ashton	-14065
▁Associ	-14066
▁Athens	-14067
▁Badget	-14068
▁Baltic	-14069
▁Budget	-14070
▁Ciudad	-14071
▁Corpor	-14072
▁Custom	-14073
▁Czechs	-14074
▁Diplom	-14075
▁Dreams	-14076
▁Driven	-14077
▁Equity	-14078
▁Famine	-14079
▁Fisher	-14080
▁Fixing	-14081
▁Fossil	-14082
▁Friday	-14083
▁Gambia	-14084
▁Ghraib	-14085
▁Highly	-14086
▁Immedi	-14087
▁Import	-14088
▁Jammeh	-14089
▁Jersey	-14090
▁Jiabao	-14091
▁Kurils	-14092
▁Leonid	-14093
▁Lesson	-14094
▁Lisbon	-14095
▁Luther	-14096
▁Madoff	-14097
▁Manuel	-14098
▁Matrix	-14099
72	-14100
Bo	-14101
QR	-14102
aï	-14103
oa	-14104
”:	-14105
▁—	-14106
BoJ	-14107
Bre	-14108
Fed	-14109
avy	-14110
fed	-14111
inn	-14112
▁Av	-14113
▁CH	-14114
▁Mo	-14115
▁ug	-14116
▁vs	-14117
abra	-14118
arus	-14119
aïve	-14120
nost	-14121
▁IRA	-14122
▁hip	-14123
▁mir	-14124
▁yel	-14125
3,000	-14126
amins	-14127
heavy	-14128
ouass	-14129
udrey	-14130
▁CHWs	-14131
▁Pres	-14132
▁Tack	-14133
▁mail	-14134
▁sore	-14135
▁ugly	-14136
▁undo	-14137
▁vide	-14138
Brexit	-14139
angpur	-14140
asnost	-14141
asters	-14142
logans	-14143
ouassi	-14144
ptures	-14145
▁Haile	-14146
▁Moore	-14147
▁alter	-14148
▁empty	-14149
▁naïve	-14150
▁reset	-14151
▁sabot	-14152
▁video	-14153
angahar	-14154
icament	-14155
without	-14156
▁Audrey	-14157
▁Modern	-14158
▁Moment	-14159
▁Mumbai	-14160
▁Nazism	-14161
▁Norway	-14162
▁PEPFAR	-14163
▁PRAGUE	-14164
▁Panama	-14165
▁Papers	-14166
▁Potato	-14167
▁Prohib	-14168
▁Rabind	-14169
▁Remitt	-14170
▁Return	-14171
▁Romans	-14172
▁Romney	-14173
▁Rupert	-14174
▁Sahara	-14175
▁Salaam	-14176
▁Santos	-14177
▁Saudis	-14178
▁Seeing	-14179
▁Senior	-14180
▁Shocks	-14181
▁Sierra	-14182
▁Silvio	-14183
▁Utopia	-14184
▁Valley	-14185
▁Viewed	-14186
▁Viktor	-14187
▁Zambia	-14188
▁abused	-14189
▁adulth	-14190
▁afloat	-14191
▁afraid	-14192
▁analyt	-14193
▁anyway	-14194
▁arrive	-14195
▁assign	-14196
▁asthma	-14197
▁beauty	-14198
▁beggar	-14199
-5	-14200
BM	-14201
bn	-14202
sc	-14203
mus	-14204
▁34	-14205
AfDB	-14206
etan	-14207
high	-14208
iché	-14209
jest	-14210
nots	-14211
rais	-14212
roke	-14213
tery	-14214
▁19%	-14215
▁62%	-14216
▁Ibn	-14217
▁Tal	-14218
capes	-14219
holds	-14220
ighty	-14221
renne	-14222
▁10%.	-14223
▁Hans	-14224
▁Kung	-14225
▁aber	-14226
▁dare	-14227
▁dues	-14228
▁fled	-14229
▁snat	-14230
adical	-14231
irenne	-14232
omized	-14233
raisal	-14234
ramble	-14235
▁array	-14236
▁ridic	-14237
▁vivid	-14238
brother	-14239
hibited	-14240
notches	-14241
▁Ethics	-14242
▁Iraqis	-14243
▁Mullah	-14244
▁Negoti	-14245
▁advise	-14246
▁biased	-14247
▁biting	-14248
▁blackm	-14249
▁bonanz	-14250
▁bribed	-14251
▁bronze	-14252
▁buoyed	-14253
▁burned	-14254
▁buyers	-14255
▁cancel	-14256
▁cartel	-14257
▁carved	-14258
▁checks	-14259
▁chemot	-14260
▁choppy	-14261
▁cliché	-14262
▁closes	-14263
▁cohort	-14264
▁conspi	-14265
▁corpus	-14266
▁culmin	-14267
▁curbed	-14268
▁darker	-14269
▁debtor	-14270
▁deplet	-14271
▁depths	-14272
▁deputy	-14273
▁destit	-14274
▁detect	-14275
▁diesel	-14276
▁digest	-14277
▁diseng	-14278
▁disloc	-14279
▁divert	-14280
▁dracon	-14281
▁drinks	-14282
▁drones	-14283
▁drying	-14284
▁duties	-14285
▁echoes	-14286
▁enjoys	-14287
▁eroded	-14288
▁excite	-14289
▁exclud	-14290
▁extrav	-14291
▁facile	-14292
▁falter	-14293
▁fights	-14294
▁finite	-14295
▁fleets	-14296
▁flurry	-14297
▁formid	-14298
▁framed	-14299
)?	-14300
35	-14301
Ge	-14302
OT	-14303
But	-14304
Our	-14305
cre	-14306
fig	-14307
hin	-14308
▁IL	-14309
Geor	-14310
comp	-14311
hero	-14312
rian	-14313
▁ESI	-14314
▁Ent	-14315
▁Pul	-14316
▁nan	-14317
▁vow	-14318
astic	-14319
condu	-14320
icine	-14321
insic	-14322
insky	-14323
venth	-14324
▁4.1%	-14325
▁Inev	-14326
▁Main	-14327
▁Need	-14328
▁lame	-14329
▁repr	-14330
▁seam	-14331
▁tied	-14332
ailway	-14333
icable	-14334
illery	-14335
iority	-14336
itique	-14337
ttoman	-14338
▁Adapt	-14339
▁Fifty	-14340
▁Often	-14341
▁SINGA	-14342
▁aides	-14343
▁bumpy	-14344
▁enric	-14345
▁reson	-14346
iburton	-14347
olation	-14348
regular	-14349
station	-14350
urances	-14351
▁Minsky	-14352
▁entail	-14353
▁equate	-14354
▁erased	-14355
▁fright	-14356
▁garner	-14357
▁geared	-14358
▁genius	-14359
▁ghetto	-14360
▁gravit	-14361
▁guided	-14362
▁habeas	-14363
▁habits	-14364
▁hazard	-14365
▁headqu	-14366
▁hinges	-14367
▁homose	-14368
▁hurric	-14369
▁hydrop	-14370
▁ideals	-14371
▁images	-14372
▁inclus	-14373
▁indoor	-14374
▁infirm	-14375
▁intent	-14376
▁ironic	-14377
▁judici	-14378
▁kidney	-14379
▁labore	-14380
▁laying	-14381
▁league	-14382
▁leased	-14383
▁lesser	-14384
▁lethal	-14385
▁longev	-14386
▁lumbar	-14387
▁majest	-14388
▁malign	-14389
▁marrow	-14390
▁marvel	-14391
▁masked	-14392
▁mildly	-14393
▁milest	-14394
▁misery	-14395
▁motive	-14396
▁muddle	-14397
▁museum	-14398
▁myster	-14399
16	-14400
CM	-14401
ST	-14402
To	-14403
Wh	-14404
wa	-14405
”?	-14406
tar	-14407
▁29	-14408
▁5-	-14409
▁pa	-14410
asir	-14411
aton	-14412
from	-14413
ouis	-14414
were	-14415
▁Fac	-14416
▁III	-14417
▁Met	-14418
▁inh	-14419
▁sap	-14420
Nasir	-14421
adors	-14422
avals	-14423
ersed	-14424
izers	-14425
onies	-14426
ossal	-14427
▁2.2%	-14428
▁Alab	-14429
▁Crit	-14430
▁DENV	-14431
▁Hang	-14432
▁Mors	-14433
▁beer	-14434
▁drow	-14435
▁fest	-14436
▁ions	-14437
▁neat	-14438
▁stub	-14439
▁thie	-14440
▁tric	-14441
nation	-14442
▁Louis	-14443
▁Morsi	-14444
▁Would	-14445
▁freed	-14446
▁repro	-14447
▁stone	-14448
▁thick	-14449
▁wield	-14450
▁Bernie	-14451
▁DENVER	-14452
▁Deaton	-14453
▁Issues	-14454
▁Option	-14455
▁Penins	-14456
▁allied	-14457
▁banker	-14458
▁canals	-14459
▁hiding	-14460
▁medioc	-14461
▁nerves	-14462
▁nobody	-14463
▁noting	-14464
▁nurses	-14465
▁oceans	-14466
▁odious	-14467
▁opting	-14468
▁orders	-14469
▁outlet	-14470
▁parole	-14471
▁paving	-14472
▁payoff	-14473
▁persec	-14474
▁pieces	-14475
▁pillar	-14476
▁potato	-14477
▁poured	-14478
▁praise	-14479
▁propel	-14480
▁prover	-14481
▁recapt	-14482
▁recept	-14483
▁reckon	-14484
▁reined	-14485
▁remedy	-14486
▁reopen	-14487
▁repeat	-14488
▁riding	-14489
▁rigged	-14490
▁scales	-14491
▁settle	-14492
▁shield	-14493
▁shores	-14494
▁slogan	-14495
▁slopes	-14496
▁smiles	-14497
▁sordid	-14498
▁sowing	-14499
85	-14500
Cs	-14501
OC	-14502
▁0	-14503
DAM	-14504
asa	-14505
cit	-14506
ito	-14507
jar	-14508
ora	-14509
oso	-14510
you	-14511
▁Eh	-14512
amps	-14513
asen	-14514
elig	-14515
enas	-14516
load	-14517
oved	-14518
rend	-14519
▁160	-14520
▁BCS	-14521
▁Fel	-14522
▁cum	-14523
▁haw	-14524
ERDAM	-14525
Thank	-14526
cular	-14527
esman	-14528
ester	-14529
imony	-14530
[...]
